{
  "version": "1.0",
  "truncation": null,
  "padding": null,
  "added_tokens": [
    {
      "id": 0,
      "content": "<pad>",
      "single_word": false,
      "lstrip": false,
      "rstrip": false,
      "normalized": false,
      "special": true
    },
    {
      "id": 1,
      "content": "<unk>",
      "single_word": false,
      "lstrip": false,
      "rstrip": false,
      "normalized": false,
      "special": true
    },
    {
      "id": 2,
      "content": "<bos>",
      "single_word": false,
      "lstrip": false,
      "rstrip": false,
      "normalized": false,
      "special": true
    },
    {
      "id": 3,
      "content": "<eos>",
      "single_word": false,
      "lstrip": false,
      "rstrip": false,
      "normalized": false,
      "special": true
    }
  ],
  "normalizer": null,
  "pre_tokenizer": {
    "type": "Metaspace",
    "replacement": "▁",
    "prepend_scheme": "never",
    "split": true
  },
  "post_processor": null,
  "decoder": {
    "type": "Metaspace",
    "replacement": "▁",
    "prepend_scheme": "never",
    "split": true
  },
  "model": {
    "type": "BPE",
    "dropout": null,
    "unk_token": "<unk>",
    "continuing_subword_prefix": null,
    "end_of_word_suffix": null,
    "fuse_unk": false,
    "byte_fallback": false,
    "ignore_merges": false,
    "vocab": {
      "<pad>": 0,
      "<unk>": 1,
      "<bos>": 2,
      "<eos>": 3,
      "\n": 4,
      "!": 5,
      "\"": 6,
      "#": 7,
      "$": 8,
      "%": 9,
      "&": 10,
      "'": 11,
      "(": 12,
      ")": 13,
      "*": 14,
      "+": 15,
      ",": 16,
      "-": 17,
      ".": 18,
      "/": 19,
      "0": 20,
      "1": 21,
      "2": 22,
      "3": 23,
      "4": 24,
      "5": 25,
      "6": 26,
      "7": 27,
      "8": 28,
      "9": 29,
      ":": 30,
      ";": 31,
      "<": 32,
      "=": 33,
      ">": 34,
      "?": 35,
      "A": 36,
      "B": 37,
      "C": 38,
      "D": 39,
      "E": 40,
      "F": 41,
      "G": 42,
      "H": 43,
      "I": 44,
      "J": 45,
      "K": 46,
      "L": 47,
      "M": 48,
      "N": 49,
      "O": 50,
      "P": 51,
      "Q": 52,
      "R": 53,
      "S": 54,
      "T": 55,
      "U": 56,
      "V": 57,
      "W": 58,
      "X": 59,
      "Y": 60,
      "Z": 61,
      "[": 62,
      "\\": 63,
      "]": 64,
      "^": 65,
      "_": 66,
      "`": 67,
      "a": 68,
      "b": 69,
      "c": 70,
      "d": 71,
      "e": 72,
      "f": 73,
      "g": 74,
      "h": 75,
      "i": 76,
      "j": 77,
      "k": 78,
      "l": 79,
      "m": 80,
      "n": 81,
      "o": 82,
      "p": 83,
      "q": 84,
      "r": 85,
      "s": 86,
      "t": 87,
      "u": 88,
      "v": 89,
      "w": 90,
      "x": 91,
      "y": 92,
      "z": 93,
      "{": 94,
      "|": 95,
      "}": 96,
      "~": 97,
      "°": 98,
      "·": 99,
      "Ö": 100,
      "á": 101,
      "â": 102,
      "æ": 103,
      "ç": 104,
      "è": 105,
      "é": 106,
      "í": 107,
      "ñ": 108,
      "ö": 109,
      "ø": 110,
      "ü": 111,
      "ā": 112,
      "ī": 113,
      "İ": 114,
      "Ś": 115,
      "ś": 116,
      "ū": 117,
      "ș": 118,
      "ə": 119,
      "ɦ": 120,
      "ɪ": 121,
      "ɾ": 122,
      "ʊ": 123,
      "ʱ": 124,
      "ʼ": 125,
      "ˈ": 126,
      "ː": 127,
      "ί": 128,
      "α": 129,
      "δ": 130,
      "θ": 131,
      "ν": 132,
      "π": 133,
      "ς": 134,
      "ό": 135,
      "ँ": 136,
      "ं": 137,
      "ः": 138,
      "अ": 139,
      "आ": 140,
      "इ": 141,
      "ई": 142,
      "उ": 143,
      "ऊ": 144,
      "ऋ": 145,
      "ऍ": 146,
      "ए": 147,
      "ऐ": 148,
      "ऑ": 149,
      "ओ": 150,
      "औ": 151,
      "क": 152,
      "ख": 153,
      "ग": 154,
      "घ": 155,
      "ङ": 156,
      "च": 157,
      "छ": 158,
      "ज": 159,
      "झ": 160,
      "ञ": 161,
      "ट": 162,
      "ठ": 163,
      "ड": 164,
      "ढ": 165,
      "ण": 166,
      "त": 167,
      "थ": 168,
      "द": 169,
      "ध": 170,
      "न": 171,
      "ऩ": 172,
      "प": 173,
      "फ": 174,
      "ब": 175,
      "भ": 176,
      "म": 177,
      "य": 178,
      "र": 179,
      "ल": 180,
      "ळ": 181,
      "व": 182,
      "श": 183,
      "ष": 184,
      "स": 185,
      "ह": 186,
      "ऻ": 187,
      "़": 188,
      "ऽ": 189,
      "ा": 190,
      "ि": 191,
      "ी": 192,
      "ु": 193,
      "ू": 194,
      "ृ": 195,
      "े": 196,
      "ै": 197,
      "ॉ": 198,
      "ॊ": 199,
      "ो": 200,
      "ौ": 201,
      "्": 202,
      "॔": 203,
      "।": 204,
      "०": 205,
      "१": 206,
      "२": 207,
      "३": 208,
      "४": 209,
      "५": 210,
      "६": 211,
      "७": 212,
      "८": 213,
      "९": 214,
      "॰": 215,
      "ం": 216,
      "ః": 217,
      "అ": 218,
      "ఆ": 219,
      "ఇ": 220,
      "ఈ": 221,
      "ఉ": 222,
      "ఋ": 223,
      "ఎ": 224,
      "ఏ": 225,
      "ఐ": 226,
      "ఒ": 227,
      "ఓ": 228,
      "ఔ": 229,
      "క": 230,
      "ఖ": 231,
      "గ": 232,
      "ఘ": 233,
      "చ": 234,
      "ఛ": 235,
      "జ": 236,
      "ఞ": 237,
      "ట": 238,
      "ఠ": 239,
      "డ": 240,
      "ఢ": 241,
      "ణ": 242,
      "త": 243,
      "థ": 244,
      "ద": 245,
      "ధ": 246,
      "న": 247,
      "ప": 248,
      "ఫ": 249,
      "బ": 250,
      "భ": 251,
      "మ": 252,
      "య": 253,
      "ర": 254,
      "ల": 255,
      "ళ": 256,
      "వ": 257,
      "శ": 258,
      "ష": 259,
      "స": 260,
      "హ": 261,
      "ా": 262,
      "ి": 263,
      "ీ": 264,
      "ు": 265,
      "ూ": 266,
      "ృ": 267,
      "ె": 268,
      "ే": 269,
      "ై": 270,
      "ొ": 271,
      "ో": 272,
      "ౌ": 273,
      "్": 274,
      "ṇ": 275,
      "Ṛ": 276,
      "ṣ": 277,
      "ṭ": 278,
      "Ἰ": 279,
      " ": 280,
      " ": 281,
      "‌": 282,
      "‍": 283,
      "‎": 284,
      "–": 285,
      "—": 286,
      "‘": 287,
      "’": 288,
      "“": 289,
      "”": 290,
      "†": 291,
      "•": 292,
      "′": 293,
      "″": 294,
      "‹": 295,
      "›": 296,
      "⁡": 297,
      "₹": 298,
      "↑": 299,
      "−": 300,
      "ⓘ": 301,
      "▁": 302,
      "﻿": 303,
      "ia": 304,
      "dia": 305,
      "or": 306,
      "tt": 307,
      ":/": 308,
      "htt": 309,
      "http": 310,
      "://": 311,
      "pe": 312,
      "https": 313,
      "https://": 314,
      "](": 315,
      "](https://": 316,
      "g/": 317,
      "wi": 318,
      "ki": 319,
      ".or": 320,
      ".org/": 321,
      "wiki": 322,
      "pedia": 323,
      ".wiki": 324,
      "pedia.org/": 325,
      ".wikipedia.org/": 326,
      "▁[": 327,
      "en": 328,
      "te": 329,
      "▁\"": 330,
      "\")": 331,
      "in": 332,
      "an": 333,
      "on": 334,
      "In": 335,
      "](https://en": 336,
      "](https://en.wikipedia.org/": 337,
      "th": 338,
      "ti": 339,
      "hi": 340,
      "India": 341,
      "er": 342,
      "ar": 343,
      "20": 344,
      "al": 345,
      "es": 346,
      "ार": 347,
      "](https://hi": 348,
      "](https://hi.wikipedia.org/": 349,
      "▁क": 350,
      "re": 351,
      "▁|": 352,
      "of": 353,
      "्र": 354,
      "is": 355,
      "ci": 356,
      "the": 357,
      "भार": 358,
      "भारत": 359,
      "tion": 360,
      "om": 361,
      "ed": 362,
      "and": 363,
      "te_": 364,
      "▁-": 365,
      "▁स": 366,
      "▁the": 367,
      "▁of": 368,
      "#ci": 369,
      "#cite_": 370,
      "▁(": 371,
      "it": 372,
      "as": 373,
      "ou": 374,
      "](https://en.wikipedia.org/India": 375,
      "19": 376,
      "ic": 377,
      "▁म": 378,
      "्य": 379,
      "le": 380,
      "▁India": 381,
      "201": 382,
      "OT": 383,
      "oo": 384,
      "్ర": 385,
      "▁in": 386,
      "id": 387,
      "ra": 388,
      "no": 389,
      "](https://te": 390,
      "](https://te.wikipedia.org/": 391,
      "रा": 392,
      "▁प": 393,
      "ent": 394,
      "](https://en.wikipedia.org/India#cite_": 395,
      "▁s": 396,
      "-0": 397,
      "▁and": 398,
      "200": 399,
      "▁p": 400,
      "**": 401,
      "ri": 402,
      "ార": 403,
      "ान": 404,
      "-1": 405,
      "et": 406,
      "la": 407,
      "ing": 408,
      "ें": 409,
      "▁c": 410,
      "▁A": 411,
      "र्": 412,
      "am": 413,
      "ref": 414,
      "us": 415,
      "at": 416,
      ").": 417,
      "▁के": 418,
      "](https://hi.wikipedia.org/भारत": 419,
      "note": 420,
      "्त": 421,
      "▁S": 422,
      "▁ह": 423,
      "ook": 424,
      "[[": 425,
      "▁f": 426,
      "▁C": 427,
      "ac": 428,
      "ref-": 429,
      "note-": 430,
      "ag": 431,
      "78": 432,
      "ang": 433,
      "ation": 434,
      "▁t": 435,
      "li": 436,
      "▁b": 437,
      "ve": 438,
      "\n\n": 439,
      "ur": 440,
      "lo": 441,
      "ad": 442,
      "या": 443,
      "िक": 444,
      "um": 445,
      "▁P": 446,
      "ాల": 447,
      "▁m": 448,
      "ver": 449,
      "IS": 450,
      "we": 451,
      "ist": 452,
      "ीय": 453,
      "▁में": 454,
      "▁अ": 455,
      "\"),": 456,
      "com": 457,
      "he": 458,
      "FO": 459,
      "978": 460,
      "్య": 461,
      "_of": 462,
      "NOT": 463,
      "OTNOT": 464,
      "FOOTNOT": 465,
      "FOOTNOTE": 466,
      "BN": 467,
      "ISBN": 468,
      "ww": 469,
      "_of_": 470,
      "ch": 471,
      "▁1": 472,
      "ial": 473,
      "ro": 474,
      "▁[↑": 475,
      "ce": 476,
      "ter": 477,
      "fi": 478,
      "st": 479,
      "భార": 480,
      "భారత": 481,
      "దే": 482,
      "ों": 483,
      "il": 484,
      "స్": 485,
      "▁w": 486,
      "దేశ": 487,
      "]](https://en.wikipedia.org/India#cite_": 488,
      "वि": 489,
      "enti": 490,
      "un": 491,
      "Sou": 492,
      "10": 493,
      "](https://en.wikipedia.org/India#cite_ref-": 494,
      "]](https://en.wikipedia.org/India#cite_note-": 495,
      "ना": 496,
      "▁ప": 497,
      "▁M": 498,
      "▁T": 499,
      "▁d": 500,
      ".\n": 501,
      "▁ज": 502,
      "्ष": 503,
      "▁R": 504,
      "ons": 505,
      "ाल": 506,
      "rc": 507,
      "identi": 508,
      "er)": 509,
      "identifi": 510,
      "identifier)": 511,
      "lin": 512,
      "సా": 513,
      "_क": 514,
      "ul": 515,
      "▁द": 516,
      "▁है": 517,
      "न्": 518,
      "web": 519,
      "▁201": 520,
      "21": 521,
      "](https://hi.wikipedia.org/भारत#cite_": 522,
      "िया": 523,
      "▁**": 524,
      "-0)": 525,
      "ol": 526,
      "त्र": 527,
      "राज": 528,
      "ेश": 529,
      "red": 530,
      "tic": 531,
      "book": 532,
      "న్": 533,
      "em": 534,
      "▁to": 535,
      "▁a": 536,
      "00": 537,
      "▁B": 538,
      "res": 539,
      "ate": 540,
      "es/": 541,
      "s.": 542,
      "),": 543,
      "ni": 544,
      "ర్": 545,
      "25": 546,
      "cial": 547,
      "ment": 548,
      "भा": 549,
      "ig": 550,
      "▁|\n": 551,
      "और": 552,
      "▁ब": 553,
      "_(": 554,
      "pg": 555,
      "▁|\n|": 556,
      "26": 557,
      "▁भारत": 558,
      "ंग": 559,
      "्व": 560,
      "ला": 561,
      "▁प्र": 562,
      "ir": 563,
      "▁की": 564,
      "ति": 565,
      "=1": 566,
      "▁D": 567,
      "edit": 568,
      "link": 569,
      "▁न": 570,
      "IT": 571,
      "23": 572,
      "action": 573,
      "24": 574,
      "▁से": 575,
      "sia": 576,
      "▁India\")": 577,
      "ity": 578,
      ".com": 579,
      "action=": 580,
      "age": 581,
      "action=edit": 582,
      "ind": 583,
      "ता": 584,
      "Spe": 585,
      ".j": 586,
      "&red": 587,
      "?action=edit": 588,
      "link=1": 589,
      "&redlink=1": 590,
      "?action=edit&redlink=1": 591,
      "RE": 592,
      "ITE": 593,
      "_स": 594,
      "▁और": 595,
      "▁[↑](https://en.wikipedia.org/India#cite_ref-": 596,
      "ITERE": 597,
      "లు": 598,
      "ITEREF": 599,
      ".com/": 600,
      "्ट": 601,
      "ly": 602,
      "angu": 603,
      "▁का": 604,
      "ec": 605,
      "రా": 606,
      "199": 607,
      "▁E": 608,
      "Special": 609,
      "▁*": 610,
      "▁20": 611,
      "_India": 612,
      "ion": 613,
      "·**": 614,
      "▁**·**": 615,
      "Special:": 616,
      "ma": 617,
      "\").": 618,
      "▁•": 619,
      "india": 620,
      "ay": 621,
      "me": 622,
      "go": 623,
      "ved": 624,
      "భారతదేశ": 625,
      "Uni": 626,
      ".శ": 627,
      ".శ.": 628,
      "లో": 629,
      "tu": 630,
      "rces/": 631,
      "▁l": 632,
      "▁H": 633,
      "Book": 634,
      "▁\"भारत": 635,
      "28": 636,
      "ld": 637,
      "సా.శ.": 638,
      "_in": 639,
      "cal": 640,
      "978-0": 641,
      "ha": 642,
      "स्त": 643,
      "▁G": 644,
      "#C": 645,
      "Sources/": 646,
      "Special:Book": 647,
      "Special:BookSources/": 648,
      "chi": 649,
      "11": 650,
      "#CITEREF": 651,
      "up": 652,
      "▁N": 653,
      "▁व": 654,
      "▁క": 655,
      "▁e": 656,
      "978-0-": 657,
      "राज्य": 658,
      "षा": 659,
      "ber": 660,
      "न्द": 661,
      "oun": 662,
      "ory": 663,
      "क्ष": 664,
      "www": 665,
      "rom": 666,
      "ित": 667,
      "▁आ": 668,
      "-3": 669,
      "for": 670,
      "op": 671,
      "sh": 672,
      "త్ర": 673,
      "al_": 674,
      "n_": 675,
      "www.": 676,
      "▁on": 677,
      "ास": 678,
      "ాలు": 679,
      "-4": 680,
      "రి": 681,
      "▁200": 682,
      "క్": 683,
      "22": 684,
      "पु": 685,
      "▁त": 686,
      "archi": 687,
      "ంద": 688,
      "30": 689,
      "ew": 690,
      "vers": 691,
      "ary": 692,
      "ని": 693,
      "50": 694,
      "mp": 695,
      "▁వ": 696,
      "calf": 697,
      "भाषा": 698,
      "ge": 699,
      "ry": 700,
      "etcalf": 701,
      "▁th": 702,
      "▁re": 703,
      "-8": 704,
      "_S": 705,
      "ast": 706,
      "ted": 707,
      "ub": 708,
      "स्": 709,
      "archive": 710,
      "_A": 711,
      "est": 712,
      "el": 713,
      "](https://en.wikipedia.org/India#CITEREF": 714,
      "▁h": 715,
      "्रे": 716,
      "▁J": 717,
      ".in": 718,
      "ల్": 719,
      "rit": 720,
      "anguage": 721,
      "▁19": 722,
      "▁(identifier)": 723,
      "_(identifier)": 724,
      "▁(identifier)\")": 725,
      "The": 726,
      "▁or": 727,
      "ab": 728,
      "ak": 729,
      "▁n": 730,
      "29": 731,
      "od": 732,
      "मा": 733,
      "భారతదేశం": 734,
      "था": 735,
      "s](https://en.wikipedia.org/": 736,
      "archive.org/": 737,
      "री": 738,
      "▁[\"": 739,
      "▁को": 740,
      "_of_India": 741,
      "▁ग": 742,
      "18": 743,
      "--": 744,
      "ची": 745,
      "▁F": 746,
      "ంగ": 747,
      "]](https://hi.wikipedia.org/भारत#cite_": 748,
      "▁స": 749,
      "▁from": 750,
      "]](https://en.wikipedia.org/India#cite_note-FOOTNOTE": 751,
      "देश": 752,
      "▁---": 753,
      "http://": 754,
      "▁In": 755,
      "\n-": 756,
      "onom": 757,
      ".jpg": 758,
      "▁మ": 759,
      "ish": 760,
      "ct": 761,
      "gh": 762,
      "ष्ट": 763,
      "Metcalf": 764,
      "▁p.": 765,
      ".[[": 766,
      "▁for": 767,
      "web.": 768,
      "orld": 769,
      "▁उ": 770,
      "](https://web.": 771,
      "▁by": 772,
      "goo": 773,
      "web/": 774,
      "archive.org/web/": 775,
      "](https://web.archive.org/web/": 776,
      "27": 777,
      "▁ए": 778,
      "ड़": 779,
      "ud": 780,
      "ep": 781,
      "im": 782,
      "ाद": 783,
      "▁पर": 784,
      "40": 785,
      "్రా": 786,
      "books": 787,
      "List": 788,
      "gle": 789,
      "versity": 790,
      "13": 791,
      "AA": 792,
      "▁है।": 793,
      "▁[A": 794,
      "id=": 795,
      "▁श": 796,
      "▁[S": 797,
      "▁[म": 798,
      "▁\"C": 799,
      "ष्ट्र": 800,
      "▁is": 801,
      "15": 802,
      "ీయ": 803,
      "_के": 804,
      "17": 805,
      "16": 806,
      "os": 807,
      "ort": 808,
      "_म": 809,
      "▁सं": 810,
      "_and": 811,
      "ust": 812,
      "google": 813,
      "▁g": 814,
      "▁Indian": 815,
      "ండ": 816,
      "▁ar": 817,
      "978-1": 818,
      "ने": 819,
      "?id=": 820,
      "books.": 821,
      ".com/books": 822,
      "google.com/books": 823,
      "books.google.com/books": 824,
      "का": 825,
      "िल": 826,
      "▁[ISBN": 827,
      "▁O": 828,
      "▁वि": 829,
      "umb": 830,
      "books.google.com/books?id=": 831,
      "ther": 832,
      "har": 833,
      "प्र": 834,
      "▁\"ISBN": 835,
      "ISBN_(identifier)": 836,
      "ount": 837,
      "s/": 838,
      "▁L": 839,
      "ens": 840,
      "ational": 841,
      "ेत्र": 842,
      "ress": 843,
      "*.": 844,
      "_in_India": 845,
      "14": 846,
      "జ్య": 847,
      "▁Asia": 848,
      "▁W": 849,
      "▁చ": 850,
      "](https://hi.wikipedia.org/भारत#cite_ref-": 851,
      "]](https://hi.wikipedia.org/भारत#cite_note-": 852,
      "-9": 853,
      "ain": 854,
      "हि": 855,
      "_C": 856,
      "_P": 857,
      "म्": 858,
      "ut": 859,
      ")\n\n": 860,
      "▁ल": 861,
      "](https://books.google.com/books?id=": 862,
      "्या": 863,
      "▁[C": 864,
      "do": 865,
      "▁इ": 866,
      "uc": 867,
      "▁K": 868,
      "\"))": 869,
      "ap": 870,
      "'s": 871,
      "తా": 872,
      "▁[*": 873,
      "South": 874,
      "ము": 875,
      "ి.": 876,
      "ont": 877,
      "నా": 878,
      "िय": 879,
      "్ట": 880,
      "▁([": 881,
      "late": 882,
      "gov": 883,
      "University": 884,
      "_के_": 885,
      "ng": 886,
      "##": 887,
      "తి": 888,
      "p.": 889,
      "ot": 890,
      "सं": 891,
      "err": 892,
      "ी](https://hi.wikipedia.org/": 893,
      "सा": 894,
      "px": 895,
      "▁\"M": 896,
      "▁The": 897,
      "▁र": 898,
      "inal": 899,
      "▁wi": 900,
      "our": 901,
      "mons": 902,
      ".org/wiki": 903,
      "media": 904,
      "▁\"S": 905,
      "error": 906,
      "త్": 907,
      "nd": 908,
      "Har": 909,
      "त्त": 910,
      "](https://en.wikipedia.org/C": 911,
      "సి": 912,
      "▁pp.": 913,
      "lation": 914,
      "-2": 915,
      ".gov": 916,
      "ज़": 917,
      ".in/": 918,
      "over": 919,
      "s,": 920,
      "Special:BookSources/978-0-": 921,
      "▁[M": 922,
      "-7": 923,
      "33": 924,
      "ff": 925,
      "र्व": 926,
      "umm": 927,
      "ence": 928,
      "राष्ट्र": 929,
      "▁[↑](https://en.wikipedia.org/India#cite_ref-FOOTNOTE": 930,
      "PA": 931,
      "ys": 932,
      "rad": 933,
      "load": 934,
      "aj": 935,
      "▁(సా.శ.": 936,
      "upload": 937,
      "br": 938,
      "ong": 939,
      "%2": 940,
      "▁be": 941,
      ".wikimedia": 942,
      ".wikimedia.org/wiki": 943,
      "िस": 944,
      "und": 945,
      "commons": 946,
      "ंड": 947,
      "ులు": 948,
      "▁రా": 949,
      "▁भाषा": 950,
      "rie": 951,
      "![": 952,
      "pedia/": 953,
      "](https://en.wikipedia.org/ISBN_(identifier)": 954,
      "्षेत्र": 955,
      "▁[ISBN](https://en.wikipedia.org/ISBN_(identifier)": 956,
      "upload.wikimedia.org/wiki": 957,
      "upload.wikimedia.org/wikipedia/": 958,
      "1.": 959,
      "per": 960,
      "av": 961,
      "thumb": 962,
      "art": 963,
      "▁सा": 964,
      "-5": 965,
      "35": 966,
      "tein": 967,
      "యా": 968,
      "–సా.శ.": 969,
      "](https://upload.wikimedia.org/wikipedia/": 970,
      "ance": 971,
      "commons/": 972,
      ")[[": 973,
      "ी_": 974,
      "▁అ": 975,
      "▁[B": 976,
      "▁\"म": 977,
      "thumb/": 978,
      "▁orig": 979,
      "▁\"B": 980,
      "](https://upload.wikimedia.org/wikipedia/commons/": 981,
      "▁as": 982,
      "&pg": 983,
      "&pg=": 984,
      "lig": 985,
      "tern": 986,
      "](https://upload.wikimedia.org/wikipedia/commons/thumb/": 987,
      "▁ప్ర": 988,
      "px-": 989,
      "70": 990,
      "ow": 991,
      "ture": 992,
      "चि": 993,
      "जा": 994,
      "मन": 995,
      "ले": 996,
      "ear": 997,
      "पा": 998,
      "ిక": 999,
      "▁राज्य": 1000,
      "](https://en.wikipedia.org/S": 1001,
      "ans": 1002,
      "all": 1003,
      "▁original": 1004,
      "▁\"A": 1005,
      "▁Ret": 1006,
      "▁st": 1007,
      "తం": 1008,
      "rieved": 1009,
      "▁Retrieved": 1010,
      "▁I": 1011,
      "a_": 1012,
      "cy": 1013,
      "rchi": 1014,
      "log": 1015,
      "ूची": 1016,
      "&pg=PA": 1017,
      ".p": 1018,
      "विश": 1019,
      "▁य": 1020,
      "land": 1021,
      "▁\"P": 1022,
      "](https://en.wikipedia.org/M": 1023,
      "ht": 1024,
      "ी\")": 1025,
      "▁भ": 1026,
      "ore": 1027,
      "36": 1028,
      "ిన": 1029,
      "▁हैं": 1030,
      "జ్యం": 1031,
      "47": 1032,
      "गर": 1033,
      "_and_": 1034,
      "ke": 1035,
      ".jpg)": 1036,
      "ll": 1037,
      "2.": 1038,
      "हा": 1039,
      "▁with": 1040,
      "conom": 1041,
      "జా": 1042,
      "2006": 1043,
      "ile": 1044,
      "esh": 1045,
      "iv": 1046,
      "emp": 1047,
      "णी": 1048,
      "ంచ": 1049,
      "కు": 1050,
      "2018": 1051,
      "ensus": 1052,
      "ummit": 1053,
      "ere": 1054,
      "_M": 1055,
      "ss": 1056,
      "ire": 1057,
      "og": 1058,
      "](https://te.wikipedia.org/భారతదేశం": 1059,
      "▁[↑](https://hi.wikipedia.org/भारत#cite_ref-": 1060,
      "कि": 1061,
      "▁no": 1062,
      "-10": 1063,
      "nic": 1064,
      "ana": 1065,
      "▁University": 1066,
      "ies": 1067,
      "arg": 1068,
      "कार": 1069,
      "ेला": 1070,
      "ను": 1071,
      "పూ": 1072,
      "38": 1073,
      "-6": 1074,
      "क्त": 1075,
      "ोल": 1076,
      ".\n-": 1077,
      "हिन्द": 1078,
      "*](https://books.google.com/books?id=": 1079,
      "hin": 1080,
      "पर": 1081,
      "nment": 1082,
      "ulation": 1083,
      "मी": 1084,
      "](https://en.wikipedia.org/B": 1085,
      "▁\"T": 1086,
      "భా": 1087,
      "omm": 1088,
      "rchived": 1089,
      "temp": 1090,
      "ric": 1091,
      "▁&": 1092,
      "](https://en.wikipedia.org/P": 1093,
      "titu": 1094,
      "▁कर": 1095,
      "](http://": 1096,
      "ass": 1097,
      "de": 1098,
      "▁[P": 1099,
      "ప్ర": 1100,
      "48": 1101,
      "िर": 1102,
      "ंग्रे": 1103,
      "/https://": 1104,
      "istory": 1105,
      "ద్": 1106,
      "▁क्षेत्र": 1107,
      "▁*[": 1108,
      "opulation": 1109,
      "Indian": 1110,
      ".jp": 1111,
      "ेष": 1112,
      "ింద": 1113,
      "ages": 1114,
      "द्": 1115,
      "धान": 1116,
      "▁ఉ": 1117,
      "▁अन": 1118,
      "_T": 1119,
      "▁was": 1120,
      "Stein": 1121,
      "_D": 1122,
      "ard": 1123,
      "र्म": 1124,
      "ai": 1125,
      "ंध": 1126,
      "](https://hi.wikipedia.org/म": 1127,
      "60": 1128,
      "▁\"E": 1129,
      "ism": 1130,
      "2011": 1131,
      "ाना": 1132,
      "indu": 1133,
      "ubl": 1134,
      "sher": 1135,
      "](https://web.archive.org/web/201": 1136,
      "oc": 1137,
      "%2C": 1138,
      "ue": 1139,
      "भि": 1140,
      "श्": 1141,
      "ेल": 1142,
      "▁ఆ": 1143,
      "](https://www.": 1144,
      "्रा": 1145,
      "Harv": 1146,
      "वा": 1147,
      "errors": 1148,
      "](https://en.wikipedia.org/T": 1149,
      "outh": 1150,
      ".jpg/": 1151,
      "से": 1152,
      "ोत": 1153,
      "ank": 1154,
      "7.": 1155,
      "ord": 1156,
      "ts": 1157,
      "स्तान": 1158,
      "▁ర": 1159,
      "्रेणी": 1160,
      "ृत": 1161,
      "▁[अ": 1162,
      "](https://en.wikipedia.org/F": 1163,
      "ries": 1164,
      "▁ने": 1165,
      "▁language": 1166,
      "▁ex": 1167,
      "eral": 1168,
      "धार": 1169,
      "▁१": 1170,
      "to": 1171,
      "श्रेणी": 1172,
      "మా": 1173,
      "▁సా": 1174,
      "భారతీయ": 1175,
      "▁de": 1176,
      "anguages": 1177,
      "45": 1178,
      "▁an": 1179,
      "▁\"अ": 1180,
      "a\")": 1181,
      "other": 1182,
      "వా": 1183,
      "ीय_": 1184,
      "_b": 1185,
      "▁\"D": 1186,
      "stan": 1187,
      "ates": 1188,
      "▁ति": 1189,
      "49": 1190,
      ":Harv": 1191,
      "రు": 1192,
      "▁[भारत": 1193,
      "iss": 1194,
      "▁are": 1195,
      "▁एक": 1196,
      "AJ": 1197,
      "se": 1198,
      "िण": 1199,
      "ीप": 1200,
      "fn": 1201,
      "ingh": 1202,
      "ूल": 1203,
      "BAJ": 1204,
      "QBAJ": 1205,
      "mai": 1206,
      "46": 1207,
      "వి": 1208,
      "ష్ట": 1209,
      "ian": 1210,
      "ార్": 1211,
      "ford": 1212,
      "పూ.": 1213,
      "39": 1214,
      "▁\"G": 1215,
      "omp": 1216,
      "▁\"क": 1217,
      "](https://en.wikipedia.org/E": 1218,
      "▁पु": 1219,
      "विशेष": 1220,
      "_R": 1221,
      "ंद": 1222,
      "ंत्र": 1223,
      "▁\"स": 1224,
      "▁\"List": 1225,
      "▁r": 1226,
      "tem": 1227,
      "aki": 1228,
      "▁V": 1229,
      "](https://mai": 1230,
      "స్థ": 1231,
      "రిత్ర": 1232,
      "క్ష": 1233,
      "विशेष:": 1234,
      "](https://mai.wikipedia.org/": 1235,
      "4.": 1236,
      "ik": 1237,
      "▁it": 1238,
      "\")\n\n": 1239,
      "\")\n-": 1240,
      "2010": 1241,
      "थि": 1242,
      "▁[978-0-": 1243,
      "ib": 1244,
      "_B": 1245,
      "xford": 1246,
      "ोग": 1247,
      "tive": 1248,
      "df": 1249,
      "onstitu": 1250,
      "क्षिण": 1251,
      "▁[स": 1252,
      "/http://": 1253,
      "](https://en.wikipedia.org/A": 1254,
      "_Asia": 1255,
      "AAQBAJ": 1256,
      "_s": 1257,
      "▁\"N": 1258,
      "ical": 1259,
      "_G": 1260,
      "ex": 1261,
      "ark": 1262,
      "▁whi": 1263,
      "udd": 1264,
      "90": 1265,
      "న్న": 1266,
      "▁प्रदेश": 1267,
      "▁[G": 1268,
      "eng": 1269,
      "ine": 1270,
      "ess": 1271,
      "ata": 1272,
      "IC": 1273,
      "end": 1274,
      "](https://en.wikipedia.org/D": 1275,
      "250": 1276,
      "▁(P": 1277,
      "htm": 1278,
      "List_of_": 1279,
      "oli": 1280,
      "-p": 1281,
      "_N": 1282,
      "hm": 1283,
      "ers": 1284,
      "MetcalfMetcalf": 1285,
      "यु": 1286,
      "▁[क": 1287,
      "tics": 1288,
      "als": 1289,
      "ction": 1290,
      "ven": 1291,
      "गमन": 1292,
      "Special:BookSources/978-1": 1293,
      "ountries": 1294,
      "श्रेणी:Harv": 1295,
      "37": 1296,
      "ions": 1297,
      "▁तिथि": 1298,
      "नी": 1299,
      "ult": 1300,
      "6.": 1301,
      "port": 1302,
      "जन": 1303,
      "द्य": 1304,
      "ी_स": 1305,
      "](https://hi.wikipedia.org/क": 1306,
      "](https://te.wikipedia.org/భారతదేశం#cite_": 1307,
      "vi": 1308,
      "▁\"R": 1309,
      "धिक": 1310,
      "▁ख": 1311,
      "▁[2": 1312,
      "▁\"भारतीय": 1313,
      "_p": 1314,
      "ँच": 1315,
      "ून": 1316,
      "గా": 1317,
      "▁देश": 1318,
      "▁तिथि:": 1319,
      "0%": 1320,
      "1998": 1321,
      "▁[D": 1322,
      "▁[N": 1323,
      "्री": 1324,
      "▁जन": 1325,
      "▁भारतीय": 1326,
      "cl": 1327,
      "language": 1328,
      "ral": 1329,
      "ంట": 1330,
      "కి": 1331,
      "▁तथा": 1332,
      "ties": 1333,
      "-1)": 1334,
      "▁Pres": 1335,
      "10.": 1336,
      "▁2011": 1337,
      "ition": 1338,
      "ढ़": 1339,
      "మ్రా": 1340,
      "tim": 1341,
      "icial": 1342,
      "▁अभि": 1343,
      "indi": 1344,
      "ష్ట్ర": 1345,
      "▁अभिगमन": 1346,
      "3.": 1347,
      "rou": 1348,
      "▁[1": 1349,
      "▁\"ब": 1350,
      "df)": 1351,
      "▁which": 1352,
      "..": 1353,
      "ath": 1354,
      "DF": 1355,
      "त्": 1356,
      "ूर्व": 1357,
      "ంత": 1358,
      "▁च": 1359,
      "](https://en.wikipedia.org/G": 1360,
      "2009": 1361,
      "au": 1362,
      "▁[E": 1363,
      ",_": 1364,
      "5.": 1365,
      "धर्म": 1366,
      "bot": 1367,
      "ern": 1368,
      "albot": 1369,
      "77": 1370,
      "दी": 1371,
      "्रोत": 1372,
      "▁South": 1373,
      "%20": 1374,
      "1)": 1375,
      "34": 1376,
      "RIC": 1377,
      "्ल": 1378,
      "▁[![": 1379,
      "his": 1380,
      "india.gov": 1381,
      "▁[T": 1382,
      "ती": 1383,
      "పు": 1384,
      "▁[Archived": 1385,
      "▁हैं।": 1386,
      "ope": 1387,
      "▁pro": 1388,
      "ost": 1389,
      "मान": 1390,
      "वं": 1391,
      "हर": 1392,
      "out": 1393,
      "▁(PDF": 1394,
      "2)": 1395,
      "new": 1396,
      "Asher": 1397,
      "बर": 1398,
      "▁న": 1399,
      "▁[R": 1400,
      "ani": 1401,
      "](https://en.wikipedia.org/N": 1402,
      "ration": 1403,
      "riti": 1404,
      "United": 1405,
      "द्ध": 1406,
      ")\")": 1407,
      "ob": 1408,
      "మి": 1409,
      "ాన": 1410,
      "स्तक": 1411,
      "पुस्तक": 1412,
      "विशेष:पुस्तक": 1413,
      "्रोत/": 1414,
      "रकार": 1415,
      "▁\"Special:BookSources/978-0-": 1416,
      "](https://en.wikipedia.org/Special:BookSources/978-0-": 1417,
      ").\n": 1418,
      "lop": 1419,
      "िका": 1420,
      "▁जा": 1421,
      "पुर": 1422,
      "▁that": 1423,
      "राष्ट्रीय": 1424,
      "fe": 1425,
      "ublic": 1426,
      "పా": 1427,
      "▁ఇ": 1428,
      "▁త": 1429,
      "▁राज": 1430,
      "▁[ब": 1431,
      "](https://hi.wikipedia.org/स": 1432,
      ".pdf)": 1433,
      "భాష": 1434,
      "8.": 1435,
      "s\")": 1436,
      "56": 1437,
      "9.": 1438,
      "▁li": 1439,
      "ous": 1440,
      "gen": 1441,
      "गु": 1442,
      "हार": 1443,
      "](https://en.wikipedia.org/R": 1444,
      "artic": 1445,
      "▁has": 1446,
      "AAQBAJ&pg=PA": 1447,
      "ach": 1448,
      "territ": 1449,
      "स्क": 1450,
      "12": 1451,
      "RICS": 1452,
      "-s": 1453,
      "పాల": 1454,
      "▁स्": 1455,
      "▁इस": 1456,
      "लेख": 1457,
      "eg": 1458,
      "ile:": 1459,
      "sland": 1460,
      "िट": 1461,
      "ant": 1462,
      "idge": 1463,
      "ame": 1464,
      "हास": 1465,
      "▁దేశ": 1466,
      "▁मेला": 1467,
      "స్తా": 1468,
      "inist": 1469,
      "ज्": 1470,
      "▁\"प": 1471,
      "▁वर्": 1472,
      "logy": 1473,
      "80": 1474,
      "▁pe": 1475,
      "ange": 1476,
      "▁De": 1477,
      "akistan": 1478,
      "िव": 1479,
      "िश": 1480,
      "లీ": 1481,
      "ాయ": 1482,
      "▁5": 1483,
      "रालेख": 1484,
      "ho": 1485,
      "hy": 1486,
      "\n\n##": 1487,
      "2004": 1488,
      "pend": 1489,
      "aste": 1490,
      "DP": 1491,
      "sv": 1492,
      "ा_": 1493,
      "▁3": 1494,
      "▁\"H": 1495,
      "र्थ": 1496,
      "▁हु": 1497,
      "_की_स": 1498,
      "](https://web.archive.org/web/20": 1499,
      "_में": 1500,
      "ite": 1501,
      "▁\"In": 1502,
      "ond": 1503,
      "्च": 1504,
      "3)": 1505,
      "MetcalfMetcalf2006": 1506,
      "ty": 1507,
      "ध्य": 1508,
      "ुख": 1509,
      "](https://hi.wikipedia.org/अ": 1510,
      "mpire": 1511,
      "మ్రాజ్యం": 1512,
      "रालेखित": 1513,
      "85": 1514,
      "man": 1515,
      "▁–": 1516,
      "-d": 1517,
      "_E": 1518,
      "▁[K": 1519,
      "▁v": 1520,
      "ontin": 1521,
      "_भारत": 1522,
      "द्र": 1523,
      "rap": 1524,
      "దేశ్": 1525,
      "▁भी": 1526,
      "ree": 1527,
      "ove": 1528,
      "▁at": 1529,
      "hist": 1530,
      "amil": 1531,
      "ational_": 1532,
      "elhi": 1533,
      "](https://en.wikipedia.org/File:": 1534,
      "onstitution": 1535,
      "थान": 1536,
      "ुस": 1537,
      "ం](https://te.wikipedia.org/": 1538,
      "bridge": 1539,
      "चित्र": 1540,
      "ritish": 1541,
      "▁India's": 1542,
      "hand": 1543,
      "▁सम": 1544,
      "](https://en.wikipedia.org/India#cite_ref-FOOTNOTE": 1545,
      "ah": 1546,
      "2007": 1547,
      "ambridge": 1548,
      "▁2014": 1549,
      "ంబ": 1550,
      "టి": 1551,
      "](https://hi.wikipedia.org/ब": 1552,
      "त्तर": 1553,
      ".nic": 1554,
      "doi": 1555,
      "South_Asia": 1556,
      "-b": 1557,
      "oh": 1558,
      "न\")": 1559,
      "पाल": 1560,
      "ोक": 1561,
      "▁सूची": 1562,
      "ury": 1563,
      "▁4": 1564,
      "late_": 1565,
      "शिया": 1566,
      "ంలో": 1567,
      "](https://hi.wikipedia.org/भारत_में": 1568,
      "స్తాన్": 1569,
      "67": 1570,
      "▁\"K": 1571,
      "row": 1572,
      "मिल": 1573,
      "▁7": 1574,
      "isation": 1575,
      "▁cent": 1576,
      "▁हि": 1577,
      "किस्तान": 1578,
      "yson": 1579,
      "lia": 1580,
      "फ़": 1581,
      "గు": 1582,
      "డు": 1583,
      "నే": 1584,
      "్చ": 1585,
      "ंग्रेज़": 1586,
      "ames": 1587,
      "conomy": 1588,
      "](https://en.wikipedia.org/List_of_": 1589,
      "ase": 1590,
      "\"\n": 1591,
      "4)": 1592,
      "ati": 1593,
      "ali": 1594,
      "▁Press": 1595,
      "000": 1596,
      "ते": 1597,
      "మూ": 1598,
      "▁[978-1": 1599,
      "▁\"Indian": 1600,
      "్రీ": 1601,
      "econom": 1602,
      "gover": 1603,
      "do-": 1604,
      "▁भाषा\")": 1605,
      "జాత": 1606,
      "RC": 1607,
      "hel": 1608,
      "duc": 1609,
      "qu": 1610,
      "world": 1611,
      "रु": 1612,
      "▁[प": 1613,
      "▁सरकार": 1614,
      "521": 1615,
      "E0%": 1616,
      "Oxford": 1617,
      "_c": 1618,
      "dit": 1619,
      "na": 1620,
      "रब": 1621,
      "ूर": 1622,
      "లా": 1623,
      "▁un": 1624,
      "▁\"The": 1625,
      "](https://en.wikipedia.org/H": 1626,
      "lection": 1627,
      "uring": 1628,
      "ign": 1629,
      "ంగా": 1630,
      "4%": 1631,
      "les": 1632,
      "any": 1633,
      "के": 1634,
      "▁घ": 1635,
      "usic": 1636,
      "्वीप": 1637,
      "▁History": 1638,
      "times": 1639,
      "_1": 1640,
      "▁te": 1641,
      "ome": 1642,
      "ulture": 1643,
      "overnment": 1644,
      "_d": 1645,
      "हु": 1646,
      "ा:": 1647,
      "ूच": 1648,
      "డ్": 1649,
      "ిల్": 1650,
      "▁२": 1651,
      "▁జ": 1652,
      "▁199": 1653,
      "velop": 1654,
      "/https://www.": 1655,
      "Dw": 1656,
      "emplate": 1657,
      "▁its": 1658,
      ".nic.in/": 1659,
      ".;": 1660,
      "IN": 1661,
      "World": 1662,
      "कर": 1663,
      "ीन": 1664,
      "्ड": 1665,
      "्स": 1666,
      "orth": 1667,
      "▁reg": 1668,
      "html": 1669,
      "mund": 1670,
      "erv": 1671,
      "ashm": 1672,
      "othermund": 1673,
      "ेर": 1674,
      "ैद": 1675,
      "లి": 1676,
      "స్త్ర": 1677,
      "uly": 1678,
      "▁तक": 1679,
      "साँच": 1680,
      "led": 1681,
      "pu": 1682,
      "▁[H": 1683,
      "](https://en.wikipedia.org/In": 1684,
      "alay": 1685,
      "▁mil": 1686,
      "irst": 1687,
      "ूप": 1688,
      "ulke": 1689,
      "श्चि": 1690,
      "velopment": 1691,
      "05": 1692,
      "59": 1693,
      "2014": 1694,
      "odern": 1695,
      "radesh": 1696,
      "roup": 1697,
      "गण": 1698,
      "కా": 1699,
      "ణా": 1700,
      "ధిక": 1701,
      "anc": 1702,
      "](https://hi.wikipedia.org/भारतीय_": 1703,
      "▁St": 1704,
      "नाम": 1705,
      "▁ప్రా": 1706,
      "▁వి": 1707,
      "జాతీయ": 1708,
      "/c": 1709,
      "hr": 1710,
      "\").\n-": 1711,
      "alth": 1712,
      "ansk": 1713,
      "\"](https://web.archive.org/web/201": 1714,
      "\"](https://www.": 1715,
      "62": 1716,
      "_प्र": 1717,
      "दक्षिण": 1718,
      "सम": 1719,
      "AARC": 1720,
      "ountry": 1721,
      "Singh": 1722,
      "mer": 1723,
      "![](https://upload.wikimedia.org/wikipedia/commons/thumb/": 1724,
      "ligion": 1725,
      "ontinent": 1726,
      "ం:": 1727,
      "దక్ష": 1728,
      "వం": 1729,
      "ice": 1730,
      "ril": 1731,
      "ों_की_स": 1732,
      "▁2019": 1733,
      "▁సం": 1734,
      "▁చరిత్ర": 1735,
      "ug": 1736,
      "▁sub": 1737,
      "lion": 1738,
      "▁were": 1739,
      "ograp": 1740,
      "government": 1741,
      "-m": 1742,
      "lish": 1743,
      "oi": 1744,
      "](https://en.wikipedia.org/K": 1745,
      "urope": 1746,
      "\").[[": 1747,
      "conomic": 1748,
      "Stein2010": 1749,
      "250px-": 1750,
      "_the": 1751,
      "▁U": 1752,
      "▁languages": 1753,
      "anskrit": 1754,
      "_language": 1755,
      "census": 1756,
      "ओं": 1757,
      "ीं": 1758,
      "డి": 1759,
      "](https://hi.wikipedia.org/प": 1760,
      "▁Hindu": 1761,
      "]](https://hi.wikipedia.org/भारत#cite_note-FOOTNOTE": 1762,
      "ింది.": 1763,
      "ज्ञ": 1764,
      "▁ad": 1765,
      "ined": 1766,
      "](https://en.wikipedia.org/Indian_": 1767,
      "\"))\n": 1768,
      "ख्या": 1769,
      "जी": 1770,
      "usin": 1771,
      "न्न": 1772,
      "ght": 1773,
      "▁2": 1774,
      "▁[L": 1775,
      "▁[the": 1776,
      "_by": 1777,
      "7)": 1778,
      "ంధ": 1779,
      "▁किया": 1780,
      "స్త": 1781,
      "_के_राज्य": 1782,
      "సియా": 1783,
      "▁రాజ్యం": 1784,
      "Stein1998": 1785,
      "▁సామ్రాజ్యం": 1786,
      "ंदिर": 1787,
      "help": 1788,
      "Singh2009": 1789,
      "\")*": 1790,
      "ated": 1791,
      "▁विश": 1792,
      "जाब": 1793,
      "5)": 1794,
      "ef": 1795,
      "old": 1796,
      "6)": 1797,
      "uary": 1798,
      "ष्": 1799,
      "ेव": 1800,
      "దీ": 1801,
      "▁temp": 1802,
      "▁errors": 1803,
      "ations": 1804,
      "tical": 1805,
      "▁2007": 1806,
      "ండి": 1807,
      "▁([help": 1808,
      "దక్షి": 1809,
      "69": 1810,
      "Talbot": 1811,
      "2008": 1812,
      "ission": 1813,
      "AsherTalbot": 1814,
      "%E0%": 1815,
      "0.": 1816,
      "val": 1817,
      "ेख": 1818,
      "▁ha": 1819,
      "ound": 1820,
      "_and_S": 1821,
      "-india": 1822,
      "▁[In": 1823,
      "2005": 1824,
      "gan": 1825,
      "ंजाब": 1826,
      "वन": 1827,
      "ुल": 1828,
      "తర": 1829,
      "▁బ": 1830,
      "▁le": 1831,
      "\n\n[": 1832,
      "▁नि": 1833,
      "न्द्र": 1834,
      "▁गया": 1835,
      "ystem": 1836,
      "▁खाना": 1837,
      "ों_की_सूची": 1838,
      "120": 1839,
      "8)": 1840,
      "ck": 1841,
      "on-": 1842,
      "ese": 1843,
      "▁Asian": 1844,
      ".jpg)](https://en.wikipedia.org/File:": 1845,
      "_F": 1846,
      "▁हो": 1847,
      "▁July": 1848,
      ".sv": 1849,
      "mber": 1850,
      "▁18": 1851,
      "continent": 1852,
      "जरा": 1853,
      "बसे": 1854,
      "ట్": 1855,
      "ది": 1856,
      "ిత": 1857,
      "▁8": 1858,
      "ेंद्र": 1859,
      "](https://hi.wikipedia.org/भारत_क": 1860,
      "age/": 1861,
      "चीन": 1862,
      "▁राज्यों": 1863,
      "▁errors\"))\n": 1864,
      "▁\"L": 1865,
      "omb": 1866,
      "-in": 1867,
      "07": 1868,
      "1_": 1869,
      "65": 1870,
      "चल": 1871,
      "ब्": 1872,
      "▁[उ": 1873,
      "▁\"F": 1874,
      "▁Ap": 1875,
      "▁Comm": 1876,
      "_Indian_": 1877,
      "▁[मूल": 1878,
      "ail": 1879,
      "-g": 1880,
      "_H": 1881,
      "_చ": 1882,
      "fn_": 1883,
      "बंध": 1884,
      "ोर": 1885,
      "ం\")": 1886,
      "▁error": 1887,
      "▁\"మ": 1888,
      "et:": 1889,
      "▁Sfn": 1890,
      "▁targ": 1891,
      "ालय": 1892,
      "matics": 1893,
      "template_": 1894,
      "▁[Archived](https://web.archive.org/web/20": 1895,
      "inistry": 1896,
      "ुसार": 1897,
      "▁सूची\")": 1898,
      "▁template": 1899,
      "_and_Sfn_": 1900,
      "▁error:": 1901,
      "▁target:": 1902,
      "template_errors": 1903,
      "_and_Sfn_template_errors": 1904,
      "-l": 1905,
      "shi": 1906,
      "▁la": 1907,
      "ise": 1908,
      "▁y": 1909,
      "▁ag": 1910,
      "▁26": 1911,
      "ork": 1912,
      "act": 1913,
      "43": 1914,
      "uk": 1915,
      "-c": 1916,
      "C&pg=PA": 1917,
      "आई": 1918,
      "प्त": 1919,
      "ैन": 1920,
      "▁ఎ": 1921,
      "▁[మ": 1922,
      "ari": 1923,
      "▁सबसे": 1924,
      "197": 1925,
      "▁CITEREF": 1926,
      "▁2021": 1927,
      "▁(సా.శ.పూ.": 1928,
      "▁पुरालेखित": 1929,
      "चित्र:": 1930,
      "▁पुरालेखित।": 1931,
      "▁25": 1932,
      "ley": 1933,
      "Edit": 1934,
      "Page/": 1935,
      "o-": 1936,
      "्रिट": 1937,
      "▁प्रा": 1938,
      "स्था": 1939,
      "EditPage/": 1940,
      "ms": 1941,
      "low": 1942,
      "india.gov.in/": 1943,
      "-20": 1944,
      "ధ్య": 1945,
      "▁గ": 1946,
      "▁శ": 1947,
      "▁territ": 1948,
      "ories": 1949,
      "](https://hi.wikipedia.org/चित्र:": 1950,
      "▁sfn": 1951,
      "ంద్ర": 1952,
      "पाकिस्तान": 1953,
      "क्ति": 1954,
      "air": 1955,
      "cies": 1956,
      "ashmir": 1957,
      "51": 1958,
      "iki": 1959,
      "yn": 1960,
      "ण्ड": 1961,
      "aman": 1962,
      "une": 1963,
      "Union": 1964,
      "fter": 1965,
      "pr": 1966,
      "ood": 1967,
      "▁An": 1968,
      "earch": 1969,
      "/artic": 1970,
      "।[[": 1971,
      "ైన": 1972,
      "▁\"उ": 1973,
      "inis": 1974,
      "](https://te.wikipedia.org/మ": 1975,
      "2003": 1976,
      "▁17": 1977,
      "▁పే": 1978,
      "▁जिस": 1979,
      "_सं": 1980,
      "ంది.": 1981,
      "स्थान": 1982,
      "ियों": 1983,
      "_4": 1984,
      "A4%": 1985,
      "_m": 1986,
      "uj": 1987,
      "ाम": 1988,
      "▁ri": 1989,
      "याल": 1990,
      "aint": 1991,
      "युक्त": 1992,
      "स्कृत": 1993,
      "ta": 1994,
      "arch": 1995,
      "ople": 1996,
      "argest": 1997,
      "Rothermund": 1998,
      "च्च": 1999,
      "िन": 2000,
      "ట్ట": 2001,
      "▁భారతదేశం": 2002,
      "▁मान": 2003,
      "](https://hi.wikipedia.org/भारत#CITEREF": 2004,
      "▁साथ": 2005,
      "ద్ధ": 2006,
      "](https://hi.wikipedia.org/भारत_में_": 2007,
      "\"](https://": 2008,
      "lass": 2009,
      "ugh": 2010,
      "eneral": 2011,
      "rate": 2012,
      "DwAAQBAJ&pg=PA": 2013,
      "्ला": 2014,
      "▁धर्म": 2015,
      "▁अधिक": 2016,
      "ाली": 2017,
      "▁**[": 2018,
      "्वर": 2019,
      "▁आधार": 2020,
      "▁संघ": 2021,
      "श्मी": 2022,
      "▁१९": 2023,
      "Kulke": 2024,
      "▁2010": 2025,
      "▁New": 2026,
      ".jpg/250px-": 2027,
      "mar": 2028,
      "uch": 2029,
      "की": 2030,
      "ज्य": 2031,
      "హింద": 2032,
      "ించ": 2033,
      "▁ఒ": 2034,
      "▁था": 2035,
      "▁భాష": 2036,
      "▁[క": 2037,
      "▁\"Special:BookSources/978-1": 2038,
      "▁\"श्रेणी:Harv": 2039,
      "](https://en.wikipedia.org/Special:BookSources/978-1": 2040,
      "](https://hi.wikipedia.org/श्रेणी:Harv": 2041,
      "▁सि": 2042,
      "▁India,": 2043,
      "ాల్": 2044,
      "line": 2045,
      "▁Asia\")": 2046,
      "▁Island": 2047,
      "hina": 2048,
      "](http://www.": 2049,
      "▁([help](https://hi.wikipedia.org/श्रेणी:Harv": 2050,
      "_and_Sfn_template_errors?action=edit&redlink=1": 2051,
      "▁([help](https://hi.wikipedia.org/श्रेणी:Harv_and_Sfn_template_errors?action=edit&redlink=1": 2052,
      "▁[F": 2053,
      "off": 2054,
      "ed.": 2055,
      "rib": 2056,
      "▁this": 2057,
      "▁World": 2058,
      "PP": 2059,
      "les/": 2060,
      "तमिल": 2061,
      "दा": 2062,
      "वरी": 2063,
      "lim": 2064,
      "तिहास": 2065,
      "▁Empire": 2066,
      "emplate:": 2067,
      "▁विश्व": 2068,
      "330": 2069,
      "8/": 2070,
      "ram": 2071,
      "emb": 2072,
      "ower": 2073,
      "▁April": 2074,
      "]](https://te.wikipedia.org/భారతదేశం#cite_": 2075,
      "_at": 2076,
      "_भाषा": 2077,
      "aper": 2078,
      "vis": 2079,
      "णा": 2080,
      "तंत्र": 2081,
      "చ్చ": 2082,
      "జీ": 2083,
      "ేంద్ర": 2084,
      "ority": 2085,
      "▁\"క": 2086,
      "](https://hi.wikipedia.org/उ": 2087,
      "्यट": 2088,
      "ంగ్": 2089,
      "ongress": 2090,
      "्राज्य": 2091,
      "1,": 2092,
      "iron": 2093,
      "KulkeRothermund": 2094,
      "57": 2095,
      "58": 2096,
      "ban": 2097,
      "▁ch": 2098,
      "umber": 2099,
      "िल्ल": 2100,
      "▁[भारतीय": 2101,
      "_L": 2102,
      "gy": 2103,
      "ution": 2104,
      "ori": 2105,
      "ect": 2106,
      ".jpg)\n\n": 2107,
      "ledge": 2108,
      "ombined": 2109,
      "1/": 2110,
      "ंब": 2111,
      "गढ़": 2112,
      "शास": 2113,
      "ांग": 2114,
      "త్య": 2115,
      "బ్": 2116,
      "మీ": 2117,
      "▁6": 2118,
      "](https://te.wikipedia.org/ద": 2119,
      "uman": 2120,
      "రాష్ట్ర": 2121,
      "माण": 2122,
      "▁उप": 2123,
      "radition": 2124,
      "▁साम": 2125,
      "▁हिन्द": 2126,
      "्रिटिश": 2127,
      "121": 2128,
      "Dyson": 2129,
      "▁9": 2130,
      "lear": 2131,
      "▁into": 2132,
      "lad": 2133,
      "ack": 2134,
      "isher": 2135,
      "ummit\")": 2136,
      "▁not": 2137,
      "/http://www.": 2138,
      "7-1": 2139,
      "▁[W": 2140,
      "▁cont": 2141,
      "▁बाद": 2142,
      "म्ब": 2143,
      "nglish": 2144,
      "pt": 2145,
      "viron": 2146,
      "▁government": 2147,
      "▁off": 2148,
      "vironment": 2149,
      "dom": 2150,
      "ంక": 2151,
      "ప్": 2152,
      "యు": 2153,
      "king": 2154,
      "▁[J": 2155,
      "▁\"South": 2156,
      "్యా": 2157,
      "▁Re": 2158,
      "्वार": 2159,
      "▁शास": 2160,
      "తంత్ర": 2161,
      "engal": 2162,
      "](https://te.wikipedia.org/భారతదేశం#cite_ref-": 2163,
      "]](https://te.wikipedia.org/భారతదేశం#cite_note-": 2164,
      "rd": 2165,
      "ocial": 2166,
      "वर्": 2167,
      "ाट": 2168,
      "ागर": 2169,
      "▁us": 2170,
      "▁कार": 2171,
      "▁(20": 2172,
      "ide": 2173,
      "ats": 2174,
      "▁Pradesh": 2175,
      "news/": 2176,
      "श्चिम": 2177,
      "9)": 2178,
      "aw": 2179,
      "athe": 2180,
      "ure": 2181,
      "▁\"J": 2182,
      "\")*.": 2183,
      "rab": 2184,
      "▁system": 2185,
      "_Press": 2186,
      "uclear": 2187,
      "▁year": 2188,
      "%28": 2189,
      "%29": 2190,
      "Combined": 2191,
      "_స": 2192,
      "_और": 2193,
      "ober": 2194,
      "एं": 2195,
      "भी": 2196,
      "ोर्": 2197,
      "తము": 2198,
      "వే": 2199,
      "ాన్": 2200,
      "▁थ": 2201,
      "cience": 2202,
      "▁(201": 2203,
      "ument": 2204,
      "▁[↑](https://hi.wikipedia.org/भारत#cite_": 2205,
      "స్క": 2206,
      "▁En": 2207,
      "]](https://hi.wikipedia.org/भारत#cite_note": 2208,
      "ड़ा": 2209,
      "imes": 2210,
      "fficial": 2211,
      "▁यह": 2212,
      "ిల్లీ": 2213,
      "ज्ञान": 2214,
      "దక్షిణ": 2215,
      "▁[↑](https://hi.wikipedia.org/भारत#cite_ref": 2216,
      "▁comp": 2217,
      "▁(PDF)": 2218,
      "_re": 2219,
      "att": 2220,
      "mi": 2221,
      "ph": 2222,
      "▁[सं": 2223,
      "\")**": 2224,
      "](https://en.wikipedia.org/L": 2225,
      "▁cons": 2226,
      "anges": 2227,
      "▁Pro": 2228,
      "indust": 2229,
      "_summit": 2230,
      "गुजरा": 2231,
      "_प्रदेश": 2232,
      "%E0%A4%": 2233,
      "Dyson2018": 2234,
      "uis": 2235,
      "▁have": 2236,
      "dus": 2237,
      "dust": 2238,
      "national": 2239,
      "तर": 2240,
      "मुख": 2241,
      "ధాన": 2242,
      "బె": 2243,
      "▁\"विशेष:पुस्तक": 2244,
      "](https://hi.wikipedia.org/ISBN_(identifier)": 2245,
      "](https://hi.wikipedia.org/विशेष:पुस्तक": 2246,
      "▁स्रोत/": 2247,
      "▁their": 2248,
      "▁पा": 2249,
      "ారు": 2250,
      "](https://hi.wikipedia.org/भारत_के_": 2251,
      "ियाँ": 2252,
      "लाई": 2253,
      "_स्रोत/": 2254,
      "▁కా": 2255,
      "▁[ISBN](https://hi.wikipedia.org/ISBN_(identifier)": 2256,
      "▁लि": 2257,
      "_के_आ": 2258,
      "▁రాజ": 2259,
      "▁language\")": 2260,
      "10.10": 2261,
      "economic": 2262,
      "साँचा:": 2263,
      "ographi": 2264,
      "inister": 2265,
      "ांग्ला": 2266,
      "](https://hi.wikipedia.org/विशेष:पुस्तक_स्रोत/": 2267,
      "-19": 2268,
      "oor": 2269,
      "](https://en.wikipedia.org/J": 2270,
      "cient": 2271,
      "idd": 2272,
      "▁first": 2273,
      "▁wh": 2274,
      "s.[[": 2275,
      "eptem": 2276,
      "brary": 2277,
      "%2F": 2278,
      "▁Press](https://en.wikipedia.org/": 2279,
      "outledge": 2280,
      "▁Press\").": 2281,
      "eptember": 2282,
      ",000": 2283,
      "mb": 2284,
      "रे": 2285,
      "annic": 2286,
      "entre": 2287,
      "▁countries": 2288,
      "ritannic": 2289,
      "▁यु": 2290,
      "त्प": 2291,
      ".\"\n": 2292,
      "▁par": 2293,
      "india/": 2294,
      "also": 2295,
      "\n\n###": 2296,
      "cre": 2297,
      "rin": 2298,
      "rans": 2299,
      "ंप": 2300,
      "జి": 2301,
      "దు": 2302,
      "మ్": 2303,
      "శ్": 2304,
      "ష్": 2305,
      "▁राष्ट्रीय": 2306,
      "▁[t": 2307,
      "](https://te.wikipedia.org/క": 2308,
      "▁part": 2309,
      "▁Archived": 2310,
      "్యవ": 2311,
      "▁during": 2312,
      "▁जु": 2313,
      "▁है,": 2314,
      "ेश्वर": 2315,
      "1994": 2316,
      "map": 2317,
      "ayan": 2318,
      "Special:BookSources/978": 2319,
      "क्षेत्र": 2320,
      "odi": 2321,
      "ternational": 2322,
      "history": 2323,
      "doi.org/": 2324,
      "liament": 2325,
      "ूचना": 2326,
      "▁region": 2327,
      "uropean": 2328,
      "_చరిత్ర": 2329,
      "/0": 2330,
      "ive": 2331,
      "▁k": 2332,
      "India)": 2333,
      "▁10": 2334,
      "usiness": 2335,
      "_O": 2336,
      "eth": 2337,
      "fr": 2338,
      "gory": 2339,
      "एस": 2340,
      "काल": 2341,
      "▁24": 2342,
      "edi": 2343,
      "्यव": 2344,
      "entral": 2345,
      "lob": 2346,
      "▁15": 2347,
      "ategory": 2348,
      "▁2024": 2349,
      "udden": 2350,
      "jab": 2351,
      "son": 2352,
      "ya": 2353,
      "ural": 2354,
      "100": 2355,
      "▁2023": 2356,
      "hism": 2357,
      "330px-": 2358,
      "_पर": 2359,
      "बाद": 2360,
      "में": 2361,
      "रक्ष": 2362,
      "ाष्ट्र": 2363,
      "००": 2364,
      "ఢిల్లీ": 2365,
      "పంచ": 2366,
      "▁22": 2367,
      "▁स्व": 2368,
      "ారి": 2369,
      "िक्ष": 2370,
      "str": 2371,
      "▁dis": 2372,
      "▁दक्षिण": 2373,
      "िया\")": 2374,
      "ctober": 2375,
      "_मेला": 2376,
      "नेमा": 2377,
      "▁October": 2378,
      "▁रूप": 2379,
      "धार_पर": 2380,
      "द्योग": 2381,
      "हाराष्ट्र": 2382,
      "మూస": 2383,
      "_के_आधार_पर": 2384,
      "_के_आधार_पर_भारत": 2385,
      "\".": 2386,
      "/A": 2387,
      "ater": 2388,
      "ology": 2389,
      "pib": 2390,
      "19-8": 2391,
      "▁se": 2392,
      "▁Aug": 2393,
      "adu": 2394,
      "▁16": 2395,
      "▁2026": 2396,
      "ishing": 2397,
      "▁form": 2398,
      "thern": 2399,
      "▁(PDF).": 2400,
      "▁Commission": 2401,
      "▁August": 2402,
      "/p": 2403,
      ":[": 2404,
      "data": 2405,
      "ule": 2406,
      "तेल": 2407,
      "धी": 2408,
      "न्त": 2409,
      "▁नाम": 2410,
      "rop": 2411,
      "122": 2412,
      "_%28": 2413,
      "▁21": 2414,
      "▁[I": 2415,
      "time": 2416,
      "▁India:": 2417,
      "etwe": 2418,
      "etween": 2419,
      "-re": 2420,
      "-26": 2421,
      "1-0)": 2422,
      "_20": 2423,
      "वाद": 2424,
      "ेस": 2425,
      "వు": 2426,
      "▁also": 2427,
      "▁[न": 2428,
      "▁\"భారతీయ": 2429,
      "estern": 2430,
      "▁मंदिर": 2431,
      "▁पूर्व": 2432,
      "▁September": 2433,
      "urr": 2434,
      "▁अप": 2435,
      "▁Th": 2436,
      "ember": 2437,
      "ंगा": 2438,
      "▁विक": 2439,
      "-80": 2440,
      "ी_भाषा": 2441,
      "▁पुरालेखित।.": 2442,
      "▁जुलाई": 2443,
      "_के_आधार_पर_भारत_के_राज्य": 2444,
      "2-0)": 2445,
      "4-0)": 2446,
      "her": 2447,
      "iver": 2448,
      "ool": 2449,
      "-81": 2450,
      "University_Press": 2451,
      "210": 2452,
      "ली": 2453,
      "सद": 2454,
      "ीस": 2455,
      "chno": 2456,
      "▁2006": 2457,
      "87": 2458,
      "▁Act": 2459,
      "▁Metcalf": 2460,
      "▁state": 2461,
      "▁subcontinent": 2462,
      "31": 2463,
      "CE": 2464,
      "pp": 2465,
      "జన": 2466,
      "టు": 2467,
      "టె": 2468,
      "wing": 2469,
      "ार्": 2470,
      "▁कि": 2471,
      "omen": 2472,
      "raven": 2473,
      "amb": 2474,
      "▁world": 2475,
      "unjab": 2476,
      "नाग": 2477,
      "▁न्या": 2478,
      "▁చె": 2479,
      "నాయ": 2480,
      "ffair": 2481,
      "–సా.శ.పూ.": 2482,
      "▁[↑](https://hi.wikipedia.org/भारत#cite_ref-FOOTNOTE": 2483,
      "▁ఆర్": 2484,
      "▁देशों": 2485,
      "...": 2486,
      "gency": 2487,
      "పాలిత": 2488,
      "స్త్రం:": 2489,
      "▁ప్రాంత": 2490,
      "ujar": 2491,
      "embly": 2492,
      "ేంద్రపాలిత": 2493,
      "](https://te.wikipedia.org/దస్త్రం:": 2494,
      "tec": 2495,
      "▁\"W": 2496,
      "▁population": 2497,
      "▁2018": 2498,
      ".svg": 2499,
      "2/": 2500,
      "84": 2501,
      "tal": 2502,
      "ual": 2503,
      "एशिया": 2504,
      "ोन": 2505,
      "▁[हिन्द": 2506,
      "tel": 2507,
      "alley": 2508,
      "now": 2509,
      "-17": 2510,
      "istan": 2511,
      "form": 2512,
      "▁अनुसार": 2513,
      "्यवस्था": 2514,
      "ategory:": 2515,
      "_University_Press": 2516,
      "eser": 2517,
      "196": 2518,
      "▁class": 2519,
      "▁bec": 2520,
      "▁[*A": 2521,
      "iddle": 2522,
      "gar": 2523,
      "ne": 2524,
      "ंक": 2525,
      "मह": 2526,
      "ఖ్య": 2527,
      "గో": 2528,
      "తో": 2529,
      "బి": 2530,
      "హి": 2531,
      "▁al": 2532,
      "ार्ट": 2533,
      "▁Cambridge": 2534,
      "विधान": 2535,
      "ंगाल": 2536,
      "▁तट": 2537,
      "▁एवं": 2538,
      "eport": 2539,
      "श्मीर": 2540,
      "స్కృ": 2541,
      "89": 2542,
      "countries": 2543,
      "oast": 2544,
      "▁Y": 2545,
      "▁res": 2546,
      "▁\"O": 2547,
      "edic": 2548,
      "▁India\"),": 2549,
      "▁Ch": 2550,
      "\n\n[![](https://upload.wikimedia.org/wikipedia/commons/thumb/": 2551,
      "fric": 2552,
      "por": 2553,
      "ran": 2554,
      "पति": 2555,
      "ल\")": 2556,
      "er,": 2557,
      "ace": 2558,
      "▁but": 2559,
      "▁2016": 2560,
      "▁(identifier)\"):[": 2561,
      "▁गण": 2562,
      "Harle": 2563,
      "▁प्रदेश\")": 2564,
      "3-0)": 2565,
      "_K": 2566,
      "rish": 2567,
      "▁ac": 2568,
      "ped": 2569,
      "amp": 2570,
      "▁between": 2571,
      "▁Population": 2572,
      "india.gov.in": 2573,
      "ritannica": 2574,
      "_ప": 2575,
      "ces": 2576,
      "lan": 2577,
      "ेट": 2578,
      "ोड़": 2579,
      "హా": 2580,
      "▁27": 2581,
      "▁all": 2582,
      "▁ను": 2583,
      "▁జాతీయ": 2584,
      "▁\"द": 2585,
      "one": 2586,
      "▁केंद्र": 2587,
      "andhi": 2588,
      "racy": 2589,
      "▁Ass": 2590,
      "ures": 2591,
      "oll": 2592,
      "भाग": 2593,
      "▁Jan": 2594,
      "संख्या": 2595,
      "ourt": 2596,
      "rick": 2597,
      ".jpg/330px-": 2598,
      "धिकार": 2599,
      "్యవస్థ": 2600,
      "chnology": 2601,
      "2_": 2602,
      "4–": 2603,
      "76": 2604,
      "oon": 2605,
      "▁per": 2606,
      "ones": 2607,
      "eration": 2608,
      "ara": 2609,
      "1947": 2610,
      "icy": 2611,
      "▁Comp": 2612,
      "igh": 2613,
      "berg": 2614,
      "logue": 2615,
      "irect": 2616,
      "view": 2617,
      "▁century": 2618,
      "_W": 2619,
      "cri": 2620,
      "nal": 2621,
      "जय": 2622,
      "डी": 2623,
      "लि": 2624,
      "श्री": 2625,
      "सी": 2626,
      "▁over": 2627,
      "▁\"इ": 2628,
      "\n\n-": 2629,
      "_क्षेत्र": 2630,
      "▁एशिया": 2631,
      "ड़ी": 2632,
      "-2)": 2633,
      "गुजरात": 2634,
      "4-7": 2635,
      "imp": 2636,
      "ia\")": 2637,
      "ering": 2638,
      "lam": 2639,
      "▁con": 2640,
      "230": 2641,
      "▁June": 2642,
      "umbai": 2643,
      "▁been": 2644,
      "▁2014.\n": 2645,
      "ganisation": 2646,
      "_अ": 2647,
      "fic": 2648,
      "ibrary": 2649,
      "lang": 2650,
      "va": 2651,
      "एँ": 2652,
      "गो": 2653,
      "चे": 2654,
      "డా": 2655,
      "దా": 2656,
      "బడ": 2657,
      "మే": 2658,
      "రణ": 2659,
      "▁లో": 2660,
      "](https://doi.org/": 2661,
      "▁मु": 2662,
      "▁मूल": 2663,
      "nologue": 2664,
      "-15": 2665,
      "▁more": 2666,
      "term": 2667,
      "▁dance": 2668,
      "▁जो": 2669,
      "▁बहु": 2670,
      "▁सेना": 2671,
      "▁కూ": 2672,
      "ాలు,": 2673,
      "म्बर": 2674,
      "rade": 2675,
      "▁రాష్ట్ర": 2676,
      "ligi": 2677,
      "विश्व": 2678,
      "▁भू": 2679,
      "clud": 2680,
      "కిస్తాన్": 2681,
      "▁Press.": 2682,
      "▁చరిత్ర\")": 2683,
      "्यटन": 2684,
      "88": 2685,
      "van": 2686,
      "▁28": 2687,
      "ttar": 2688,
      "▁[3": 2689,
      "▁[[": 2690,
      "▁East": 2691,
      "avid": 2692,
      "ीत": 2693,
      "with": 2694,
      "▁[इ": 2695,
      "▁\"हिन्द": 2696,
      "\").\n": 2697,
      "र्द": 2698,
      "▁most": 2699,
      "▁ab": 2700,
      "able": 2701,
      "▁For": 2702,
      "epublic": 2703,
      "▁समय": 2704,
      "▁साम्राज्य": 2705,
      ".html": 2706,
      "a,": 2707,
      "a/": 2708,
      "pur": 2709,
      "wart": 2710,
      "zberg": 2711,
      "▁other": 2712,
      "peration": 2713,
      "kim": 2714,
      "▁\"I": 2715,
      "▁Sh": 2716,
      "▁tw": 2717,
      "chwart": 2718,
      "▁after": 2719,
      "▁National": 2720,
      "fore": 2721,
      "olitical": 2722,
      "▁years": 2723,
      "chwartzberg": 2724,
      "ee": 2725,
      "ges": 2726,
      "तिक": 2727,
      "भू": 2728,
      "ील": 2729,
      "వర్": 2730,
      "▁ఈ": 2731,
      "▁భారత": 2732,
      "ident": 2733,
      "नाथ": 2734,
      "▁di": 2735,
      "త్రి": 2736,
      "ాలు](https://te.wikipedia.org/": 2737,
      "depend": 2738,
      "▁अन्य": 2739,
      "▁स्थ": 2740,
      "▁वर्ष": 2741,
      "ंग्रेज़ी": 2742,
      "lobal": 2743,
      "-28": 2744,
      "fl": 2745,
      "ok": 2746,
      "life": 2747,
      "ade": 2748,
      "_in_": 2749,
      "▁1950": 2750,
      "▁number": 2751,
      "▁[Stein": 2752,
      "ose": 2753,
      "%7": 2754,
      "*,": 2755,
      "_I": 2756,
      "mu": 2757,
      "tates": 2758,
      "y\")": 2759,
      "त्य": 2760,
      "लोक": 2761,
      "–1": 2762,
      "▁[Indian": 2763,
      "▁\"न": 2764,
      "▁\"सं": 2765,
      "2016": 2766,
      "rime": 2767,
      "anglad": 2768,
      "ular": 2769,
      "olicy": 2770,
      "▁2009": 2771,
      "नेपाल": 2772,
      "▁Oxford": 2773,
      "harma": 2774,
      "angladesh": 2775,
      "1–": 2776,
      "oin": 2777,
      "_of_the": 2778,
      "▁May": 2779,
      "▁English": 2780,
      "cyc": 2781,
      "obb": 2782,
      "ovement": 2783,
      "ID": 2784,
      "_క": 2785,
      "ls": 2786,
      "oci": 2787,
      "टक": 2788,
      "धु": 2789,
      "पी": 2790,
      "रो": 2791,
      "िन्": 2792,
      "తు": 2793,
      "పతి": 2794,
      "▁छ": 2795,
      "▁फ": 2796,
      "▁ని": 2797,
      "▁స్థ": 2798,
      "▁[द": 2799,
      "▁[అ": 2800,
      "▁[ప": 2801,
      "▁\"భారతదేశం": 2802,
      "▁India.": 2803,
      "్రి": 2804,
      "cember": 2805,
      "న్ని": 2806,
      "ర్వ": 2807,
      "ird": 2808,
      "▁2020": 2809,
      "▁है।\n\n": 2810,
      "म्म": 2811,
      "राष्ट्रपति": 2812,
      ".jpg)](https://hi.wikipedia.org/चित्र:": 2813,
      "वंश": 2814,
      "మిళ": 2815,
      "▁जाता": 2816,
      "हासागर": 2817,
      "ैदान": 2818,
      "వంశ": 2819,
      "तंत्रता": 2820,
      "द्योगिक": 2821,
      "▁January": 2822,
      "6-0)": 2823,
      "IM": 2824,
      "oth": 2825,
      "pa": 2826,
      "iation": 2827,
      "▁[e": 2828,
      "▁[v": 2829,
      "▁[Metcalf": 2830,
      "arliament": 2831,
      "theast": 2832,
      "2001": 2833,
      "ustral": 2834,
      "emple": 2835,
      "ikshi": 2836,
      "▁[2](https://en.wikipedia.org/India#cite_ref-FOOTNOTE": 2837,
      "▁[1](https://en.wikipedia.org/India#cite_ref-FOOTNOTE": 2838,
      "ughal": 2839,
      "ujarat": 2840,
      "ikshit": 2841,
      "79": 2842,
      "TR": 2843,
      "ft": 2844,
      "len": 2845,
      "ze": 2846,
      "णि": 2847,
      "encies": 2848,
      "arb": 2849,
      "are": 2850,
      "ale": 2851,
      "asia": 2852,
      "2000": 2853,
      "▁comm": 2854,
      "▁Ar": 2855,
      "ross": 2856,
      "▁March": 2857,
      "▁Talbot": 2858,
      "▁उत्तर": 2859,
      "र्थिक": 2860,
      "शासित": 2861,
      "National_": 2862,
      "_3": 2863,
      "_11": 2864,
      "co": 2865,
      "ash": 2866,
      "union": 2867,
      "ode": 2868,
      "ournal": 2869,
      "-le": 2870,
      ".as": 2871,
      "500": 2872,
      "CO": 2873,
      "WE": 2874,
      "_మ": 2875,
      "_భాష": 2876,
      "if": 2877,
      "p?": 2878,
      "पे": 2879,
      "मंत्र": 2880,
      "वे": 2881,
      "िज़": 2882,
      "గం": 2883,
      "ఫ్": 2884,
      "▁ड": 2885,
      "▁en": 2886,
      "▁స్": 2887,
      "▁[బ": 2888,
      "▁[స": 2889,
      "▁[पु": 2890,
      "▁[South": 2891,
      "▁[doi": 2892,
      "▁\"అ": 2893,
      "▁मा": 2894,
      "▁pla": 2895,
      "विज्ञान": 2896,
      "ाला": 2897,
      "న్నాయ": 2898,
      "ight": 2899,
      "▁కాల": 2900,
      "▁election": 2901,
      "ాలు\")": 2902,
      "ड़े": 2903,
      "ी](https://hi.wikipedia.org/अ": 2904,
      "ndaman": 2905,
      "ులు](https://te.wikipedia.org/": 2906,
      ".jpg)](https://te.wikipedia.org/దస్త్రం:": 2907,
      "▁రై": 2908,
      "▁\"Doi": 2909,
      "](https://en.wikipedia.org/Doi": 2910,
      "द्यान": 2911,
      "यालय": 2912,
      "హిందూ": 2913,
      "▁2006](https://en.wikipedia.org/India#CITEREF": 2914,
      "▁[doi](https://en.wikipedia.org/Doi": 2915,
      "▁[doi](https://en.wikipedia.org/Doi_(identifier)": 2916,
      "-21": 2917,
      "▁j": 2918,
      "▁es": 2919,
      "riod": 2920,
      "-14": 2921,
      "▁Census": 2922,
      "▁Congress": 2923,
      "formatics": 2924,
      "auth": 2925,
      "▁Development": 2926,
      "▁territories": 2927,
      ",[[": 2928,
      "5-0)": 2929,
      "64": 2930,
      "Vi": 2931,
      "_territ": 2932,
      "तु": 2933,
      "वै": 2934,
      "ृति": 2935,
      "2023": 2936,
      "reat": 2937,
      "्यता": 2938,
      "▁spe": 2939,
      "▁Constitution": 2940,
      "▁1,": 2941,
      "▁13": 2942,
      "हिन्दी": 2943,
      "censusindia.gov.in/": 2944,
      "ed.).": 2945,
      "▁official": 2946,
      "ographic": 2947,
      "▁became": 2948,
      "langoff": 2949,
      "Asia": 2950,
      "has": 2951,
      "▁[s": 2952,
      "read": 2953,
      "ough": 2954,
      "▁includ": 2955,
      "ama": 2956,
      "▁music": 2957,
      "ched": 2958,
      "▁Budd": 2959,
      "▁BCE": 2960,
      "▁2025": 2961,
      "▁[2](https://en.wikipedia.org/India#cite_ref-": 2962,
      "▁[1](https://en.wikipedia.org/India#cite_ref-": 2963,
      "times.com/": 2964,
      "AsherTalbot2008": 2965,
      "Uttar": 2966,
      "s_": 2967,
      "डु": 2968,
      "रण": 2969,
      "ल्": 2970,
      "ద్ర": 2971,
      "భూ": 2972,
      "య్య": 2973,
      "ర్య": 2974,
      "▁ల": 2975,
      "▁[ज": 2976,
      "▁\"ప": 2977,
      "▁\"బ": 2978,
      "▁\"స": 2979,
      "ars": 2980,
      "ased": 2981,
      "▁अग": 2982,
      "▁[↑](https://te.wikipedia.org/భారతదేశం#cite_ref-": 2983,
      "files/": 2984,
      "नाव": 2985,
      "▁द्वार": 2986,
      "माज": 2987,
      "ortal": 2988,
      "త్త": 2989,
      "▁అధిక": 2990,
      "▁ప్రదేశ్": 2991,
      "ప్రదేశ్": 2992,
      "सेना": 2993,
      "▁चु": 2994,
      "▁हुई": 2995,
      "▁निर्": 2996,
      "120px-": 2997,
      "त्पाद": 2998,
      "▁నుండి": 2999,
      "న్నాయి.": 3000,
      "-to": 3001,
      "Hindi": 3002,
      "vol": 3003,
      "eds.": 3004,
      "andard": 3005,
      "▁tradition": 3006,
      "▁dec": 3007,
      "1990": 3008,
      "-40": 3009,
      "apit": 3010,
      "vision": 3011,
      "-78": 3012,
      ".n": 3013,
      "GDP": 3014,
      "_t": 3015,
      "_ब": 3016,
      "टे": 3017,
      "▁ऊ": 3018,
      "▁we": 3019,
      "▁[O": 3020,
      "▁\"आ": 3021,
      "\");": 3022,
      "ince": 3023,
      "](https://en.wikipedia.org/W": 3024,
      "alore": 3025,
      "atus": 3026,
      "angalore": 3027,
      "▁रह": 3028,
      "▁It": 3029,
      "▁2010](https://en.wikipedia.org/India#CITEREF": 3030,
      "▁विकास": 3031,
      "▁two": 3032,
      "-B": 3033,
      "▁23": 3034,
      "ins": 3035,
      "high": 3036,
      "ised": 3037,
      "▁Pe": 3038,
      "▁Plate": 3039,
      "KulkeRothermund2004": 3040,
      "2).": 3041,
      "CN": 3042,
      "dis": 3043,
      "ईसा": 3044,
      "कल": 3045,
      "खाना": 3046,
      "नगर": 3047,
      "रवरी": 3048,
      "ूर्": 3049,
      "ैक": 3050,
      "ोम": 3051,
      "ణి": 3052,
      "తమిళ": 3053,
      "మె": 3054,
      "మైన": 3055,
      "హార": 3056,
      "ోర్": 3057,
      "▁$": 3058,
      "▁Union": 3059,
      "orthern": 3060,
      "▁[आ": 3061,
      "▁\"ఇ": 3062,
      "▁\"భారత": 3063,
      "](https://hi.wikipedia.org/इ": 3064,
      "▁सु": 3065,
      "](https://te.wikipedia.org/బ": 3066,
      "▁Reg": 3067,
      "▁दिया": 3068,
      "▁2012": 3069,
      "▁बढ़": 3070,
      "▁national": 3071,
      "▁మొ": 3072,
      "harat": 3073,
      "నాగ": 3074,
      "త్తర": 3075,
      "ులు\")": 3076,
      "्रां": 3077,
      "▁हुआ": 3078,
      "duction": 3079,
      "ष्ण": 3080,
      "ंबई": 3081,
      "ారు.": 3082,
      "▁लिए": 3083,
      "శ్మీ": 3084,
      "మూస:": 3085,
      "र्दू": 3086,
      "WEO": 3087,
      "censusindia.gov.in/2011": 3088,
      ".india": 3089,
      "73": 3090,
      "7-0": 3091,
      "7-0)": 3092,
      "ves": 3093,
      "▁ro": 3094,
      "onwe": 3095,
      "](https://en.wikipedia.org/The": 3096,
      "rah": 3097,
      "▁summit\")": 3098,
      "etail": 3099,
      "▁caste": 3100,
      "ussia": 3101,
      "change": 3102,
      "1997": 3103,
      "▁2022": 3104,
      "rits": 3105,
      "▁[\"India": 3106,
      "▁general": 3107,
      "▁artic": 3108,
      "▁[*India": 3109,
      "ivil": 3110,
      "▁\"Economy": 3111,
      "](https://en.wikipedia.org/Economy": 3112,
      "dustry": 3113,
      "IMF": 3114,
      "onwealth": 3115,
      "-f": 3116,
      "cat": 3117,
      "f/": 3118,
      "mil": 3119,
      "s-": 3120,
      "टी": 3121,
      "िज": 3122,
      "ारी": 3123,
      "ofindia": 3124,
      "inguis": 3125,
      "▁*The": 3126,
      "▁वा": 3127,
      "▁क्षेत्र\")": 3128,
      "्रीका": 3129,
      "गणना": 3130,
      "-23": 3131,
      "55": 3132,
      "6).": 3133,
      "En": 3134,
      "_In": 3135,
      "div": 3136,
      "nam": 3137,
      "ru": 3138,
      "tb": 3139,
      "▁30": 3140,
      "ann": 3141,
      "tionary": 3142,
      "2012": 3143,
      "rain": 3144,
      "ung": 3145,
      "▁Times": 3146,
      "▁Hindi": 3147,
      "▁had": 3148,
      "doc": 3149,
      "ublishing": 3150,
      "ikh": 3151,
      "▁[Archived](https://web.archive.org/web/201": 3152,
      "▁December": 3153,
      ")\n-": 3154,
      "_f": 3155,
      "_प": 3156,
      "ae": 3157,
      "ote": 3158,
      "rganisation": 3159,
      "क्स": 3160,
      "गोल": 3161,
      "धि": 3162,
      "न](https://hi.wikipedia.org/": 3163,
      "ैल": 3164,
      "శా": 3165,
      "ైనా": 3166,
      "▁up": 3167,
      "▁फ़": 3168,
      "▁[ఇ": 3169,
      "▁[India": 3170,
      "teen": 3171,
      "▁\"జ": 3172,
      "eral_": 3173,
      "arn": 3174,
      "ार्च": 3175,
      "omin": 3176,
      "19-9": 3177,
      "ics": 3178,
      "](https://te.wikipedia.org/ఇ": 3179,
      "](https://te.wikipedia.org/స": 3180,
      "▁पार्ट": 3181,
      "▁sup": 3182,
      "atar": 3183,
      "loy": 3184,
      "adi": 3185,
      "िक्": 3186,
      "▁modern": 3187,
      "▁अरब": 3188,
      "chool": 3189,
      "భారత_": 3190,
      "ility": 3191,
      "▁जून": 3192,
      "▁दिस": 3193,
      "olk": 3194,
      "राजस्थान": 3195,
      "▁BRICS": 3196,
      "రాజ": 3197,
      "లో](https://te.wikipedia.org/": 3198,
      "రిజ": 3199,
      "క్కు": 3200,
      "▁संविधान": 3201,
      "ండ్": 3202,
      ")\n\n##": 3203,
      "त्तरा": 3204,
      ".gov.in/": 3205,
      "जाति": 3206,
      "धानमंत्र": 3207,
      "South_Asian_": 3208,
      "rowth": 3209,
      "▁million": 3210,
      "▁खाना\")": 3211,
      "माणु": 3212,
      "▁थी": 3213,
      "]](https://hi.wikipedia.org/भारत#cite_note-1": 3214,
      "స్కృతి": 3215,
      "ligious": 3216,
      "म्मू": 3217,
      "▁दिसम्बर": 3218,
      "/S": 3219,
      "81": 3220,
      "99": 3221,
      "bi": 3222,
      "di": 3223,
      "tro": 3224,
      "ered": 3225,
      "ar,": 3226,
      "chin": 3227,
      "▁Fe": 3228,
      "▁Commissioner": 3229,
      "inguistic": 3230,
      "-25": 3231,
      "4/": 3232,
      "5–": 3233,
      "De": 3234,
      "_न": 3235,
      "y,": 3236,
      "डिया": 3237,
      "िस्तान": 3238,
      "ौद्ध": 3239,
      "्रम": 3240,
      "city": 3241,
      "omas": 3242,
      "1950": 3243,
      "पुरी": 3244,
      "imalay": 3245,
      "bruary": 3246,
      ".png": 3247,
      "स्कृति": 3248,
      "▁period": 3249,
      "6]](https://en.wikipedia.org/India#cite_note-": 3250,
      "93": 3251,
      "Craven": 3252,
      "ehr": 3253,
      "lor": 3254,
      "yayan": 3255,
      "▁ref": 3256,
      "▁[p": 3257,
      "ooperation": 3258,
      "▁sh": 3259,
      "lag": 3260,
      "urban": 3261,
      "logo": 3262,
      "cean": 3263,
      "ilg": 3264,
      "_(India)": 3265,
      "al_P": 3266,
      "▁one": 3267,
      ".ph": 3268,
      "-108": 3269,
      "induism": 3270,
      "904-7": 3271,
      "ultan": 3272,
      "ovember": 3273,
      "521-80": 3274,
      "ainting": 3275,
      "atsyayan": 3276,
      "tecture": 3277,
      "countries_by": 3278,
      "Harle1994": 3279,
      "ricket": 3280,
      "_Island": 3281,
      ".indiatimes.com/": 3282,
      "Craven1997": 3283,
      "521-80904-7": 3284,
      "&s": 3285,
      "124": 3286,
      "98": 3287,
      "bn": 3288,
      "द्वीप": 3289,
      "रेल": 3290,
      "वी": 3291,
      "स्ट": 3292,
      "ैंड": 3293,
      "ఆసియా": 3294,
      "చే": 3295,
      "బా": 3296,
      "▁ध": 3297,
      "▁time": 3298,
      "▁[జ": 3299,
      "](https://hi.wikipedia.org/सं": 3300,
      "▁(eds.": 3301,
      "▁मार्च": 3302,
      "▁पह": 3303,
      "र्स": 3304,
      "र्जा": 3305,
      "](https://hi.wikipedia.org/भारतीय": 3306,
      "urn": 3307,
      "▁పా": 3308,
      "त्रि": 3309,
      "▁बना": 3310,
      "▁వా": 3311,
      "▁group": 3312,
      "ండు": 3313,
      "▁చూ": 3314,
      "▁इतिहास": 3315,
      "త్వ": 3316,
      "र्वत": 3317,
      "ंडिया": 3318,
      "पात": 3319,
      "▁states": 3320,
      "ప్రధాన": 3321,
      "ंग्रेस": 3322,
      ".jpg/120px-": 3323,
      "▁తే": 3324,
      "▁हिन्दी": 3325,
      "▁शासन": 3326,
      "▁[↑](https://hi.wikipedia.org/भारत#cite_ref-1": 3327,
      "వంశం": 3328,
      "▁द्वारा": 3329,
      "▁फ़रवरी": 3330,
      "2–": 3331,
      "Fisher": 3332,
      "Pakistan": 3333,
      "cord": 3334,
      "minist": 3335,
      "ving": 3336,
      "▁und": 3337,
      "▁0.": 3338,
      "\"):": 3339,
      "come": 3340,
      "▁1.": 3341,
      "ters": 3342,
      "1162": 3343,
      "▁[*The": 3344,
      "Fisher2018": 3345,
      "6–": 3346,
      "Main": 3347,
      "ahar": 3348,
      "hind": 3349,
      "lesh": 3350,
      "m.nic.in/": 3351,
      "ncl": 3352,
      "ras": 3353,
      "vatsyayan": 3354,
      "wal": 3355,
      "योग": 3356,
      "▁29": 3357,
      "▁end": 3358,
      "\")\n": 3359,
      "](https://en.wikipedia.org/I": 3360,
      "](https://en.wikipedia.org/O": 3361,
      "190": 3362,
      "rac": 3363,
      "राठ": 3364,
      "▁such": 3365,
      "\n\nMain": 3366,
      "ताब्": 3367,
      "▁largest": 3368,
      "▁ear": 3369,
      "ाद्वीप": 3370,
      "▁art": 3371,
      "ow/": 3372,
      "-107-1": 3373,
      "_BRICS": 3374,
      "olitics": 3375,
      "athak": 3376,
      "▁घाट": 3377,
      "-in-": 3378,
      "-lord": 3379,
      "Special:BookSources/978-81": 3380,
      "19-88": 3381,
      "leshow/": 3382,
      "nclm.nic.in/": 3383,
      "vatsyayan-lord": 3384,
      ")\n": 3385,
      "-of": 3386,
      "/auth": 3387,
      "68": 3388,
      "_13": 3389,
      "c=": 3390,
      "ealth": 3391,
      "site": 3392,
      "utt": 3393,
      "▁'": 3394,
      "▁(*": 3395,
      "▁Min": 3396,
      "_Centre": 3397,
      "meric": 3398,
      "5/": 3399,
      "JP": 3400,
      "LA": 3401,
      "_సా": 3402,
      "ंट": 3403,
      "खंड": 3404,
      "खण्ड": 3405,
      "मार": 3406,
      "रू": 3407,
      "वार": 3408,
      "व्यवस्था": 3409,
      "सभा": 3410,
      "हीं": 3411,
      "ुरु": 3412,
      "ुंबई": 3413,
      "ौर": 3414,
      "ौद्योगिक": 3415,
      "०१": 3416,
      "ంప": 3417,
      "కో": 3418,
      "గణ": 3419,
      "దిన": 3420,
      "నై": 3421,
      "రీ": 3422,
      "▁या": 3423,
      "▁\"చ": 3424,
      "▁संग": 3425,
      "ould": 3426,
      "ict": 3427,
      "▁मैदान": 3428,
      "](https://te.wikipedia.org/జ": 3429,
      "ammu": 3430,
      "्ता:": 3431,
      "▁Sanskrit": 3432,
      "▁14": 3433,
      "नाडु": 3434,
      "▁Modern": 3435,
      "▁जल": 3436,
      "▁दर": 3437,
      "▁दृ": 3438,
      "▁प्रति": 3439,
      "▁प्रमुख": 3440,
      "econd": 3441,
      "tud": 3442,
      "स्त्र": 3443,
      "▁క్రీ": 3444,
      "▁2004": 3445,
      "క్‌": 3446,
      "నికి": 3447,
      "ల్ల": 3448,
      "ంగీ": 3449,
      "▁సి": 3450,
      "osed": 3451,
      "▁Language": 3452,
      "▁War": 3453,
      "](https://hi.wikipedia.org/भारत#cite_ref-FOOTNOTE": 3454,
      "నాభా": 3455,
      "▁हैं,": 3456,
      "జాబి": 3457,
      "किम": 3458,
      "पर्यटन": 3459,
      "दीव": 3460,
      "▁[![](https://upload.wikimedia.org/wikipedia/commons/thumb/": 3461,
      "▁इसके": 3462,
      "पालिका": 3463,
      "▁శా": 3464,
      "▁భాష\")": 3465,
      "▁सिनेमा": 3466,
      "ector": 3467,
      "▁Environment": 3468,
      "బెంగ": 3469,
      "िक्षा": 3470,
      ".aspx": 3471,
      "▁अगस्त": 3472,
      "िक्किम": 3473,
      "▁February": 3474,
      "జాబితా": 3475,
      "01": 3476,
      "300": 3477,
      "BC": 3478,
      "C).": 3479,
      "Re": 3480,
      "cent": 3481,
      "cms": 3482,
      "fgh": 3483,
      "jec": 3484,
      "ner": 3485,
      "ning": 3486,
      "oy": 3487,
      "rar": 3488,
      "▁emp": 3489,
      "enn": 3490,
      "▁\"V": 3491,
      "](https://en.wikipedia.org/V": 3492,
      "ared": 3493,
      "arge": 3494,
      "esearch": 3495,
      "▁(2018": 3496,
      "astern": 3497,
      "ouse": 3498,
      "right": 3499,
      "etra": 3500,
      "among": 3501,
      "atak": 3502,
      "▁China": 3503,
      "▁Per": 3504,
      "▁Pakistan": 3505,
      "▁me": 3506,
      "▁mathe": 3507,
      "istrar": 3508,
      "▁who": 3509,
      "olle": 3510,
      "emoc": 3511,
      "Spear": 3512,
      "▁large": 3513,
      "▁there": 3514,
      "lations": 3515,
      "ligence": 3516,
      "owland": 3517,
      "arket": 3518,
      "▁2011.\n-": 3519,
      "▁people": 3520,
      "MetcalfMetcalf2006),": 3521,
      "▁2019.": 3522,
      "▁later": 3523,
      "limate": 3524,
      "telligence": 3525,
      "](https://en.wikipedia.org/Economy_of_": 3526,
      "fghan": 3527,
      "\"](https://books.google.com/books?id=": 3528,
      ".htm": 3529,
      ".IN": 3530,
      "9-0)": 3531,
      ":C": 3532,
      "UN": 3533,
      "ao": 3534,
      "aus": 3535,
      "jo": 3536,
      "गा": 3537,
      "निक": 3538,
      "फल": 3539,
      "ोष": 3540,
      "▁ट": 3541,
      "▁[978": 3542,
      "thnologue": 3543,
      "ical_": 3544,
      "▁incre": 3545,
      "▁दो": 3546,
      "24)": 3547,
      "▁Economic": 3548,
      "▁2008": 3549,
      "▁K.": 3550,
      "hinese": 3551,
      "%2C_": 3552,
      "pura": 3553,
      "ances": 3554,
      "धिकारिक": 3555,
      "WEO.IN": 3556,
      "IMFWEO.IN": 3557,
      "32": 3558,
      "IA": 3559,
      "Ludden": 3560,
      "Qu": 3561,
      "Template:": 3562,
      "du": 3563,
      "yan": 3564,
      "tig": 3565,
      "errit": 3566,
      "▁some": 3567,
      "ild": 3568,
      "▁2017": 3569,
      "▁than": 3570,
      "▁northern": 3571,
      "do-A": 3572,
      "ervation": 3573,
      "127": 3574,
      "3_": 3575,
      "6/": 3576,
      "Dikshit": 3577,
      "Schwartzberg": 3578,
      "_आ": 3579,
      "can": 3580,
      "d/": 3581,
      "dones": 3582,
      "election": 3583,
      "ria": 3584,
      "ton": 3585,
      "ua": 3586,
      "west": 3587,
      "लिस": 3588,
      "वीं": 3589,
      "शक": 3590,
      "स](https://hi.wikipedia.org/": 3591,
      "ां": 3592,
      "చల్": 3593,
      "యన్": 3594,
      "షు": 3595,
      "ూర్": 3596,
      "▁राष्ट्र": 3597,
      "▁[ओ": 3598,
      "▁[చ": 3599,
      "▁[భారత": 3600,
      "▁[భారతీయ": 3601,
      "▁\"ओ": 3602,
      "2017": 3603,
      "rative": 3604,
      "](https://te.wikipedia.org/ప": 3605,
      "](https://te.wikipedia.org/భారతీయ": 3606,
      "ారం": 3607,
      "ార్ట": 3608,
      "ingdom": 3609,
      "agar": 3610,
      "ాలయ": 3611,
      "▁many": 3612,
      "▁अप्र": 3613,
      "rol": 3614,
      "▁long": 3615,
      "క్క": 3616,
      "▁వ్యవస్థ": 3617,
      "ast_Asia": 3618,
      "▁ము": 3619,
      "ండో": 3620,
      "utra": 3621,
      "ముంబ": 3622,
      "िये": 3623,
      "సిన": 3624,
      "ినల్": 3625,
      "हाय": 3626,
      "ద్ద": 3627,
      "▁ఉన్న": 3628,
      "ृत्य": 3629,
      "ूनिव": 3630,
      "పాకిస్తాన్": 3631,
      "ूरो": 3632,
      "ంధీ": 3633,
      "](https://hi.wikipedia.org/भारत_की_": 3634,
      "](https://hi.wikipedia.org/भारत_का_": 3635,
      "inistry_of_": 3636,
      "_संघ": 3637,
      "▁ఒక": 3638,
      "▁ఒరిజ": 3639,
      "_at_the": 3640,
      "िल्ली": 3641,
      "▁युद्ध": 3642,
      "तेलु": 3643,
      "▁न्यायालय": 3644,
      "▁[पुरालेखित": 3645,
      "धानमंत्री": 3646,
      "ehru": 3647,
      "▁(eds.).": 3648,
      "▁తేదీ": 3649,
      "fghanistan": 3650,
      "DikshitSchwartzberg": 3651,
      "ార్టీ": 3652,
      "▁ఒరిజినల్": 3653,
      "DikshitSchwartzberg2023": 3654,
      "7/": 3655,
      "_n": 3656,
      "get": 3657,
      "ron": 3658,
      "lect": 3659,
      "▁Ac": 3660,
      "▁2015": 3661,
      "ement": 3662,
      "▁British": 3663,
      "▁1947": 3664,
      "▁[\"C": 3665,
      "ivis": 3666,
      "onstituent": 3667,
      "▁union": 3668,
      "-प": 3669,
      "545": 3670,
      "71": 3671,
      "पान": 3672,
      "िला": 3673,
      "▁imp": 3674,
      "2019": 3675,
      "religion": 3676,
      "▁सद": 3677,
      "▁All": 3678,
      "▁Affair": 3679,
      "uslim": 3680,
      "▁CE": 3681,
      "▁2011.": 3682,
      "▁Bank": 3683,
      "▁बन": 3684,
      ".com/news/": 3685,
      "▁GDP": 3686,
      "118": 3687,
      "abad": 3688,
      "akh": 3689,
      "▁ext": 3690,
      "ohn": 3691,
      "▁प्राप्त": 3692,
      "▁कार्य": 3693,
      "formation": 3694,
      "2]](https://en.wikipedia.org/India#cite_note-FOOTNOTE": 3695,
      "7,": 3696,
      "7]](https://en.wikipedia.org/India#cite_note-FOOTNOTE": 3697,
      "Empire": 3698,
      "Pro": 3699,
      "Wiki": 3700,
      "_for": 3701,
      "languages": 3702,
      "min": 3703,
      "pic": 3704,
      "rg": 3705,
      "rm": 3706,
      "ura": 3707,
      "▁em": 3708,
      "▁economic": 3709,
      "▁urban": 3710,
      "rim": 3711,
      "▁Arab": 3712,
      "▁Afric": 3713,
      "achin": 3714,
      "▁war": 3715,
      "▁2003": 3716,
      "_Summit": 3717,
      "2905": 3718,
      "s](https://en.wikipedia.org/M": 3719,
      "key": 3720,
      "▁rule": 3721,
      "ineering": 3722,
      "hola": 3723,
      "/article": 3724,
      "▁Act,": 3725,
      "▁2018](https://en.wikipedia.org/India#CITEREF": 3726,
      "nown": 3727,
      "▁classical": 3728,
      "_in_South_Asia": 3729,
      "1162-2": 3730,
      "-107-11162-2": 3731,
      "19-882905": 3732,
      "erritory": 3733,
      "ast_Asia_Summit": 3734,
      "19-882905-8": 3735,
      ".fr": 3736,
      "2,": 3737,
      "53": 3738,
      "86": 3739,
      "_ए": 3740,
      "_देश": 3741,
      "e/": 3742,
      "ling": 3743,
      "pla": 3744,
      "ser": 3745,
      "ंका": 3746,
      "कट": 3747,
      "गंगा": 3748,
      "देव": 3749,
      "पक": 3750,
      "भो": 3751,
      "मेर": 3752,
      "लंका": 3753,
      "स\")": 3754,
      "हैद": 3755,
      "ीमा": 3756,
      "ूह": 3757,
      "ం?action=edit&redlink=1": 3758,
      "జ్": 3759,
      "వరి": 3760,
      "శ్చ": 3761,
      "ిన్న": 3762,
      "ెల": 3763,
      "▁/": 3764,
      "▁[United": 3765,
      "▁\"భారతదేశ": 3766,
      "](https://hi.wikipedia.org/आ": 3767,
      "్రె": 3768,
      "राबाद": 3769,
      "ाने": 3770,
      "र्ना": 3771,
      "_का_": 3772,
      "▁बा": 3773,
      "▁नी": 3774,
      "1996": 3775,
      "నిస్తాన్": 3776,
      "▁మధ్య": 3777,
      "imf": 3778,
      "▁है।[[": 3779,
      "▁[Asher": 3780,
      "▁संबंध": 3781,
      "हिमा": 3782,
      "▁Kashmir": 3783,
      "त्तीस": 3784,
      "र्वो": 3785,
      "▁भाषाओं": 3786,
      "▁original](https://": 3787,
      "](https://te.wikipedia.org/భారతదేశంలో": 3788,
      "▁करने": 3789,
      "िरपे": 3790,
      "▁*[The": 3791,
      "▁ఉంది.": 3792,
      "▁ఉన్నాయి.": 3793,
      "▁अन्त": 3794,
      "वायु": 3795,
      "ीपी": 3796,
      "▁Valley": 3797,
      "స్థాన్": 3798,
      "endra": 3799,
      "▁मेला\")": 3800,
      "▁हुए": 3801,
      "ुख्य": 3802,
      "hrist": 3803,
      "-largest": 3804,
      "▁పేజీ": 3805,
      "orities": 3806,
      "भीम": 3807,
      "మ్మూ": 3808,
      "▁[हिन्दी](https://hi.wikipedia.org/": 3809,
      "महाद्वीप": 3810,
      "▁गणराज्य": 3811,
      "▁\"భారతదేశంలో": 3812,
      "▁చూసిన": 3813,
      "▁తేదీ:": 3814,
      "हैदराबाद": 3815,
      "శ్చి": 3816,
      "र्नाटक": 3817,
      "िरपेक्ष": 3818,
      "▁పేజీని": 3819,
      "0)": 3820,
      "119": 3821,
      "Report": 3822,
      "_V": 3823,
      "ix": 3824,
      "▁out": 3825,
      "pect": 3826,
      "▁[V": 3827,
      "tition": 3828,
      "ictionary": 3829,
      "ety": 3830,
      "▁2013": 3831,
      "▁original](https://www.": 3832,
      "_De": 3833,
      "ingham": 3834,
      "\"](https://web.archive.org/web/20160": 3835,
      "▁territory": 3836,
      "-to-": 3837,
      "▁under": 3838,
      "1]](https://en.wikipedia.org/India#cite_note-FOOTNOTE": 3839,
      "8-0)": 3840,
      "[![](https://upload.wikimedia.org/wikipedia/commons/thumb/": 3841,
      "a-": 3842,
      "az": 3843,
      "che": 3844,
      "detail": 3845,
      "hang": 3846,
      "jpg": 3847,
      "k:": 3848,
      "owe": 3849,
      "olog": 3850,
      "ris": 3851,
      "ula": 3852,
      "work": 3853,
      "ymb": 3854,
      "zation": 3855,
      "त्व": 3856,
      "लयाल": 3857,
      "िख": 3858,
      "िम": 3859,
      "▁ra": 3860,
      "▁among": 3861,
      "dian": 3862,
      "oral": 3863,
      "▁[19": 3864,
      "▁\"India": 3865,
      "▁\"Oxford": 3866,
      "arna": 3867,
      "▁कुल": 3868,
      "▁|\n\n": 3869,
      "itary": 3870,
      "▁मे": 3871,
      "2015": 3872,
      "▁social": 3873,
      "▁Cons": 3874,
      "▁trans": 3875,
      "▁minister": 3876,
      "ulti": 3877,
      "▁देख": 3878,
      "26)": 3879,
      "ताज": 3880,
      "ly,": 3881,
      "Special:EditPage/": 3882,
      "▁Nadu": 3883,
      "▁वार": 3884,
      "▁शताब्": 3885,
      "प्रा": 3886,
      "ainism": 3887,
      ".gov/": 3888,
      "overe": 3889,
      "ynast": 3890,
      "ोर्ड": 3891,
      "%E0%A4%B": 3892,
      "censusindia.gov.in/2011census": 3893,
      "▁article": 3894,
      "teenth": 3895,
      "arnatak": 3896,
      "Spear1990": 3897,
      "Special:EditPage/Template:": 3898,
      "415": 3899,
      "a.": 3900,
      "▁high": 3901,
      "tes": 3902,
      "203": 3903,
      "2024": 3904,
      "▁(1,": 3905,
      "▁Science": 3906,
      "▁R.": 3907,
      "▁Raj": 3908,
      "olper": 3909,
      "▁land": 3910,
      "ake": 3911,
      "_New": 3912,
      "▁3,": 3913,
      "▁used": 3914,
      "▁Assembly": 3915,
      "olpert": 3916,
      "7_": 3917,
      "94": 3918,
      "II": 3919,
      "han": 3920,
      "ie": 3921,
      "ili": 3922,
      "ihar": 3923,
      "way": 3924,
      "ंह": 3925,
      "गल": 3926,
      "झार": 3927,
      "तट": 3928,
      "मालय": 3929,
      "हन": 3930,
      "हरी": 3931,
      "िहार": 3932,
      "షన్": 3933,
      "హ్": 3934,
      "ెలు": 3935,
      "▁ऑ": 3936,
      "▁ओ": 3937,
      "▁history": 3938,
      "▁term": 3939,
      "▁[c": 3940,
      "▁[च": 3941,
      "▁[Oxford": 3942,
      "▁\"ज": 3943,
      "Informatics": 3944,
      "es,": 3945,
      "](https://hi.wikipedia.org/ओ": 3946,
      "▁they": 3947,
      "▁महासागर": 3948,
      "▁India*](https://books.google.com/books?id=": 3949,
      "](https://te.wikipedia.org/అ": 3950,
      "etary": 3951,
      "inger": 3952,
      "र्ष": 3953,
      "▁केन्द्र": 3954,
      "▁Se": 3955,
      "▁ही": 3956,
      "▁होत": 3957,
      "ियां": 3958,
      "▁नद": 3959,
      "▁नहीं": 3960,
      "▁से](http://www.": 3961,
      "upta": 3962,
      "రియా": 3963,
      "पुरा": 3964,
      "स्ला": 3965,
      "▁మార్": 3966,
      "▁उद्यान": 3967,
      "▁Official": 3968,
      "▁Wiki": 3969,
      "▁लेख": 3970,
      "▁रहा": 3971,
      "own": 3972,
      ".jpg)\n-": 3973,
      "ప్రపంచ": 3974,
      "विशेष:EditPage/": 3975,
      "olitic": 3976,
      "-pro": 3977,
      "▁मेला](https://hi.wikipedia.org/": 3978,
      "rown": 3979,
      "श्चिमी": 3980,
      "▁సంస్కృతి": 3981,
      "దీవ": 3982,
      "/articleshow/": 3983,
      "▁स्रोत/978-0-": 3984,
      "▁स्रोत/978-1": 3985,
      "](https://hi.wikipedia.org/विशेष:पुस्तक_स्रोत/978-0-": 3986,
      "](https://hi.wikipedia.org/विशेष:पुस्तक_स्रोत/978-1": 3987,
      "▁भूम": 3988,
      "union_territ": 3989,
      "▁चुनाव": 3990,
      ".png)": 3991,
      "रेलू": 3992,
      "र्वोच्च": 3993,
      "Informatics_Centre": 3994,
      "विशेष:EditPage/साँचा:": 3995,
      "-India": 3996,
      "1-0": 3997,
      "129": 3998,
      "63": 3999,
      "European": 4000,
      "UCN": 4001,
      "ave": 4002,
      "gram": 4003,
      "ker": 4004,
      "slam": 4005,
      "▁ci": 4006,
      "▁he": 4007,
      "▁low": 4008,
      "▁rate": 4009,
      "▁...": 4010,
      "orest": 4011,
      "pee": 4012,
      "▁\"United": 4013,
      "ess/": 4014,
      "reme": 4015,
      "19-5": 4016,
      "1970": 4017,
      "▁SAARC": 4018,
      "▁both": 4019,
      "los": 4020,
      "ada": 4021,
      "▁maj": 4022,
      "▁Bengal": 4023,
      "25)": 4024,
      "▁General": 4025,
      "-317": 4026,
      "ryan": 4027,
      "▁her": 4028,
      "epart": 4029,
      "apan": 4030,
      "riculture": 4031,
      "ultural": 4032,
      "_pro": 4033,
      "▁\"History": 4034,
      "economy": 4035,
      "qual": 4036,
      "](https://en.wikipedia.org/History": 4037,
      "ography": 4038,
      "usiness/": 4039,
      "rdu": 4040,
      "garh": 4041,
      "▁2006](https://en.wikipedia.org/India#CITEREFMetcalfMetcalf2006),": 4042,
      "▁article:": 4043,
      "gramme": 4044,
      "epartment": 4045,
      "3TR": 4046,
      "8–": 4047,
      "_उ": 4048,
      "_en": 4049,
      "back": 4050,
      "cess": 4051,
      "ks": 4052,
      "oa": 4053,
      "फ्रीका": 4054,
      "भ्यता": 4055,
      "।\n\n": 4056,
      "▁1998": 4057,
      "rature": 4058,
      "र्ज": 4059,
      "ISO": 4060,
      "▁India\").": 4061,
      "india-g": 4062,
      "▁आधिकारिक": 4063,
      "▁संस्कृति": 4064,
      "ffice": 4065,
      "avy": 4066,
      "▁जनगणना": 4067,
      "करण": 4068,
      ".svg/": 4069,
      "rishn": 4070,
      "3TRt": 4071,
      "1-3": 4072,
      "bank": 4073,
      "gra": 4074,
      "stitu": 4075,
      "lated": 4076,
      "onsoon": 4077,
      "▁2005": 4078,
      "▁north": 4079,
      "▁Fr": 4080,
      "▁status": 4081,
      "erala": 4082,
      "▁depend": 4083,
      "-india-": 4084,
      "▁2021.": 4085,
      ".aspx?": 4086,
      "-विज्ञान": 4087,
      "4-108": 4088,
      "6]](https://en.wikipedia.org/India#cite_note-FOOTNOTE": 4089,
      "Robb": 4090,
      "Sharma": 4091,
      "_J": 4092,
      "_व": 4093,
      "_వ": 4094,
      "britannica": 4095,
      "c.": 4096,
      "cul": 4097,
      "hal": 4098,
      "iri": 4099,
      "ov": 4100,
      "war": 4101,
      "yle": 4102,
      "ंच": 4103,
      "अन": 4104,
      "ईरा": 4105,
      "गान": 4106,
      "छत्तीस": 4107,
      "टान": 4108,
      "बैक": 4109,
      "भु": 4110,
      "लग": 4111,
      "शीन": 4112,
      "सून": 4113,
      "िंध": 4114,
      "ीच": 4115,
      "ం\"),": 4116,
      "ంత్రి": 4117,
      "ఆఫ్": 4118,
      "కత": 4119,
      "కై": 4120,
      "క్య": 4121,
      "దాయ": 4122,
      "రే": 4123,
      "లంక": 4124,
      "వీ": 4125,
      "శ్రీ": 4126,
      "షి": 4127,
      "సు": 4128,
      "▁ఏ": 4129,
      "▁oc": 4130,
      "▁[m": 4131,
      "▁[सा": 4132,
      "▁[సి": 4133,
      "▁\"च": 4134,
      "▁\"ल": 4135,
      "ini": 4136,
      "aria": 4137,
      "](https://hi.wikipedia.org/च": 4138,
      "▁कई": 4139,
      "▁कश्मीर": 4140,
      "भारत)": 4141,
      "▁सैन": 4142,
      "icha": 4143,
      "](https://te.wikipedia.org/చ": 4144,
      "▁पर्वत": 4145,
      "▁Summit\")": 4146,
      "▁found": 4147,
      "▁member": 4148,
      "road": 4149,
      "illion": 4150,
      "స్సా": 4151,
      "वित": 4152,
      "▁పరి": 4153,
      "▁పార్టీ": 4154,
      "_का": 4155,
      "21)": 4156,
      "న్‌": 4157,
      "emale": 4158,
      "▁बीच": 4159,
      "▁Delhi": 4160,
      "▁से](http://": 4161,
      "▁కు": 4162,
      "न्दिर": 4163,
      "क्षा": 4164,
      "▁వచ్చ": 4165,
      "▁गा": 4166,
      "▁गु": 4167,
      "▁उत्पाद": 4168,
      "epal": 4169,
      "_मंदिर": 4170,
      "▁संसद": 4171,
      "▁इन": 4172,
      "ముద్ర": 4173,
      "▁began": 4174,
      "िस्ट": 4175,
      "ance/": 4176,
      "▁करोड़": 4177,
      "▁अनु": 4178,
      "order": 4179,
      "▁[अंग्रेज़": 4180,
      "ibet": 4181,
      "▁\"National": 4182,
      "uddhism": 4183,
      "గాంధీ": 4184,
      "▁राजनी": 4185,
      "▁\"पंजाब": 4186,
      "र्थव्यवस्था": 4187,
      "నేపాల": 4188,
      "ducation": 4189,
      "▁[पंजाब": 4190,
      "Oxford_University_Press": 4191,
      "गणराज्य": 4192,
      "Stein2010),": 4193,
      "▁होता": 4194,
      "074-108": 4195,
      "ब्ब": 4196,
      "▁పేరు": 4197,
      "▁जिसमें": 4198,
      "▁कारण": 4199,
      "industan": 4200,
      "▁Press](https://en.wikipedia.org/Oxford_University_Press": 4201,
      "_मेला?action=edit&redlink=1": 4202,
      "▁చెయ్య": 4203,
      "esert": 4204,
      "▁Company": 4205,
      "श्रीलंका": 4206,
      "गोआ": 4207,
      "▁కూడా": 4208,
      "वेबैक": 4209,
      "-78074-108": 4210,
      "▁2010](https://en.wikipedia.org/India#CITEREFStein2010),": 4211,
      "ultanate": 4212,
      "र्सिट": 4213,
      "ministrative": 4214,
      "ంగీతం": 4215,
      "yanmar": 4216,
      "do-Aryan": 4217,
      "▁अप्रैल": 4218,
      "ముంబై": 4219,
      "ूनिवर्सिट": 4220,
      "rgani": 4221,
      "శ్చిమ": 4222,
      "Spear199024": 4223,
      "britannica.com/": 4224,
      "▁occ": 4225,
      "▁[अंग्रेज़ी](https://hi.wikipedia.org/अ": 4226,
      "▁చెయ్యబడ": 4227,
      "-78074-108-6": 4228,
      "-n": 4229,
      "-language": 4230,
      "130": 4231,
      "ities": 4232,
      "t-": 4233,
      "tice": 4234,
      "hief": 4235,
      "itz": 4236,
      "▁sp": 4237,
      "▁country": 4238,
      "resident": 4239,
      "▁David": 4240,
      "ubcontinent": 4241,
      "akhand": 4242,
      "olden": 4243,
      "data.": 4244,
      "](https://doi.org/10.10": 4245,
      "1-1": 4246,
      "54": 4247,
      "_19": 4248,
      "dat": 4249,
      "hra": 4250,
      "ii": 4251,
      "itt": 4252,
      "थल": 4253,
      "भर": 4254,
      "मो": 4255,
      "हरा": 4256,
      "१९": 4257,
      "▁ed.).": 4258,
      "\")[[": 4259,
      "India_": 4260,
      "aran": 4261,
      "▁(अ": 4262,
      "its": 4263,
      "▁power": 4264,
      "-135": 4265,
      "ing_": 4266,
      "▁C.": 4267,
      "▁Con": 4268,
      "▁P.": 4269,
      "▁Publishing": 4270,
      "▁made": 4271,
      "▁total": 4272,
      "00)": 4273,
      "▁Government": 4274,
      "म्प": 4275,
      "_Delhi": 4276,
      "▁पुरा": 4277,
      "▁वर्ग": 4278,
      "▁world's": 4279,
      "▁\"हिन्दी\")": 4280,
      "ociety": 4281,
      "ustralia": 4282,
      "document": 4283,
      "▁शताब्दी": 4284,
      "-C": 4285,
      "3]](https://en.wikipedia.org/India#cite_note-FOOTNOTE": 4286,
      "44": 4287,
      "5]](https://en.wikipedia.org/India#cite_note-FOOTNOTE": 4288,
      "Library": 4289,
      "be": 4290,
      "country": 4291,
      "ele": 4292,
      "mal": 4293,
      "sur": 4294,
      "anor": 4295,
      "](https://en.wikipedia.org/South": 4296,
      "than": 4297,
      "arl": 4298,
      "aldiv": 4299,
      "cip": 4300,
      "▁(India": 4301,
      "icon": 4302,
      "entr": 4303,
      "▁prime": 4304,
      "urton": 4305,
      "lowing": 4306,
      "▁man": 4307,
      "state": 4308,
      "003": 4309,
      "▁Be": 4310,
      "nium": 4311,
      "▁Data": 4312,
      "sian": 4313,
      "▁India\")\n\n": 4314,
      "hak": 4315,
      "force": 4316,
      "verse": 4317,
      "▁rep": 4318,
      "aksh": 4319,
      "▁non-": 4320,
      "s](https://en.wikipedia.org/List_of_": 4321,
      "▁[\"A": 4322,
      "▁[\"The": 4323,
      "▁From": 4324,
      ".[[3": 4325,
      "udi": 4326,
      "▁\"Category:": 4327,
      "ountain": 4328,
      "otals": 4329,
      "ternal": 4330,
      "viol": 4331,
      "rough": 4332,
      "_East_Asia_Summit": 4333,
      "](https://en.wikipedia.org/List_of_countries_by": 4334,
      "/cb": 4335,
      "AARC_summit": 4336,
      "▁lead": 4337,
      "▁Empire\")": 4338,
      "maputra": 4339,
      "▁York": 4340,
      "lennium": 4341,
      "rahmaputra": 4342,
      "ymbol": 4343,
      "ichael": 4344,
      "rganization": 4345,
      "aldives": 4346,
      "9,": 4347,
      "glia": 4348,
      "इल": 4349,
      "खा": 4350,
      "पि": 4351,
      "यर": 4352,
      "वल": 4353,
      "शा": 4354,
      "ापक": 4355,
      "ीगढ़": 4356,
      "ेद": 4357,
      "ॉक": 4358,
      "ोस": 4359,
      "्ले": 4360,
      "గర": 4361,
      "టక": 4362,
      "టా": 4363,
      "దార": 4364,
      "నీ": 4365,
      "రో": 4366,
      "సభ": 4367,
      "ెద్ద": 4368,
      "▁[वि": 4369,
      "▁\"సి": 4370,
      "](https://hi.wikipedia.org/ल": 4371,
      "▁कु": 4372,
      "ret": 4373,
      "▁स्त": 4374,
      "▁सूचना": 4375,
      "as,": 4376,
      "▁मध्य": 4377,
      "](https://te.wikipedia.org/భారత_": 4378,
      "ानव": 4379,
      "ams": 4380,
      "urch": 4381,
      "▁अव": 4382,
      "▁పు": 4383,
      "▁Mon": 4384,
      "▁जी": 4385,
      "ालदीव": 4386,
      "▁दि": 4387,
      "▁दशक": 4388,
      "ेशन": 4389,
      "ेशिया": 4390,
      "emon": 4391,
      "▁D.": 4392,
      "రాజ్య": 4393,
      "▁Nations": 4394,
      "▁కేంద్రపాలిత": 4395,
      "षाण": 4396,
      "क्षर": 4397,
      "elang": 4398,
      "▁మా": 4399,
      "▁शक्ति": 4400,
      "▁शिक्षा": 4401,
      "काश": 4402,
      "▁చే": 4403,
      "▁लोग": 4404,
      "ము\")": 4405,
      "త్స": 4406,
      "ंडीगढ़": 4407,
      "▁రాజ్య": 4408,
      "▁क्षेत्रीय": 4409,
      "भिज्ञ": 4410,
      "వాతంత్ర": 4411,
      "जनसंख्या": 4412,
      "▁जनसंख्या": 4413,
      "▁स्था": 4414,
      "▁దేశాల": 4415,
      "లాదేశ్": 4416,
      "]](https://hi.wikipedia.org/भारत#cite_note-FOOTNOTEStein1998": 4417,
      "]](https://hi.wikipedia.org/भारत#cite_note-FOOTNOTESingh2009": 4418,
      "స్తు": 4419,
      "▁సామ్రాజ్యం](https://te.wikipedia.org/": 4420,
      "▁2021.\n": 4421,
      "హిందీ": 4422,
      "▁భాషలు": 4423,
      "ంగ్లాదేశ్": 4424,
      "मुख्य": 4425,
      "_ప్రా": 4426,
      "fication": 4427,
      "▁diff": 4428,
      "్రిటి": 4429,
      "▁అధికార": 4430,
      "त्तराखण्ड": 4431,
      "etraglia": 4432,
      "ూర్పు": 4433,
      "हिमाचल": 4434,
      "▁మార్గ": 4435,
      "▁लेख:": 4436,
      "3TRtDwAAQBAJ&pg=PA": 4437,
      "కైవు": 4438,
      "भिज्ञापक": 4439,
      "\"[[": 4440,
      "-S": 4441,
      "/D": 4442,
      "eval": 4443,
      "rial": 4444,
      "▁lo": 4445,
      "▁50": 4446,
      "estic": 4447,
      "omestic": 4448,
      "▁(2006": 4449,
      "▁sou": 4450,
      "▁Sec": 4451,
      "_of_C": 4452,
      "▁Himalay": 4453,
      "ounci": 4454,
      "30)": 4455,
      "good": 4456,
      "](https://web.archive.org/web/200": 4457,
      "imach": 4458,
      "def": 4459,
      "▁Press,": 4460,
      "▁add": 4461,
      "edieval": 4462,
      "cript": 4463,
      "National_Informatics_Centre": 4464,
      "duct": 4465,
      "National_Informatics_Centre2005": 4466,
      "\"](https://web.archive.org/web/20": 4467,
      "*)": 4468,
      "/lin": 4469,
      "110": 4470,
      "2]](https://en.wikipedia.org/India#cite_note-": 4471,
      "4]](https://en.wikipedia.org/India#cite_note-FOOTNOTE": 4472,
      "5%": 4473,
      "IJ": 4474,
      "NGDP": 4475,
      "RL": 4476,
      "Rowland": 4477,
      "Un": 4478,
      "_द": 4479,
      "_17": 4480,
      "aury": 4481,
      "hindi": 4482,
      "ject": 4483,
      "lance/": 4484,
      "ym": 4485,
      "गू": 4486,
      "तृत": 4487,
      "थिल": 4488,
      "वास": 4489,
      "श्य": 4490,
      "हित": 4491,
      "ैथिल": 4492,
      "▁his": 4493,
      "▁United": 4494,
      "orce": 4495,
      "ortheast": 4496,
      "▁[दक्षिण": 4497,
      "▁\"[": 4498,
      "▁\"दक्षिण": 4499,
      "▁\"तमिल": 4500,
      "ines": 4501,
      "thnic": 4502,
      "eries": 4503,
      "aries": 4504,
      "भारतीय": 4505,
      "▁मुख्य": 4506,
      "leg": 4507,
      "▁south": 4508,
      "rig": 4509,
      "lack": 4510,
      "ament": 4511,
      "▁S.": 4512,
      "ages/": 4513,
      "▁mar": 4514,
      ".\n13": 4515,
      "▁River": 4516,
      "emic": 4517,
      "▁app": 4518,
      "aylor": 4519,
      "▁Ge": 4520,
      "▁Gandhi": 4521,
      "shared": 4522,
      "22)": 4523,
      "asting": 4524,
      "](https://en.wikipedia.org/India#CITEREFB": 4525,
      "abha": 4526,
      "s](https://en.wikipedia.org/C": 4527,
      "-90": 4528,
      "▁लोक": 4529,
      "ontent": 4530,
      "ummer": 4531,
      "undament": 4532,
      "▁राज्य\")": 4533,
      "ोलन": 4534,
      "ंग्रेजी": 4535,
      "operation": 4536,
      "reek": 4537,
      "▁tex": 4538,
      "\")*,": 4539,
      "▁right": 4540,
      "kimages/": 4541,
      "flu": 4542,
      "-lead": 4543,
      "nclm.nic.in/shared": 4544,
      "quality": 4545,
      "india-glance/": 4546,
      "▁(India)\")": 4547,
      "/linkimages/": 4548,
      "Rowland1970": 4549,
      "nclm.nic.in/shared/linkimages/": 4550,
      "2%": 4551,
      "219": 4552,
      "QAAQBAJ&pg=PA": 4553,
      "dr": 4554,
      "lm": 4555,
      "▁ed": 4556,
      "erent": 4557,
      "ominal": 4558,
      "-06": 4559,
      "vel": 4560,
      "▁Republic": 4561,
      "217": 4562,
      "23)": 4563,
      "main": 4564,
      "▁Linguistic": 4565,
      "ucation": 4566,
      "ternational_": 4567,
      "ssam": 4568,
      "ankar": 4569,
      "▁area": 4570,
      "▁States": 4571,
      "▁estim": 4572,
      "-on-": 4573,
      "-with": 4574,
      ".ni": 4575,
      "91": 4576,
      "DD": 4577,
      "_इ": 4578,
      "_राज": 4579,
      "iz": 4580,
      "par": 4581,
      "uth": 4582,
      "को": 4583,
      "गत": 4584,
      "धा": 4585,
      "बा": 4586,
      "म\")": 4587,
      "षय": 4588,
      "िनेमा": 4589,
      "ी.": 4590,
      "ृद्ध": 4591,
      "ॉल": 4592,
      "८५": 4593,
      "ంజా": 4594,
      "గి": 4595,
      "టీ": 4596,
      "టాన్": 4597,
      "మంత్రి": 4598,
      "లను": 4599,
      "వె": 4600,
      "వరణ": 4601,
      "హదార": 4602,
      "ూచ": 4603,
      "▁హ": 4604,
      "▁భారతదేశ": 4605,
      ".org": 4606,
      "▁[4": 4607,
      "▁[पाकिस्तान": 4608,
      "▁\"पाकिस्तान": 4609,
      "on,": 4610,
      "them": 4611,
      "▁सक": 4612,
      "▁सभा": 4613,
      "▁मो": 4614,
      "्यों": 4615,
      "్రమ": 4616,
      "-16": 4617,
      "▁Public": 4618,
      "▁द्वीप": 4619,
      "्वतंत्रता": 4620,
      "▁प्रेस": 4621,
      "▁प्रौद्योगिक": 4622,
      "▁Di": 4623,
      "భారతదేశ_": 4624,
      "▁व्य": 4625,
      "▁కొ": 4626,
      "▁వ్యా": 4627,
      "▁J.": 4628,
      "▁new": 4629,
      "▁మత": 4630,
      "▁మతము": 4631,
      "▁शु": 4632,
      "▁लग": 4633,
      "తావరణ": 4634,
      "నాడు": 4635,
      "ियार": 4636,
      "ource": 4637,
      "त्तरी": 4638,
      "परमाणु": 4639,
      "ेली": 4640,
      "ूर्वी": 4641,
      "▁जाती": 4642,
      "▁ఇతర": 4643,
      "▁राजवंश": 4644,
      "▁स्थान": 4645,
      "ज्ज": 4646,
      "ాయి": 4647,
      "worldbank": 4648,
      "ణాసియా": 4649,
      "▁left": 4650,
      "ship": 4651,
      "▁प्राचीन": 4652,
      "pringer": 4653,
      "▁धर्म\")": 4654,
      "▁था।": 4655,
      "▁उपमहाद्वीप": 4656,
      "ांग्लादेश": 4657,
      "టెడ్": 4658,
      "▁ఆర్కైవు": 4659,
      "irector": 4660,
      "▁రైలు": 4661,
      "భూటాన్": 4662,
      "▁पहले": 4663,
      "cording": 4664,
      "_సామ్రాజ్యం": 4665,
      "ildlife": 4666,
      "▁[पुरालेखित](https://web.archive.org/web/201": 4667,
      "▁[हिन्दी](https://hi.wikipedia.org/हिन्दी": 4668,
      "olitical_": 4669,
      "▁चुनावों": 4670,
      "▁सैन्य": 4671,
      "వాతంత్ర్య": 4672,
      "-and": 4673,
      "3/": 4674,
      "5).": 4675,
      "9]](https://en.wikipedia.org/India#cite_note-FOOTNOTE": 4676,
      "Gua": 4677,
      "JIJ": 4678,
      "St": 4679,
      "Taj": 4680,
      "Zva": 4681,
      "ced": 4682,
      "kar": 4683,
      "lof": 4684,
      "lurton": 4685,
      "s_of_India": 4686,
      "▁2.": 4687,
      "ency": 4688,
      "erry": 4689,
      "arh": 4690,
      "arendra": 4691,
      "20)": 4692,
      "ally": 4693,
      "▁them": 4694,
      "icob": 4695,
      "▁industry": 4696,
      "rat": 4697,
      "ravi": 4698,
      "▁summit": 4699,
      "-00": 4700,
      "▁pre": 4701,
      "▁painting": 4702,
      "urp": 4703,
      "lopedia": 4704,
      "▁movement": 4705,
      "ver,": 4706,
      "ists": 4707,
      "\"),[[": 4708,
      "▁11": 4709,
      "▁western": 4710,
      "105": 4711,
      "uled": 4712,
      "olon": 4713,
      "▁Europe": 4714,
      "▁November": 4715,
      "▁eastern": 4716,
      "akes": 4717,
      "uduch": 4718,
      "▁Lank": 4719,
      "_Comm": 4720,
      "▁Kingdom": 4721,
      "ots": 4722,
      "](https://en.wikipedia.org/Category:": 4723,
      "overty": 4724,
      "▁[↑](https://en.wikipedia.org/India#cite_ref-FOOTNOTEMetcalfMetcalf2006": 4725,
      "ligions": 4726,
      "_Temple": 4727,
      "▁exp": 4728,
      "ikkim": 4729,
      "_Nadu": 4730,
      "vention": 4731,
      "ports": 4732,
      "▁[National": 4733,
      "general_": 4734,
      "amil_Nadu": 4735,
      "▁technology": 4736,
      "▁State": 4737,
      "_Indian_general_": 4738,
      "industry": 4739,
      ".svg.png)": 4740,
      "▁(identifier)\"):[10.10": 4741,
      "%7C": 4742,
      "%7c": 4743,
      "cyclopedia": 4744,
      "volution": 4745,
      "donesia": 4746,
      "GuaJIJ": 4747,
      "ZvaGuaJIJ": 4748,
      "uducherry": 4749,
      "_Indian_general_election": 4750,
      "ZvaGuaJIJgo": 4751,
      "-D": 4752,
      "/P": 4753,
      "/India": 4754,
      "/ark": 4755,
      "66": 4756,
      "9–": 4757,
      "CL": 4758,
      "New": 4759,
      "f.fr": 4760,
      "rof": 4761,
      "ward": 4762,
      "मु": 4763,
      ":/121": 4764,
      "▁[ड": 4765,
      "asing": 4766,
      "198": 4767,
      "entury": 4768,
      "▁since": 4769,
      "ripura": 4770,
      "url": 4771,
      "▁12": 4772,
      "260": 4773,
      "▁भारत\")": 4774,
      "indus": 4775,
      "▁आर्थिक": 4776,
      "48/cb": 4777,
      "▁नेतृत": 4778,
      "engali": 4779,
      "▁जनवरी": 4780,
      "anipur": 4781,
      "hya": 4782,
      "atis": 4783,
      "▁२०१": 4784,
      "actbook": 4785,
      ".html)": 4786,
      "cyclop": 4787,
      "Uttarakhand": 4788,
      "bnf.fr": 4789,
      "▁Minorities": 4790,
      "/ark:/121": 4791,
      "bnf.fr/ark:/121": 4792,
      "bnf.fr/ark:/12148/cb": 4793,
      "3–": 4794,
      "3-8": 4795,
      "NA": 4796,
      "_38": 4797,
      "vid": 4798,
      "orical": 4799,
      "tered": 4800,
      "▁Chand": 4801,
      "▁Tamil": 4802,
      "▁Ex": 4803,
      "oung": 4804,
      "-3)": 4805,
      "▁human": 4806,
      "▁Indus": 4807,
      "▁Ocean": 4808,
      "llchin": 4809,
      "ogue": 4810,
      "▁2,": 4811,
      "urrent": 4812,
      "](https://doi.org/10.": 4813,
      "2-4": 4814,
      "3),": 4815,
      "Kashmir": 4816,
      "SAARC_summit": 4817,
      "_घ": 4818,
      "_14": 4819,
      "af": 4820,
      "ez": 4821,
      "each": 4822,
      "i_S": 4823,
      "lood": 4824,
      "mrits": 4825,
      "oard": 4826,
      "yam": 4827,
      "ंत": 4828,
      "उप": 4829,
      "क्": 4830,
      "खन": 4831,
      "ग्व": 4832,
      "च्": 4833,
      "जं": 4834,
      "फोर्ड": 4835,
      "ब्ल": 4836,
      "बेट": 4837,
      "यत": 4838,
      "रि": 4839,
      "लों": 4840,
      "ैंक": 4841,
      "ॉंग्रेस": 4842,
      "ौसेना": 4843,
      "२००": 4844,
      "ంశ": 4845,
      "ఆర్": 4846,
      "ఉత్తర": 4847,
      "ఒడి": 4848,
      "కీయ": 4849,
      "గలు": 4850,
      "చు": 4851,
      "జరా": 4852,
      "తూర్పు": 4853,
      "ది.": 4854,
      "భు": 4855,
      "మన్": 4856,
      "యి": 4857,
      "లస": 4858,
      "ీన": 4859,
      "ేక": 4860,
      "▁·": 4861,
      "▁డ": 4862,
      "▁im": 4863,
      "▁ईसा": 4864,
      "▁జాబితా": 4865,
      "▁[ग": 4866,
      "▁[ल": 4867,
      "▁[భారతదేశ": 4868,
      "](https://en.wikipedia.org/South_Asian_": 4869,
      "hib": 4870,
      "esti": 4871,
      "](https://hi.wikipedia.org/न": 4872,
      "](https://hi.wikipedia.org/पाकिस्तान": 4873,
      "▁साल": 4874,
      "▁मौ": 4875,
      "▁India](https://en.wikipedia.org/G": 4876,
      "ootb": 4877,
      "▁influ": 4878,
      "raz": 4879,
      "राम": 4880,
      "law": 4881,
      "▁co": 4882,
      "](https://hi.wikipedia.org/भारत_के": 4883,
      "▁far": 4884,
      "▁Centre": 4885,
      "lief": 4886,
      "\n\nमुख्य": 4887,
      "▁Park": 4888,
      "hell": 4889,
      "states": 4890,
      "illa": 4891,
      "▁women": 4892,
      "▁పట్ట": 4893,
      "▁Man": 4894,
      "▁Research": 4895,
      "_की_": 4896,
      "▁**జాతీయ": 4897,
      "resent": 4898,
      "ర్\")": 4899,
      "भाज": 4900,
      "ंगाना": 4901,
      "ecu": 4902,
      "matic": 4903,
      "▁Gu": 4904,
      "architecture": 4905,
      "నిక": 4906,
      "astr": 4907,
      "▁1965": 4908,
      "ability": 4909,
      "ంగ్రె": 4910,
      "▁సభ": 4911,
      ".[[4": 4912,
      "▁forest": 4913,
      "▁उन": 4914,
      "ड़िया": 4915,
      "काता": 4916,
      "▁विस्त": 4917,
      "▁विदेश": 4918,
      ")\n\nThe": 4919,
      "▁इंडिया": 4920,
      "తాబ్": 4921,
      "ी](https://hi.wikipedia.org/द": 4922,
      "ंडोन": 4923,
      "aves": 4924,
      "arty": 4925,
      "▁ప్రపంచ": 4926,
      "▁ప్రభు": 4927,
      "▁राज्यक्षेत्र": 4928,
      "oreign": 4929,
      "ोलकाता": 4930,
      "▁क्षेत्रों": 4931,
      "ंध्र": 4932,
      "ock": 4933,
      "▁ఆసియా": 4934,
      "▁\"अंग्रेज़ी": 4935,
      "ompany": 4936,
      "ext": 4937,
      "▁[Government": 4938,
      "▁\"Re": 4939,
      "▁देश\")": 4940,
      "మ్రాజ్య": 4941,
      "athura": 4942,
      "▁[![A": 4943,
      "हरिया": 4944,
      "पुरम": 4945,
      "anta": 4946,
      "▁मेला\"),": 4947,
      "िशा": 4948,
      "▁\"Indo-": 4949,
      "గుజరా": 4950,
      "ंग्रेज़ी_भाषा": 4951,
      "](https://en.wikipedia.org/List_of_SAARC_summit": 4952,
      "ेरल": 4953,
      "ancis": 4954,
      "समिया": 4955,
      "▁Hinduism": 4956,
      "न्नई": 4957,
      "▁సామ్రాజ్యం\")": 4958,
      "बंधन": 4959,
      "▁पुरालेखित।,": 4960,
      "▁मानसून": 4961,
      "త్యేక": 4962,
      "రాష్ట్రపతి": 4963,
      "ప్ప": 4964,
      "awahar": 4965,
      "_और_संघ": 4966,
      "▁కాశ్మీ": 4967,
      "▁రాజవంశం": 4968,
      "▁when": 4969,
      "▁युग": 4970,
      "रक्षा": 4971,
      "▁स्वतंत्रता": 4972,
      "▁dispu": 4973,
      "तेलंगाना": 4974,
      "_के_आधार_पर_भारत_के_राज्यों_की_सूची": 4975,
      "▁చెంద": 4976,
      "▁ఆర్ధిక": 4977,
      "eserve": 4978,
      "चेन्नई": 4979,
      "▁बहुत": 4980,
      "▁स्थित": 4981,
      "oint": 4982,
      "पीठ": 4983,
      "▁స్థాన": 4984,
      "hasha": 4985,
      "▁निर्माण": 4986,
      "-4020": 4987,
      "ूर्ण": 4988,
      "తమిళనాడు": 4989,
      "क्सफोर्ड": 4990,
      "omason": 4991,
      "_Islands": 4992,
      "त्रिपुरा": 4993,
      "ప్రధానమంత్రి": 4994,
      "_BRICS_summit": 4995,
      "గణతంత్ర": 4996,
      "▁క్రీడ": 4997,
      "▁employ": 4998,
      "▁Persian": 4999,
      ":CS": 5000,
      "तेलुगू": 5001,
      "Provision": 5002,
      "भीमबेट": 5003,
      "overeign": 5004,
      "झारखंड": 5005,
      "▁ओर": 5006,
      "छत्तीसगढ़": 5007,
      "िंधु": 5008,
      "ఆఫ్ఘ": 5009,
      "శ్రీలంక": 5010,
      "షియా": 5011,
      "న్‌ఫ": 5012,
      "నేపాల్": 5013,
      "ब्बत": 5014,
      "▁[अंग्रेज़ी](https://hi.wikipedia.org/अंग्रेज़ी_भाषा": 5015,
      "▁చెయ్యబడింది.": 5016,
      "ymbols": 5017,
      "▁कुछ": 5018,
      "▁स्थाप": 5019,
      "icobar": 5020,
      "▁summits\")": 5021,
      "ZvaGuaJIJgoC&pg=PA": 5022,
      "च्छ": 5023,
      "ootball": 5024,
      "తాబ్ద": 5025,
      "](https://en.wikipedia.org/List_of_SAARC_summits": 5026,
      "awaharl": 5027,
      "भीमबेटका": 5028,
      "-k": 5029,
      "-y": 5030,
      "Ag": 5031,
      "Ethnologue": 5032,
      "Vu": 5033,
      "ZVu": 5034,
      "_24": 5035,
      "a)": 5036,
      "bb": 5037,
      "kZVu": 5038,
      "nc": 5039,
      "nominal": 5040,
      "que": 5041,
      "arath": 5042,
      "208": 5043,
      "reen": 5044,
      "lem": 5045,
      "▁pop": 5046,
      "▁mi": 5047,
      "▁Territory": 5048,
      "266": 5049,
      "index": 5050,
      "▁H.": 5051,
      "-30": 5052,
      "archive.org/detail": 5053,
      "iance": 5054,
      "\")\n\n[![](https://upload.wikimedia.org/wikipedia/commons/thumb/": 5055,
      "▁2024.": 5056,
      "langoff-1": 5057,
      "archive.org/details/": 5058,
      "/files/": 5059,
      "2nd": 5060,
      "318": 5061,
      "4).": 5062,
      "7).": 5063,
      "AS": 5064,
      "_languages": 5065,
      "i,": 5066,
      "ime": 5067,
      "इन": 5068,
      "एन": 5069,
      "ङ्": 5070,
      "पार": 5071,
      "फा": 5072,
      "मे": 5073,
      "सभ": 5074,
      "्म": 5075,
      "▁°": 5076,
      "▁Qu": 5077,
      "▁[य": 5078,
      "▁[ह": 5079,
      "▁\"य": 5080,
      "erg": 5081,
      "reed": 5082,
      "report": 5083,
      "▁मन": 5084,
      "▁मह": 5085,
      "ets": 5086,
      "▁culture": 5087,
      "urity": 5088,
      "▁M.": 5089,
      ".\n10": 5090,
      "▁Rothermund": 5091,
      "-0)\n": 5092,
      "_(भारत)": 5093,
      "267": 5094,
      "▁नव": 5095,
      "_साम": 5096,
      "▁व्या": 5097,
      "aryana": 5098,
      "▁name": 5099,
      "27)": 5100,
      "407": 5101,
      "160": 5102,
      "▁[Ministry": 5103,
      "▁\"British": 5104,
      "जापान": 5105,
      "_and_depend": 5106,
      "hmed": 5107,
      "MetcalfMetcalf2012": 5108,
      "34)": 5109,
      "feb": 5110,
      "▁राजधान": 5111,
      "article": 5112,
      "▁along": 5113,
      "▁साम्राज्य\")": 5114,
      "धुनिक": 5115,
      "apita": 5116,
      "▁Plateau": 5117,
      "_साम्राज्य": 5118,
      "-an": 5119,
      "52": 5120,
      "577": 5121,
      "9]](https://en.wikipedia.org/India#cite_note-": 5122,
      "MC": 5123,
      "MID": 5124,
      "cise": 5125,
      "code": 5126,
      "casting": 5127,
      "hu": 5128,
      "had": 5129,
      "hol": 5130,
      "ij": 5131,
      "pture": 5132,
      "rust": 5133,
      "s_in_India": 5134,
      "ors": 5135,
      "pecial": 5136,
      "▁[U": 5137,
      "inance": 5138,
      "anat": 5139,
      "th_BRICS_summit": 5140,
      "arlo": 5141,
      "artition": 5142,
      "ala": 5143,
      "aland": 5144,
      "alit": 5145,
      "alli": 5146,
      "es.": 5147,
      "▁(199": 5148,
      "▁second": 5149,
      "▁caus": 5150,
      "[[14": 5151,
      "▁Civil": 5152,
      "agari": 5153,
      "▁tree": 5154,
      "▁bu": 5155,
      "loth": 5156,
      "adras": 5157,
      "_of_2011": 5158,
      "▁This": 5159,
      "▁2014.": 5160,
      "ema": 5161,
      "emographic": 5162,
      "▁B.;": 5163,
      "iger": 5164,
      "hatt": 5165,
      "▁Nehru": 5166,
      "oples": 5167,
      "▁report": 5168,
      "](https://en.wikipedia.org/India#CITEREFM": 5169,
      "s](https://en.wikipedia.org/A": 5170,
      "_Paper": 5171,
      "utom": 5172,
      ".gov.in": 5173,
      "iley": 5174,
      "opulation_T": 5175,
      "ociation": 5176,
      "ockey": 5177,
      "ikhism": 5178,
      "ibcode": 5179,
      "ender": 5180,
      "▁[Dyson": 5181,
      "674": 5182,
      "_1_of_2011": 5183,
      "▁1994": 5184,
      "▁regions": 5185,
      "▁languages\")": 5186,
      "o-operation": 5187,
      "▁Islands\")": 5188,
      "_Lank": 5189,
      "gypt": 5190,
      "kingdom": 5191,
      "phere": 5192,
      "uisine": 5193,
      "▁Press](https://en.wikipedia.org/C": 5194,
      "odiversity": 5195,
      "struc": 5196,
      "strument": 5197,
      "▁(identifier)\"):[10.": 5198,
      "ighth": 5199,
      "vanagari": 5200,
      "disha": 5201,
      "al_Population_T": 5202,
      "JPG": 5203,
      "tudies": 5204,
      "emocracy": 5205,
      "roadcasting": 5206,
      "entral_": 5207,
      "otals_Paper": 5208,
      "Provisional_Population_T": 5209,
      "_1_of_2011_India": 5210,
      "otals_Paper_1_of_2011_India": 5211,
      "Provisional_Population_Totals_Paper_1_of_2011_India": 5212,
      "-r": 5213,
      "-50": 5214,
      "-29": 5215,
      "/C": 5216,
      "/F": 5217,
      "/s": 5218,
      "123": 5219,
      "75": 5220,
      "AG": 5221,
      "EX": 5222,
      "Th": 5223,
      "\\*": 5224,
      "_2": 5225,
      "_श": 5226,
      "_राज्य": 5227,
      "_धर्म": 5228,
      "_ప్రదేశ్": 5229,
      "ate_": 5230,
      "ds": 5231,
      "eb": 5232,
      "ned": 5233,
      "y=": 5234,
      "ँची": 5235,
      "टना": 5236,
      "तम": 5237,
      "तन्त": 5238,
      "द्वार": 5239,
      "धन": 5240,
      "भग": 5241,
      "मरी": 5242,
      "स्व": 5243,
      "ेड": 5244,
      "ोला": 5245,
      "ం.": 5246,
      "ఉప": 5247,
      "కొ": 5248,
      "కేంద్రపాలిత": 5249,
      "జె": 5250,
      "ఢ్": 5251,
      "నాల": 5252,
      "లే": 5253,
      "ళు": 5254,
      "ౌద్ధ": 5255,
      "▁औ": 5256,
      "▁భా": 5257,
      "▁भाग": 5258,
      "tter": 5259,
      "▁[వి": 5260,
      "▁\"ग": 5261,
      "](https://hi.wikipedia.org/दक्षिण": 5262,
      "](https://hi.wikipedia.org/तमिल": 5263,
      "▁काल": 5264,
      "▁कॉंग्रेस": 5265,
      "्रय": 5266,
      "▁सित": 5267,
      "▁समाज": 5268,
      "▁सभ्यता": 5269,
      "▁मई": 5270,
      "▁मिल": 5271,
      "्यान": 5272,
      "ेंगल": 5273,
      "](https://hi.wikipedia.org/भारत_के_राज्य": 5274,
      "adhya": 5275,
      "ాలీ": 5276,
      "▁में,": 5277,
      "▁अभ": 5278,
      "109": 5279,
      "▁जब": 5280,
      "▁2012.": 5281,
      "ర్చ": 5282,
      "भाई": 5283,
      "_से": 5284,
      "28.": 5285,
      "ాలు?action=edit&redlink=1": 5286,
      "_Act": 5287,
      "_Affair": 5288,
      "▁गई": 5289,
      "▁Fund": 5290,
      "▁शहर": 5291,
      "▁[मध्य": 5292,
      "166": 5293,
      "harm": 5294,
      "]](https://hi.wikipedia.org/भारत#cite_note-pib": 5295,
      "-95": 5296,
      "_Pro": 5297,
      "म्भ": 5298,
      "▁ले": 5299,
      "▁लिये": 5300,
      "_के_अन": 5301,
      "संधान": 5302,
      "–సా.శ.18": 5303,
      "▁అత్య": 5304,
      "▁यूनिवर्सिट": 5305,
      "ंग्रेज": 5306,
      "▁ఆధ": 5307,
      "మాఖ్య": 5308,
      "వాణా": 5309,
      "▁जनजाति": 5310,
      "ంటి": 5311,
      "रुणा": 5312,
      "డ్డ": 5313,
      "▁జనాభా": 5314,
      "దక్షిణాసియా": 5315,
      "▁గల": 5316,
      "▁భారతదేశంలో": 5317,
      "▁control": 5318,
      "యునై": 5319,
      "ोर्ट": 5320,
      "ష్ణ": 5321,
      "_చరిత్ర?action=edit&redlink=1": 5322,
      "वादी": 5323,
      "▁ప్రాంతాలు": 5324,
      "▁రాష్ట్రాలు,": 5325,
      "వర్గం": 5326,
      "_మతము": 5327,
      "▁మొద": 5328,
      "धिराज्य": 5329,
      "▁पार्टी": 5330,
      ".php?": 5331,
      "▁(2018),": 5332,
      "हायता": 5333,
      "_देशों_की_सूची": 5334,
      "hristian": 5335,
      "ताजमह": 5336,
      "rishnan": 5337,
      "क्षरता": 5338,
      "▁[पाकिस्तान](https://hi.wikipedia.org/पाकिस्तान": 5339,
      "nominal)": 5340,
      "तन्त्र": 5341,
      "ेंगलुरु": 5342,
      "_के_अनुसार": 5343,
      "▁यूनिवर्सिटी": 5344,
      "యునైటెడ్": 5345,
      "3).": 5346,
      "41": 5347,
      "S.": 5348,
      "Wolpert": 5349,
      "day": 5350,
      "hut": 5351,
      "s:": 5352,
      "s18": 5353,
      "▁z": 5354,
      "▁old": 5355,
      "▁[World": 5356,
      "en,": 5357,
      "▁\"19": 5358,
      "ancy": 5359,
      "id.": 5360,
      "▁sector": 5361,
      "▁Central": 5362,
      "liest": 5363,
      "0000": 5364,
      "▁only": 5365,
      "▁2001": 5366,
      "▁near": 5367,
      "▁[Singh": 5368,
      "▁wide": 5369,
      ".org/wiki/": 5370,
      "▁[British": 5371,
      "▁def": 5372,
      "▁\"Government": 5373,
      "▁produc": 5374,
      "▁life": 5375,
      "▁[Kulke": 5376,
      "_130": 5377,
      "overnment_of_India": 5378,
      "▁use": 5379,
      "ureau": 5380,
      "▁composed": 5381,
      "dustrial": 5382,
      ".html).": 5383,
      "catal": 5384,
      "troduction": 5385,
      "ouncil": 5386,
      "-logo": 5387,
      "5_": 5388,
      "F)": 5389,
      "IF": 5390,
      "IUCN": 5391,
      "Language": 5392,
      "_9": 5393,
      "_g": 5394,
      "_v": 5395,
      "_pe": 5396,
      "_एशिया": 5397,
      "ax": 5398,
      "ather": 5399,
      "cover": 5400,
      "cog": 5401,
      "eat": 5402,
      "epend": 5403,
      "jan": 5404,
      "lant": 5405,
      "uf": 5406,
      "रस": 5407,
      "ेक": 5408,
      "–4": 5409,
      "–24": 5410,
      "▁।": 5411,
      "▁५": 5412,
      "▁ला": 5413,
      "orn": 5414,
      "orpor": 5415,
      "▁[f": 5416,
      "▁[प्र": 5417,
      "▁[तमिल": 5418,
      "▁\"ड": 5419,
      "▁\"ह": 5420,
      "him": 5421,
      "aro": 5422,
      "▁कम": 5423,
      "anda": 5424,
      "▁सह": 5425,
      "▁(2014": 5426,
      "asi": 5427,
      "ashi": 5428,
      "▁India](https://en.wikipedia.org/C": 5429,
      "raj": 5430,
      "rahm": 5431,
      "▁colle": 5432,
      "र्श": 5433,
      "▁fam": 5434,
      "▁Cooperation": 5435,
      "adwe": 5436,
      "याधी": 5437,
      "▁maint": 5438,
      "comm": 5439,
      "fir": 5440,
      "ोंक": 5441,
      "▁work": 5442,
      "]](https://en.wikipedia.org/India#cite_note-Combined": 5443,
      ".\n3": 5444,
      "▁att": 5445,
      "▁B.": 5446,
      "ments": 5447,
      "ign_": 5448,
      "igarh": 5449,
      "irth": 5450,
      "▁[↑](https://en.wikipedia.org/India#cite_ref-4": 5451,
      "eccan": 5452,
      "ayback": 5453,
      "hap": 5454,
      "▁Games": 5455,
      "▁व्यवस्था": 5456,
      "▁these": 5457,
      "▁through": 5458,
      "▁religion": 5459,
      "▁hum": 5460,
      "▁Journal": 5461,
      "▁1960": 5462,
      "s](https://en.wikipedia.org/S": 5463,
      ".[[40": 5464,
      "AAJ": 5465,
      "▁growth": 5466,
      ")\n\n-": 5467,
      "▁\"Mughal": 5468,
      "त्ति": 5469,
      "▁[↑](https://en.wikipedia.org/India#cite_ref-FOOTNOTEB": 5470,
      "-53": 5471,
      "▁within": 5472,
      "-107-0": 5473,
      "▁\"Template:": 5474,
      "▁language\"),": 5475,
      "49-2": 5476,
      "issing": 5477,
      "aking": 5478,
      "\")\n\n##": 5479,
      "](https://en.wikipedia.org/National_": 5480,
      "handigarh": 5481,
      "timesofindia": 5482,
      "ashmiri": 5483,
      "](https://en.wikipedia.org/Indo-": 5484,
      "AsherTalbot20": 5485,
      "_Force": 5486,
      "▁ago": 5487,
      "india.gov.in/india-glance/": 5488,
      "ynth": 5489,
      "ughal_": 5490,
      "श्मीरी": 5491,
      "8/8": 5492,
      "म्बई": 5493,
      "attle": 5494,
      "Dyson2018),": 5495,
      "ographical": 5496,
      "कालीन": 5497,
      "ediff": 5498,
      "न्तर": 5499,
      "rishna": 5500,
      "arliamentary": 5501,
      "णिपुरी": 5502,
      "▁Buddhist": 5503,
      "▁2025.": 5504,
      "ote:": 5505,
      ")\n\n###": 5506,
      "4/4": 5507,
      "ilgrim": 5508,
      "▁groups": 5509,
      "merican": 5510,
      "ennai": 5511,
      "ivisions": 5512,
      "achine": 5513,
      "▁2018](https://en.wikipedia.org/India#CITEREFDyson2018),": 5514,
      "owever,": 5515,
      "ological": 5516,
      "लयालम": 5517,
      "प्राचीन": 5518,
      "ynasty": 5519,
      "](https://en.wikipedia.org/History_of_": 5520,
      "culpture": 5521,
      "akshadwe": 5522,
      "हित्य": 5523,
      "▁\"पाकिस्तान\")": 5524,
      "▁नेतृत्व": 5525,
      "▁Quote:": 5526,
      "hattis": 5527,
      "याधीश": 5528,
      "timesofindia.indiatimes.com/": 5529,
      "akshadweep": 5530,
      "2-": 5531,
      "350": 5532,
      "Alig": 5533,
      "PO": 5534,
      "_h": 5535,
      "_10": 5536,
      "aut": 5537,
      "lue": 5538,
      "tw": 5539,
      "ues": 5540,
      "vent": 5541,
      "▁(b": 5542,
      "▁des": 5543,
      "rest": 5544,
      ".jpe": 5545,
      "50th": 5546,
      "▁religious": 5547,
      "▁Incre": 5548,
      "709": 5549,
      "emplate_": 5550,
      "dex": 5551,
      "▁[978-0-521": 5552,
      "_population": 5553,
      "1):": 5554,
      "html).": 5555,
      "on-Alig": 5556,
      ".nlm": 5557,
      "bi.nlm": 5558,
      ".nih": 5559,
      "mritsar": 5560,
      "kZVuDwAAQBAJ&pg=PA": 5561,
      "ncbi.nlm": 5562,
      "on-Aligned": 5563,
      "ncbi.nlm.nih": 5564,
      ",NGDP": 5565,
      ".0": 5566,
      "4,": 5567,
      ":EditPage/": 5568,
      "_న": 5569,
      "ek": 5570,
      "ece": 5571,
      "most": 5572,
      "ption": 5573,
      "ंतर": 5574,
      "अरब": 5575,
      "ईल": 5576,
      "घर": 5577,
      "घालय": 5578,
      "चें": 5579,
      "तुल": 5580,
      "थियार": 5581,
      "दि": 5582,
      "मर": 5583,
      "ल](https://hi.wikipedia.org/": 5584,
      "वेश": 5585,
      "वैद": 5586,
      "िबंध": 5587,
      "ुम्बई": 5588,
      "ृष": 5589,
      "ृष्ण": 5590,
      "ेन्द्र": 5591,
      "ोट": 5592,
      "ం,": 5593,
      "ఖండ": 5594,
      "టిక": 5595,
      "డే": 5596,
      "ద్య": 5597,
      "మార్": 5598,
      "మాలయ": 5599,
      "లలో": 5600,
      "లకు": 5601,
      "ళ్": 5602,
      "వ](https://te.wikipedia.org/": 5603,
      "ానికి": 5604,
      "ాళు": 5605,
      "ీర్": 5606,
      "▁,": 5607,
      "▁భ": 5608,
      "▁36": 5609,
      "▁యు": 5610,
      "▁[गुजरात": 5611,
      "▁\"వి": 5612,
      "2025": 5613,
      "ारो": 5614,
      "ारम्भ": 5615,
      "](https://hi.wikipedia.org/ज": 5616,
      "](https://hi.wikipedia.org/द": 5617,
      "▁किन": 5618,
      "्रह": 5619,
      "lative": 5620,
      "ेंस": 5621,
      "▁Al": 5622,
      "र्क": 5623,
      "र्ट": 5624,
      "र्त": 5625,
      "ాలో": 5626,
      "▁अमेर": 5627,
      "▁अलग": 5628,
      "▁अर्थव्यवस्था": 5629,
      "స్వ": 5630,
      "స్లా": 5631,
      "वियत": 5632,
      "▁పాల": 5633,
      "▁जिन": 5634,
      "ालैंड": 5635,
      "▁देव": 5636,
      "▁दोन": 5637,
      "న్\")": 5638,
      "भाजन": 5639,
      "▁बंगाल": 5640,
      "▁बड़े": 5641,
      "▁प्रस": 5642,
      "▁प्रधानमंत्री": 5643,
      "▁सेवा": 5644,
      "▁काम": 5645,
      "▁Gujarat": 5646,
      "▁కార": 5647,
      "▁కలి": 5648,
      "▁आक": 5649,
      "రిహ": 5650,
      "రికత": 5651,
      "క్నాల": 5652,
      "ంది": 5653,
      "నిమా": 5654,
      "▁సంగీతం": 5655,
      "270": 5656,
      "▁परि": 5657,
      "▁शा": 5658,
      "▁संस्थान": 5659,
      "▁చి": 5660,
      "](https://hi.wikipedia.org/भारत#cite_ref-pib": 5661,
      "](https://hi.wikipedia.org/भारत#cite_ref-langoff": 5662,
      "]](https://hi.wikipedia.org/भारत#cite_note-langoff-1": 5663,
      "ियन": 5664,
      "संबर": 5665,
      "ी](https://hi.wikipedia.org/म": 5666,
      "सां": 5667,
      "▁रक्षा": 5668,
      "ndhra": 5669,
      "-7mar": 5670,
      "ులు\"),": 5671,
      "▁सागर": 5672,
      "–సా.శ.13": 5673,
      "▁అయ": 5674,
      "▁\"मध्य": 5675,
      "▁ప్రధాన": 5676,
      "हाँ": 5677,
      "ोली": 5678,
      "ప్రదాయ": 5679,
      "ప్రత్యేక": 5680,
      "ద్వీ": 5681,
      "▁ఉప": 5682,
      "aith": 5683,
      "ंधी": 5684,
      "](https://hi.wikipedia.org/मध्य": 5685,
      "▁రె": 5686,
      "issile": 5687,
      "_GDP": 5688,
      "న్నడ": 5689,
      "द्यालय": 5690,
      "ంటు": 5691,
      "Asher2006": 5692,
      "AsherAsher2006": 5693,
      "गुप्त": 5694,
      "▁దేశంలో": 5695,
      "िवस": 5696,
      "ాయి.": 5697,
      "onstitutional": 5698,
      "కాశ్మీ": 5699,
      "](https://hi.wikipedia.org/पंजाब": 5700,
      "](https://hi.wikipedia.org/पश्चिम": 5701,
      "ంధు": 5702,
      "Stein1998),": 5703,
      "Singh2009),": 5704,
      "ों_की_सूची?action=edit&redlink=1": 5705,
      "आईएस": 5706,
      "▁CITEREFStein1998": 5707,
      "▁CITEREFSingh2009": 5708,
      "](https://hi.wikipedia.org/भारत#CITEREFStein1998),": 5709,
      "](https://hi.wikipedia.org/भारत#CITEREFSingh2009),": 5710,
      "ద్ధం": 5711,
      "ద్ధి": 5712,
      "ాల్దీవ": 5713,
      "చ్చే": 5714,
      "▁शासित": 5715,
      "वर्त": 5716,
      "▁थे": 5717,
      "దక్షిణ_": 5718,
      "▁पाकिस्तान": 5719,
      "▁కాంగ్రె": 5720,
      "धीरे": 5721,
      "122]](https://hi.wikipedia.org/भारत#cite_note-langoff-1": 5722,
      "▁मंदिर\")": 5723,
      "టెక్నాల": 5724,
      "नागालैंड": 5725,
      "హిమాలయ": 5726,
      "▁वर्षों": 5727,
      "लोकसभा": 5728,
      "▁2009](https://hi.wikipedia.org/भारत#CITEREFSingh2009),": 5729,
      "रोहर": 5730,
      "View": 5731,
      "▁లే": 5732,
      "త్తరా": 5733,
      "నాగరికత": 5734,
      "_from": 5735,
      "క్కువ": 5736,
      "▁दृश्य": 5737,
      "క్‌సభ": 5738,
      "▁శాస్త్ర": 5739,
      "▁सिनेमा\"),": 5740,
      "tiger": 5741,
      "ांति": 5742,
      "ెలుగు": 5743,
      "▁होती": 5744,
      "▁भूमिका": 5745,
      "▁1998](https://hi.wikipedia.org/भारत#CITEREFStein1998),": 5746,
      "▁వచ్చింది.": 5747,
      "्लेट": 5748,
      "▁स्तर": 5749,
      "▁दिसंबर": 5750,
      "_ప్రాంత": 5751,
      "uthority": 5752,
      "worldbank.org/": 5753,
      "भाजपा": 5754,
      "ర్చ:": 5755,
      "रुणाचल": 5756,
      "వర్గం:Harv": 5757,
      ":EditPage/మూస:": 5758,
      "चेंज": 5759,
      "वैदिक": 5760,
      "िबंधीय": 5761,
      "ాళుక్య": 5762,
      "](https://hi.wikipedia.org/भारत#cite_ref-langoff_130": 5763,
      "-7mar2011": 5764,
      "ప్రత్యేక:EditPage/మూస:": 5765,
      "_GDP_(": 5766,
      "122]](https://hi.wikipedia.org/भारत#cite_note-langoff-130)": 5767,
      "టెక్నాలజీ": 5768,
      "*](http://": 5769,
      "-the": 5770,
      ".](https://upload.wikimedia.org/wikipedia/commons/thumb/": 5771,
      ".\")\n\n": 5772,
      ".uk": 5773,
      "1]](https://en.wikipedia.org/India#cite_note-": 5774,
      "221": 5775,
      "3]](https://en.wikipedia.org/India#cite_note-": 5776,
      "4]](https://en.wikipedia.org/India#cite_note-": 5777,
      "677": 5778,
      "7%": 5779,
      "7C": 5780,
      "7-8": 5781,
      "9).": 5782,
      "Allchin": 5783,
      "Census": 5784,
      "ES": 5785,
      "Fr": 5786,
      "HA": 5787,
      "Petraglia": 5788,
      "Se": 5789,
      "_&": 5790,
      "_with": 5791,
      "bour": 5792,
      "baki": 5793,
      "business": 5794,
      "business/": 5795,
      "cu": 5796,
      "ctive": 5797,
      "dic": 5798,
      "ham": 5799,
      "ka": 5800,
      "khand": 5801,
      "lom": 5802,
      "ncient": 5803,
      "rang": 5804,
      "subcontinent": 5805,
      "tain": 5806,
      "vil": 5807,
      "wana": 5808,
      "yer": 5809,
      "▁—": 5810,
      "▁ge": 5811,
      "▁eng": 5812,
      "▁6.": 5813,
      "orship": 5814,
      "ened": 5815,
      "ences": 5816,
      "tection": 5817,
      "▁\"World": 5818,
      "▁\"Special:BookSources/978-81": 5819,
      "](https://en.wikipedia.org/World": 5820,
      "](https://en.wikipedia.org/Special:BookSources/978-81": 5821,
      "erved": 5822,
      "erman": 5823,
      "ester": 5824,
      "ichell": 5825,
      "▁India*.": 5826,
      "rior": 5827,
      "▁coast": 5828,
      "▁As": 5829,
      "uss": 5830,
      "ango": 5831,
      "lite": 5832,
      "\n\n|": 5833,
      "urry": 5834,
      "loc": 5835,
      "lock": 5836,
      "umar": 5837,
      "▁Punjab": 5838,
      "▁main": 5839,
      "▁market": 5840,
      "very": 5841,
      "iland": 5842,
      "▁Michael": 5843,
      ".\n11": 5844,
      "oln": 5845,
      "▁Bi": 5846,
      "▁By": 5847,
      "igration": 5848,
      "india.com/": 5849,
      "hai": 5850,
      "115": 5851,
      "-433": 5852,
      "▁third": 5853,
      "-85": 5854,
      "▁[\"G": 5855,
      "▁International": 5856,
      "▁\"Cambridge": 5857,
      "oss": 5858,
      "harkhand": 5859,
      "▁[Cambridge": 5860,
      "otal": 5861,
      "33-7": 5862,
      "▁[↑](https://en.wikipedia.org/India#cite_ref-FOOTNOTEStein2010": 5863,
      "▁before": 5864,
      "a_Empire": 5865,
      "](https://en.wikipedia.org/British": 5866,
      "ommonwealth": 5867,
      "arden": 5868,
      "](https://en.wikipedia.org/Template:": 5869,
      "▁range": 5870,
      "▁like": 5871,
      "ondon": 5872,
      "▁villa": 5873,
      "ambridge_University_Press": 5874,
      "erves": 5875,
      "1971": 5876,
      "ongress2004": 5877,
      "▁contrib": 5878,
      "mitt": 5879,
      "_2024": 5880,
      "unjabi": 5881,
      "ollingham": 5882,
      "dependence": 5883,
      "▁especial": 5884,
      "▁including": 5885,
      "cheduled": 5886,
      "▁People": 5887,
      "▁Registrar": 5888,
      "ritsch": 5889,
      "▁[India](https://en.wikipedia.org/India": 5890,
      "Development": 5891,
      "6]](https://en.wikipedia.org/India#cite_note-vatsyayan-lord": 5892,
      "Pakistani": 5893,
      "vatsyayan-lord_4": 5894,
      "nergy": 5895,
      ".htm)": 5896,
      "▁[978-81": 5897,
      "▁Affairs": 5898,
      "violence": 5899,
      "▁addition": 5900,
      "undamental": 5901,
      "olonial": 5902,
      "▁Press](https://en.wikipedia.org/Cambridge_University_Press": 5903,
      "hutan": 5904,
      "first": 5905,
      "PetragliaAllchin": 5906,
      "▁especially": 5907,
      "6]](https://en.wikipedia.org/India#cite_note-vatsyayan-lord-433": 5908,
      "09": 5909,
      "314": 5910,
      "Con": 5911,
      "M50th": 5912,
      "National": 5913,
      "NCL": 5914,
      "_0": 5915,
      "content": 5916,
      "equality": 5917,
      "kb": 5918,
      "m2": 5919,
      "p)": 5920,
      "round": 5921,
      "ईस्ट": 5922,
      "थम": 5923,
      "हम": 5924,
      "ुक": 5925,
      "▁`": 5926,
      "▁46": 5927,
      "▁[राज्य": 5928,
      "tex": 5929,
      "▁पै": 5930,
      "▁पश्चिम": 5931,
      "▁Chinese": 5932,
      "agen": 5933,
      "10)": 5934,
      "▁Muslim": 5935,
      ".\n14": 5936,
      "न्स": 5937,
      "▁Dictionary": 5938,
      "_सा": 5939,
      "india-": 5940,
      "▁Health": 5941,
      "▁आन्द": 5942,
      "▁[\"P": 5943,
      "▁गठ": 5944,
      "rief": 5945,
      "%2C_India": 5946,
      "▁\"ब्रिटिश": 5947,
      "▁चार": 5948,
      "%20A": 5949,
      "न्नड़": 5950,
      "isease": 5951,
      "त्पत्ति": 5952,
      "शासित_प्रदेश": 5953,
      "_न्या": 5954,
      "▁घाटी": 5955,
      "वार्ता:": 5956,
      "Report.pdf)": 5957,
      "▁वार्ता:": 5958,
      "nclm.nic.in/shared/linkimages/NCL": 5959,
      "▁(2014).": 5960,
      "M50thReport.pdf)": 5961,
      "nclm.nic.in/shared/linkimages/NCLM50thReport.pdf)": 5962,
      "-i": 5963,
      "/).": 5964,
      "2),": 5965,
      "226": 5966,
      "9/": 5967,
      ";[[": 5968,
      "Hindustan": 5969,
      "Raj": 5970,
      "_15": 5971,
      "aul": 5972,
      "hindu": 5973,
      "t:": 5974,
      "y-": 5975,
      "▁\"U": 5976,
      "Indian_": 5977,
      "▁prom": 5978,
      "-138": 5979,
      "▁contin": 5980,
      "▁Ad": 5981,
      "ator": 5982,
      "atab": 5983,
      "ata_": 5984,
      "▁Society": 5985,
      "loped": 5986,
      "▁Mar": 5987,
      "▁Minister": 5988,
      "▁Te": 5989,
      "▁Ear": 5990,
      "bert": 5991,
      "opland": 5992,
      "▁2007.": 5993,
      "▁house": 5994,
      "▁1962": 5995,
      "▁nation": 5996,
      "ody": 5997,
      "▁[New": 5998,
      "onstitution_of_India": 5999,
      "▁Programme": 6000,
      "jection": 6001,
      "IMFWEO.IN-": 6002,
      "▁different": 6003,
      "▁estimate": 6004,
      "hmedabad": 6005,
      "Wolpert2003": 6006,
      "\"](http://": 6007,
      "-w": 6008,
      ".పూ.": 6009,
      "/b": 6010,
      "125": 6011,
      "1-4": 6012,
      "3%": 6013,
      "Ar": 6014,
      "Collingham": 6015,
      "ST": 6016,
      "Tarlo": 6017,
      "_30": 6018,
      "_2004": 6019,
      "ative": 6020,
      "der": 6021,
      "global": 6022,
      "hat": 6023,
      "janta": 6024,
      "men": 6025,
      "odia": 6026,
      "ren": 6027,
      "rune": 6028,
      "tate": 6029,
      "via": 6030,
      "yth": 6031,
      "इप्र": 6032,
      "ईद": 6033,
      "ऍथ": 6034,
      "ऑक्सफोर्ड": 6035,
      "ओआई": 6036,
      "ख़": 6037,
      "गध": 6038,
      "जपुरी": 6039,
      "जिस्ट": 6040,
      "ताल": 6041,
      "दल": 6042,
      "दार": 6043,
      "दान": 6044,
      "नोल": 6045,
      "पीय": 6046,
      "फ्रां": 6047,
      "बी": 6048,
      "बू": 6049,
      "बार": 6050,
      "मत": 6051,
      "यपुर": 6052,
      "रिया": 6053,
      "ल्ल": 6054,
      "शत": 6055,
      "शोक": 6056,
      "हें": 6057,
      "ीक": 6058,
      "ुरा": 6059,
      "ूबर": 6060,
      "ेघालय": 6061,
      "ॉग": 6062,
      "ంతం": 6063,
      "ఆగ": 6064,
      "కళ": 6065,
      "ఖండ్": 6066,
      "గ్": 6067,
      "గిన": 6068,
      "గఢ్": 6069,
      "జో": 6070,
      "ట్ర": 6071,
      "తెలుగు": 6072,
      "ద్రా": 6073,
      "పద": 6074,
      "భి": 6075,
      "యో": 6076,
      "లక్ష": 6077,
      "వర": 6078,
      "శో": 6079,
      "షా": 6080,
      "హు": 6081,
      "హార్": 6082,
      "హాయ": 6083,
      "ాష్ట్ర": 6084,
      "ీక": 6085,
      "ీహార్": 6086,
      "ుల": 6087,
      "ుల్": 6088,
      "ోల్": 6089,
      "ోత్స": 6090,
      "ౌర్య": 6091,
      "▁रा": 6092,
      "▁ve": 6093,
      "▁ना": 6094,
      "▁hist": 6095,
      "▁[श": 6096,
      "▁[హ": 6097,
      "▁\"హ": 6098,
      "▁\"साँच": 6099,
      "▁\"साँचा:": 6100,
      "▁\"ఢిల్లీ": 6101,
      "ino-": 6102,
      "inema": 6103,
      "an,": 6104,
      "an-": 6105,
      "tile": 6106,
      "hir": 6107,
      "eri": 6108,
      "araj": 6109,
      "](https://hi.wikipedia.org/ग": 6110,
      "](https://hi.wikipedia.org/हिन्द": 6111,
      "](https://hi.wikipedia.org/साँच": 6112,
      "](https://hi.wikipedia.org/साँचा:": 6113,
      "reater": 6114,
      "्रार": 6115,
      "ed,": 6116,
      "ederal": 6117,
      "▁सूच": 6118,
      "▁सीमा": 6119,
      "▁(क": 6120,
      "▁(ed.).": 6121,
      "asthan": 6122,
      "▁मन्दिर": 6123,
      "्यूरो": 6124,
      "్రూ": 6125,
      "](https://te.wikipedia.org/సి": 6126,
      "रात": 6127,
      "▁पड़": 6128,
      "▁प्लेट": 6129,
      "▁school": 6130,
      "-01": 6131,
      "▁political": 6132,
      "ries/": 6133,
      "ानगर": 6134,
      "etry": 6135,
      "ingap": 6136,
      "▁Asher": 6137,
      "▁Agency": 6138,
      "amy": 6139,
      "ature": 6140,
      "्तु": 6141,
      "▁Sabha": 6142,
      "▁हाला": 6143,
      "▁हथियार": 6144,
      "▁fol": 6145,
      "▁four": 6146,
      "acmil": 6147,
      "angered": 6148,
      "urk": 6149,
      "uran": 6150,
      "िकी": 6151,
      "ాలా": 6152,
      "ాలలో": 6153,
      "్యం": 6154,
      "▁would": 6155,
      "Southeast": 6156,
      "▁Temple": 6157,
      "▁ज़": 6158,
      "▁Routledge": 6159,
      "ालर": 6160,
      "ately": 6161,
      "ర్ణా": 6162,
      "ర్మే": 6163,
      "भाष": 6164,
      "igved": 6165,
      "▁बार": 6166,
      "▁बने": 6167,
      "▁बड़ा": 6168,
      "तिब्बत": 6169,
      "▁नौसेना": 6170,
      "23.": 6171,
      "indhi": 6172,
      "_सूचना": 6173,
      "्टॉक": 6174,
      "▁*India": 6175,
      "లోక్‌సభ": 6176,
      "▁led": 6177,
      "28)": 6178,
      "_in_New": 6179,
      "hailand": 6180,
      "▁Greek": 6181,
      "upt": 6182,
      "upreme": 6183,
      "▁N.": 6184,
      "▁Nicobar": 6185,
      "▁वाल": 6186,
      "▁वृद्ध": 6187,
      "bercu": 6188,
      "क्षण": 6189,
      "क्षद्वीप": 6190,
      "-345": 6191,
      "ాలు\n\n": 6192,
      "▁వంశ": 6193,
      "▁relations": 6194,
      "_A7C": 6195,
      "थाईल": 6196,
      "s](https://en.wikipedia.org/B": 6197,
      "]](https://en.wikipedia.org/India#cite_note-FOOTNOTEStein2010": 6198,
      "▁[महाराष्ट्र": 6199,
      "osphere": 6200,
      "_महासागर": 6201,
      "▁gen": 6202,
      "ండర్": 6203,
      "कांक": 6204,
      "▁Organization": 6205,
      "▁विज्ञान": 6206,
      "ountries/": 6207,
      "▁Languages": 6208,
      "हिमालय": 6209,
      "_Pradesh": 6210,
      "▁लिया": 6211,
      "](https://books.google.com/books?id=3TRtDwAAQBAJ&pg=PA": 6212,
      "▁[Central": 6213,
      "aph": 6214,
      "ियान": 6215,
      "ngineering": 6216,
      "త్మా": 6217,
      "▁[↑](https://en.wikipedia.org/India#cite_ref-FOOTNOTEM": 6218,
      "ंडमान": 6219,
      "▁అతి": 6220,
      "▁\"महाराष्ट्र": 6221,
      "▁ass": 6222,
      "ికి": 6223,
      "a_1": 6224,
      "](https://en.wikipedia.org/Mughal_": 6225,
      "हाब": 6226,
      "ogri": 6227,
      "▁now": 6228,
      "परेशन": 6229,
      "मीरात": 6230,
      "▁करना": 6231,
      "▁करता": 6232,
      "ద్దు": 6233,
      "](https://hi.wikipedia.org/महाराष्ट्र": 6234,
      "▁\"En": 6235,
      "%2C5": 6236,
      "▁రహదార": 6237,
      "మాచల్": 6238,
      "▁సామ్రాజ్య": 6239,
      "రువా": 6240,
      "రుణా": 6241,
      "▁areas": 6242,
      "](https://en.wikipedia.org/En": 6243,
      "_River": 6244,
      "▁Ved": 6245,
      "న్నో": 6246,
      "▁[2](https://hi.wikipedia.org/भारत#cite_ref-FOOTNOTE": 6247,
      "▁जनता": 6248,
      "class": 6249,
      "▁[1](https://hi.wikipedia.org/भारत#cite_ref-FOOTNOTE": 6250,
      "మిజో": 6251,
      "▁ఇది": 6252,
      "▁lite": 6253,
      "हारजिस्ट": 6254,
      "egistrar": 6255,
      "ameez": 6256,
      "▁वर्षा": 6257,
      "ा_वार्ता:": 6258,
      "_भारतीय_": 6259,
      "ahal": 6260,
      "▁भाषा\")[[": 6261,
      "▁घरेलू": 6262,
      "▁జరి": 6263,
      "DwAAQBAJ": 6264,
      "ervice": 6265,
      "ेर-": 6266,
      "alayal": 6267,
      "alaysia": 6268,
      "▁విస్త": 6269,
      "समूह": 6270,
      "](https://hi.wikipedia.org/पूर्व": 6271,
      "ष्ठ": 6272,
      "▁2007\n": 6273,
      "▁निभाई": 6274,
      "▁errors\"))\n8": 6275,
      "▁[Archived](https://web.archive.org/web/20210": 6276,
      "▁agriculture": 6277,
      "ukesh": 6278,
      "▁శతాబ్ద": 6279,
      "▁river": 6280,
      "ట్టు": 6281,
      "▁अधिकार": 6282,
      "▁था,": 6283,
      "PPP": 6284,
      "दाख": 6285,
      "ంగ్లీ": 6286,
      "▁change": 6287,
      "రాష్ట్రాలు": 6288,
      "▁Pradesh\")": 6289,
      "athematics": 6290,
      "వేద": 6291,
      "]](https://hi.wikipedia.org/भारत#cite_note-10": 6292,
      "▁[↑](https://hi.wikipedia.org/भारत#cite_ref-10": 6293,
      "mirate": 6294,
      "▁[संयुक्त": 6295,
      "▁రాజకీయ": 6296,
      "ंपन": 6297,
      "ंपरा": 6298,
      "pib.nic.in/": 6299,
      "▁अपने": 6300,
      "▁subcontinent\")": 6301,
      "ार्कट": 6302,
      "ambodia": 6303,
      "హిమాచల్": 6304,
      "▁तटीय": 6305,
      "హాత్మా": 6306,
      "जयपुर": 6307,
      "जयनगर": 6308,
      "डीओआई": 6309,
      "लिंग": 6310,
      "_अन": 6311,
      "▁Force": 6312,
      "भूटान": 6313,
      "–123": 6314,
      "▁\"संस्कृत": 6315,
      "णिपुर": 6316,
      "िज़ोर": 6317,
      "▁species": 6318,
      "▁include": 6319,
      "chedule": 6320,
      "▁ప్రదేశ్\")": 6321,
      "హారాష్ట్ర": 6322,
      "▁सुरक्षा": 6323,
      "्रांति": 6324,
      "▁rock": 6325,
      "శాస్త్ర": 6326,
      "ominion": 6327,
      "ataraj": 6328,
      "రాజస్థాన్": 6329,
      "▁వాతావరణ": 6330,
      "पातकाल": 6331,
      "దినోత్స": 6332,
      "▁जलवायु": 6333,
      "బెంగాలీ": 6334,
      "▁increased": 6335,
      "యన్మార్": 6336,
      "▁ముఖ్య": 6337,
      "▁सदस": 6338,
      "▁emerg": 6339,
      "भोजपुरी": 6340,
      "arnatic": 6341,
      "arnataka": 6342,
      "स्लाम": 6343,
      "losis": 6344,
      "▁majority": 6345,
      "Sharma2007": 6346,
      "▁राजनीतिक": 6347,
      "▁[पंजाब](https://hi.wikipedia.org/पंजाब": 6348,
      "▁occup": 6349,
      "▁Before": 6350,
      "elangana": 6351,
      "▁appro": 6352,
      "_राजवंश": 6353,
      "ంజాబ్": 6354,
      "▁వ్యాస": 6355,
      "▁शुरू": 6356,
      "▁लगभग": 6357,
      "lofker": 6358,
      "lurton199": 6359,
      "ravidian": 6360,
      "_Commission": 6361,
      "खनऊ": 6362,
      "razil": 6363,
      "हरियाणा": 6364,
      "గుజరాత్": 6365,
      "ఆఫ్ఘనిస్తాన్": 6366,
      "న్‌ఫర్మే": 6367,
      "फाएं": 6368,
      "lothing": 6369,
      "IFT": 6370,
      "तुल्य": 6371,
      "ृषि": 6372,
      "వ](https://te.wikipedia.org/List_of_": 6373,
      "▁दोनों": 6374,
      "రిహద్దు": 6375,
      "చ్చేరి": 6376,
      "business-": 6377,
      "olnar": 6378,
      "vatsyayan-lord_433": 6379,
      "Tarlo1996": 6380,
      "runei": 6381,
      "ऍथनोल": 6382,
      "▁\"साँचा": 6383,
      "](https://hi.wikipedia.org/साँचा_वार्ता:": 6384,
      "ingapore": 6385,
      "▁Asher,": 6386,
      "acmillan": 6387,
      "ర్ణాటక": 6388,
      "_in_New_Delhi": 6389,
      "▁वृद्धि": 6390,
      "berculosis": 6391,
      "▁[महाराष्ट्र](https://hi.wikipedia.org/महाराष्ट्र": 6392,
      "▁\"महाराष्ट्र\")": 6393,
      "రుణాచల్": 6394,
      "हारजिस्ट्रार": 6395,
      "ार्कटिका": 6396,
      "న్‌ఫర్మేషన్": 6397,
      "ऍथनोलॉग": 6398,
      "-T": 6399,
      ".ed": 6400,
      "2-1": 6401,
      "3,": 6402,
      "324": 6403,
      "42": 6404,
      "418": 6405,
      "9-1": 6406,
      "Jha": 6407,
      "_36": 6408,
      "con": 6409,
      "c/c": 6410,
      "zer": 6411,
      "tification": 6412,
      "rel": 6413,
      "▁(c": 6414,
      "▁(a)": 6415,
      "▁(1):": 6416,
      "asht": 6417,
      "lease": 6418,
      "▁sq": 6419,
      "ref-1": 6420,
      "note-1": 6421,
      "ume": 6422,
      "▁Policy": 6423,
      ".\n9": 6424,
      "▁Day": 6425,
      "238": 6426,
      "_Ass": 6427,
      "▁John": 6428,
      "▁Asia:": 6429,
      "worldcat": 6430,
      "html)": 6431,
      "▁km2": 6432,
      "...]": 6433,
      "▁Short": 6434,
      "▁commun": 6435,
      "f/f": 6436,
      "itzel": 6437,
      "▁Minorities,": 6438,
      "▁(b)": 6439,
      "▁Increase": 6440,
      ".edu": 6441,
      ")\"),": 6442,
      "-j": 6443,
      "-t": 6444,
      "6_": 6445,
      ":**": 6446,
      "EN": 6447,
      "First": 6448,
      "Official": 6449,
      "g)": 6450,
      "gion": 6451,
      "tandard": 6452,
      "yy": 6453,
      "दर्श": 6454,
      "िर्": 6455,
      "▁ऐ": 6456,
      "▁३": 6457,
      "▁web": 6458,
      "▁[n": 6459,
      "▁[नेपाल": 6460,
      "▁\"राष्ट्रीय": 6461,
      "▁\"नेपाल": 6462,
      "भारत)\")": 6463,
      "▁(भारत)\")": 6464,
      "राक": 6465,
      "▁पहु": 6466,
      "▁fig": 6467,
      "78.": 6468,
      "▁billion": 6469,
      "▁men": 6470,
      "illi": 6471,
      "ilbert": 6472,
      "103": 6473,
      "▁जय": 6474,
      "▁दी": 6475,
      "न्ध": 6476,
      "▁Br": 6477,
      "indic": 6478,
      "▁Economy": 6479,
      "▁Hindus": 6480,
      "न्दा": 6481,
      "-39": 6482,
      "स्थ": 6483,
      "ablish": 6484,
      "▁[SAARC": 6485,
      "osition": 6486,
      "म्प्र": 6487,
      "राष्ट्रीय_": 6488,
      "_and_union_territ": 6489,
      "](https://mai.wikipedia.org/भारत": 6490,
      "_Gandhi": 6491,
      "iteracy": 6492,
      "▁घोष": 6493,
      "_Fund": 6494,
      "▁[उत्तर": 6495,
      "prof": 6496,
      "▁\"उत्तर": 6497,
      "िल्ली\")": 6498,
      "%E0%A4%A": 6499,
      "रेन्द्र": 6500,
      "ethnologue": 6501,
      "-report": 6502,
      "countries_and_depend": 6503,
      "▁एशिया\")": 6504,
      "िन्धु": 6505,
      "encies_by": 6506,
      "▁उत्तर-प": 6507,
      "▁Environmental": 6508,
      "pectancy": 6509,
      "▁dependencies": 6510,
      "aranth": 6511,
      "Library_of_C": 6512,
      "imachal": 6513,
      "८५७": 6514,
      "reedom": 6515,
      "▁व्यापार": 6516,
      "▁widely": 6517,
      "hattisgarh": 6518,
      "_and_union_territories": 6519,
      "ethnologue.com/": 6520,
      "countries_and_dependencies_by": 6521,
      "*](https://": 6522,
      "-24": 6523,
      "-27": 6524,
      "150": 6525,
      "220": 6526,
      "313": 6527,
      "317": 6528,
      "6-1": 6529,
      "74": 6530,
      "7]](https://en.wikipedia.org/India#cite_note-": 6531,
      "7)[[": 6532,
      "8]](https://en.wikipedia.org/India#cite_note-FOOTNOTE": 6533,
      "Ex": 6534,
      "Wright": 6535,
      "_Union": 6536,
      "cod": 6537,
      "caste": 6538,
      "eag": 6539,
      "gia": 6540,
      "hennai": 6541,
      "known": 6542,
      "lar": 6543,
      "mall": 6544,
      "ocal": 6545,
      "rban": 6546,
      "tou": 6547,
      "ui": 6548,
      "uries": 6549,
      "wat": 6550,
      "▁economy": 6551,
      "▁kingdom": 6552,
      "iated": 6553,
      "orm": 6554,
      "tte": 6555,
      "pen": 6556,
      "](https://www": 6557,
      "▁[Y": 6558,
      "▁\"Special:EditPage/Template:": 6559,
      "anchi": 6560,
      "](https://en.wikipedia.org/Special:EditPage/Template:": 6561,
      "ties/": 6562,
      "er-": 6563,
      "alc": 6564,
      "alace": 6565,
      "alk:": 6566,
      "rew": 6567,
      "cid": 6568,
      "▁(19": 6569,
      "▁(2007": 6570,
      "▁(India)": 6571,
      "itation": 6572,
      "ick": 6573,
      "▁inte": 6574,
      "raw": 6575,
      "▁sur": 6576,
      "▁prac": 6577,
      "lago": 6578,
      "▁cap": 6579,
      "▁At": 6580,
      "▁feat": 6581,
      "acred": 6582,
      "▁talk:": 6583,
      "lima": 6584,
      "vey": 6585,
      "umeration": 6586,
      "▁Pla": 6587,
      "▁Prin": 6588,
      "comp": 6589,
      "rove": 6590,
      "rocod": 6591,
      "ilk": 6592,
      "]](https://en.wikipedia.org/India#cite_note-4": 6593,
      "▁Tim": 6594,
      "▁direct": 6595,
      "emi": 6596,
      "00–": 6597,
      "253": 6598,
      "igen": 6599,
      "2649": 6600,
      "269,": 6601,
      "▁Dance": 6602,
      "▁Dyson": 6603,
      "lymp": 6604,
      "▁*B": 6605,
      "ayana": 6606,
      "▁last": 6607,
      "287,": 6608,
      "▁Ganges": 6609,
      "▁east": 6610,
      "beral": 6611,
      "-349": 6612,
      "-459": 6613,
      "akers": 6614,
      "40px-": 6615,
      "▁\"Central": 6616,
      "▁\"Climate": 6617,
      "17.": 6618,
      "osa": 6619,
      "▁[China": 6620,
      "▁\"Ministry": 6621,
      "](https://en.wikipedia.org/China": 6622,
      "▁[Mughal": 6623,
      "ysis": 6624,
      "▁become": 6625,
      "▁str": 6626,
      "rchitecture": 6627,
      "orea": 6628,
      "_and_N": 6629,
      "_and_Development": 6630,
      "lled": 6631,
      "▁\"Template": 6632,
      "%2C_S": 6633,
      "](https://en.wikipedia.org/Template_": 6634,
      "▁ancient": 6635,
      "▁\"Delhi": 6636,
      "_Ram": 6637,
      "▁V.": 6638,
      "▁Vedic": 6639,
      "](https://en.wikipedia.org/Delhi": 6640,
      "▁\"Routledge": 6641,
      "▁[Tamil": 6642,
      "▁[Routledge": 6643,
      "▁\"Special:BookSources/978-0-521": 6644,
      "](https://en.wikipedia.org/Special:BookSources/978-0-521": 6645,
      "](https://en.wikipedia.org/Re": 6646,
      "](https://en.wikipedia.org/Routledge": 6647,
      "angetic": 6648,
      "_Economic": 6649,
      "▁2014](https://en.wikipedia.org/India#CITEREF": 6650,
      "▁centuries": 6651,
      "amese": 6652,
      "▁tea": 6653,
      "▁[History": 6654,
      "▁milk": 6655,
      "▁military": 6656,
      "▁millennium": 6657,
      "▁2007](https://en.wikipedia.org/India#CITEREF": 6658,
      "▁leg": 6659,
      "official": 6660,
      "▁(2017).": 6661,
      "▁parliament": 6662,
      "▁[t](https://en.wikipedia.org/Template_": 6663,
      "▁known": 6664,
      "▁2023.": 6665,
      "▁sever": 6666,
      "talk:": 6667,
      "230-345": 6668,
      "▁[e](https://en.wikipedia.org/Special:EditPage/Template:": 6669,
      "▁[v](https://en.wikipedia.org/Template:": 6670,
      "▁Talbot,": 6671,
      "▁Buddha": 6672,
      "Environment": 6673,
      "▁upper": 6674,
      "olkata": 6675,
      "hanghai": 6676,
      "▁Conservation": 6677,
      "▁(1,269,": 6678,
      "▁3,287,": 6679,
      "ield": 6680,
      "▁Francis": 6681,
      "ibetan": 6682,
      "forcement": 6683,
      "▁republic": 6684,
      "industry_in_India": 6685,
      "estival": 6686,
      "▁India](https://en.wikipedia.org/Government_of_India": 6687,
      "▁employed": 6688,
      "▁mi)": 6689,
      "▁1994](https://en.wikipedia.org/India#CITEREF": 6690,
      "struction": 6691,
      "▁Games\")": 6692,
      "-107-02649": 6693,
      "Front": 6694,
      "▁engineering": 6695,
      "▁village": 6696,
      "alayalam": 6697,
      "Wright2010": 6698,
      "touch": 6699,
      "▁(2007).": 6700,
      "limate_": 6701,
      "▁Dyson,": 6702,
      "▁[China](https://en.wikipedia.org/China": 6703,
      "▁\"Routledge\").": 6704,
      "▁[Routledge](https://en.wikipedia.org/Routledge": 6705,
      "▁[t](https://en.wikipedia.org/Template_talk:": 6706,
      "230-34549-2": 6707,
      "-107-02649-0": 6708,
      "%3": 6709,
      "*](https://web.archive.org/web/201": 6710,
      "-गंगा": 6711,
      "/t": 6712,
      "1200": 6713,
      "126": 6714,
      "528": 6715,
      "5.pdf)": 6716,
      "A5%": 6717,
      "B0%": 6718,
      "OLA": 6719,
      "_त": 6720,
      "_on": 6721,
      "_26": 6722,
      "aci": 6723,
      "ault": 6724,
      "hl": 6725,
      "hri": 6726,
      "hdr": 6727,
      "ँकि": 6728,
      "ंबर": 6729,
      "ऊर्जा": 6730,
      "ऋतु": 6731,
      "ऑपरेशन": 6732,
      "ख्य": 6733,
      "त्या": 6734,
      "थी": 6735,
      "दु": 6736,
      "नत": 6737,
      "मक": 6738,
      "ल्त": 6739,
      "वत": 6740,
      "शील": 6741,
      "सत": 6742,
      "सैन": 6743,
      "ाय": 6744,
      "ोड": 6745,
      "१८५७": 6746,
      "४.": 6747,
      "५०": 6748,
      "ంతి": 6749,
      "కాల": 6750,
      "కారం": 6751,
      "ఖ్": 6752,
      "గంగా": 6753,
      "టో": 6754,
      "డిన": 6755,
      "తీ": 6756,
      "ధి": 6757,
      "ధించ": 6758,
      "నల్": 6759,
      "మన": 6760,
      "మర": 6761,
      "ర్యా": 6762,
      "లం": 6763,
      "లతో": 6764,
      "లమె": 6765,
      "ీస్": 6766,
      "ూప": 6767,
      "ూరు": 6768,
      "ెనీ": 6769,
      "ౌక": 6770,
      "▁:": 6771,
      "▁ద": 6772,
      "▁ఫ": 6773,
      "▁దక్షిణ": 6774,
      "▁హిందూ": 6775,
      "▁గాంధీ": 6776,
      "▁[ए": 6777,
      "▁[భారతదేశం": 6778,
      "▁[ఢిల్లీ": 6779,
      "▁\"प्र": 6780,
      "▁\"सा": 6781,
      "▁\"गुजरात": 6782,
      "▁\"विशेष:EditPage/साँचा:": 6783,
      "arak": 6784,
      "2020": 6785,
      "](https://hi.wikipedia.org/य": 6786,
      "](https://hi.wikipedia.org/विशेष:EditPage/साँचा:": 6787,
      "▁कर्ज": 6788,
      "▁सूर": 6789,
      "asp?": 6790,
      "19)": 6791,
      "▁मील": 6792,
      "lex": 6793,
      "▁India\"](https://": 6794,
      "ారస": 6795,
      "etwork": 6796,
      "ాలను": 6797,
      "▁में).": 6798,
      "స్](https://te.wikipedia.org/": 6799,
      "विद्यालय": 6800,
      "▁పెద్ద": 6801,
      "▁domestic": 6802,
      ".\n15": 6803,
      "▁Report": 6804,
      "ाल्": 6805,
      "_केंद्र": 6806,
      "राजनी": 6807,
      "00–సా.శ.పూ.": 6808,
      "ర్లు": 6809,
      "▁बनी": 6810,
      "▁बड़ी": 6811,
      "लावा": 6812,
      "▁प्रण": 6813,
      "▁प्रभा": 6814,
      "▁प्रकार": 6815,
      "▁प्रारम्भ": 6816,
      "▁निय": 6817,
      "▁नृत्य": 6818,
      "ता\")": 6819,
      "_सु": 6820,
      "_सिनेमा": 6821,
      "లు\")": 6822,
      "स्ता": 6823,
      "ित्व": 6824,
      "▁आय": 6825,
      "22.": 6826,
      "▁వే": 6827,
      "री\")": 6828,
      "री](https://hi.wikipedia.org/": 6829,
      "रीक्षण": 6830,
      "▁गए": 6831,
      "ादरा": 6832,
      "▁पर्यटन": 6833,
      "▁परमाणु": 6834,
      "▁परंपरा": 6835,
      "▁संख्या": 6836,
      "नेट": 6837,
      "▁विवाद": 6838,
      "▁विभाग": 6839,
      "_के_देश": 6840,
      "ी](https://hi.wikipedia.org/प": 6841,
      "ी](https://hi.wikipedia.org/स": 6842,
      "monsoon": 6843,
      "▁\"Sanskrit": 6844,
      "త్తం": 6845,
      "ज़ा": 6846,
      "338": 6847,
      "▁(సా.శ.13": 6848,
      "▁(సా.శ.15": 6849,
      "▁भाषाएँ": 6850,
      "▁అనే": 6851,
      "▁ప్రజ": 6852,
      "తం\")": 6853,
      "ంచి": 6854,
      "2011),": 6855,
      "भिन्न": 6856,
      "▁ఆఫ్": 6857,
      "▁సాం": 6858,
      "▁[भारत](https://hi.wikipedia.org/भारत": 6859,
      "ార్లమె": 6860,
      "▁Vol": 6861,
      "కిస్థాన్": 6862,
      "newsite": 6863,
      "▁నే": 6864,
      "▁నగర": 6865,
      "▁जाते": 6866,
      "general": 6867,
      "-symbols": 6868,
      "▁इसी": 6869,
      "▁దేశం": 6870,
      "िवेश": 6871,
      "ध्यम": 6872,
      "▁समूह": 6873,
      "టిబె": 6874,
      "్రీ.పూ.": 6875,
      "▁2019.\n": 6876,
      "ండియా": 6877,
      "ेखा": 6878,
      "▁errors\"))\n6": 6879,
      "▁ఎక్కువ": 6880,
      "▁ఎన్నో": 6881,
      "▁जिसके": 6882,
      "▁मानव": 6883,
      "▁१९९": 6884,
      "▁सिंह": 6885,
      "](https://hi.wikipedia.org/उत्तर": 6886,
      "्यटन\")": 6887,
      "KulkeRothermund200": 6888,
      "वर्ष": 6889,
      "_సం": 6890,
      "national-symbols": 6891,
      "▁[t](https://hi.wikipedia.org/साँचा_वार्ता:": 6892,
      "▁अपनी": 6893,
      "టుంబ": 6894,
      "श्रीनगर": 6895,
      "▁భారత్": 6896,
      "▁2020.": 6897,
      "राष्ट्रपति\")": 6898,
      "▁[e](https://hi.wikipedia.org/विशेष:EditPage/साँचा:": 6899,
      "▁[v](https://hi.wikipedia.org/साँचा:": 6900,
      "2001),": 6901,
      "▁डॉल": 6902,
      "माजिक": 6903,
      "▁ऊर्जा": 6904,
      "▁रहे": 6905,
      "ईसाई": 6906,
      "▁మొత్తం": 6907,
      "▁हुआ।": 6908,
      "▁वायु": 6909,
      "బాద్": 6910,
      "](https://hi.wikipedia.org/संस्कृत": 6911,
      "ంపెనీ": 6912,
      "▁दृष्ट": 6913,
      "▁प्रतिशत": 6914,
      "▁2004](https://hi.wikipedia.org/भारत#CITEREF": 6915,
      "ूरोपीय": 6916,
      "_का_खाना": 6917,
      "హ్మ": 6918,
      "▁उद्यान\")": 6919,
      "_उत्पाद": 6920,
      ".aspx?rel": 6921,
      "▁ఏర్": 6922,
      "documents/": 6923,
      "retary": 6924,
      "▁शक्तिपीठ": 6925,
      "్రిటిషు": 6926,
      "▁राजवंश\")": 6927,
      "▁विदेशी": 6928,
      "ंडोनेशिया": 6929,
      "_और_संघ_क्षेत्र": 6930,
      "_Lanka": 6931,
      "AGE": 6932,
      "_राज्यक्षेत्र": 6933,
      "▁सितंबर": 6934,
      "▁जबकि": 6935,
      "▁అత్యధిక": 6936,
      "_के_अनुसार_देशों_की_सूची": 6937,
      "▁सहयोग": 6938,
      "ీర్ణ": 6939,
      "▁किन्तु": 6940,
      "र्तग": 6941,
      "దక్షిణ_ఆసియా": 6942,
      "▁गठबंधन": 6943,
      "pib.nic.in/newsite": 6944,
      "lease.aspx?rel": 6945,
      "ल्तनत": 6946,
      "सैनिक": 6947,
      "▁डॉलर": 6948,
      "pib.nic.in/newsite/": 6949,
      "-asia": 6950,
      ".\"": 6951,
      "223": 6952,
      "4-3": 6953,
      "BI": 6954,
      "Mumbai": 6955,
      "_39": 6956,
      "gu": 6957,
      "hā": 6958,
      "var": 6959,
      "wa": 6960,
      "▁Z": 6961,
      "▁est": 6962,
      "▁40": 6963,
      "▁ob": 6964,
      "ery": 6965,
      "thehindu": 6966,
      "19.": 6967,
      "19).": 6968,
      "ices": 6969,
      "2011.": 6970,
      "▁poll": 6971,
      "▁can": 6972,
      "▁census": 6973,
      "▁based": 6974,
      "_of_S": 6975,
      "▁14.": 6976,
      "ily": 6977,
      "▁Ram": 6978,
      "▁air": 6979,
      "▁Book": 6980,
      "opal": 6981,
      "2221": 6982,
      ".[[22": 6983,
      "imil": 6984,
      "osi": 6985,
      "▁West": 6986,
      "-5196": 6987,
      "489": 6988,
      "_Times": 6989,
      "▁\"International": 6990,
      "857": 6991,
      "▁uni": 6992,
      "times.indiatimes.com/": 6993,
      "orthographic": 6994,
      "anced": 6995,
      "▁adop": 6996,
      "▁[Ludden": 6997,
      "/articles/": 6998,
      "visions": 6999,
      "economictimes.indiatimes.com/": 7000,
      "▁[*An": 7001,
      ".net": 7002,
      "KulkeRothermund2004),": 7003,
      "▁Region": 7004,
      "5/5": 7005,
      "▁(2018).": 7006,
      "d/d": 7007,
      "place": 7008,
      "_Development": 7009,
      "_projection": 7010,
      "ksai": 7011,
      "resident_of_India": 7012,
      "▁(2006).": 7013,
      "▁zone": 7014,
      "indicator": 7015,
      "Library_of_Congress2004": 7016,
      "▁establish": 7017,
      "orthographic_projection": 7018,
      "&ss": 7019,
      "-O": 7020,
      "-R": 7021,
      "-th": 7022,
      "1)[[": 7023,
      "2-0": 7024,
      "5-3": 7025,
      "8+": 7026,
      "9-6": 7027,
      "Ass": 7028,
      "C)": 7029,
      "David": 7030,
      "Home": 7031,
      "MAAJ": 7032,
      "SN": 7033,
      "_1.": 7034,
      "aha": 7035,
      "bel": 7036,
      "fun": 7037,
      "glom": 7038,
      "io": 7039,
      "mand": 7040,
      "mas": 7041,
      "more": 7042,
      "oz": 7043,
      "paper": 7044,
      "search": 7045,
      "ten": 7046,
      "tar": 7047,
      "upee": 7048,
      "vin": 7049,
      "xim": 7050,
      "}}": 7051,
      "ंस": 7052,
      "इटे": 7053,
      "कु": 7054,
      "नत्व": 7055,
      "पया": 7056,
      "पदी": 7057,
      "मूल": 7058,
      "वान": 7059,
      "ैली": 7060,
      "ोण": 7061,
      "ौपदी": 7062,
      "▁35": 7063,
      "en:": 7064,
      "ene": 7065,
      "enjo": 7066,
      "ants": 7067,
      "anada": 7068,
      "](https://en.wikipedia.org/U": 7069,
      "till": 7070,
      "ergy": 7071,
      "arrow": 7072,
      "alla": 7073,
      "ising": 7074,
      "▁सम्प": 7075,
      "▁often": 7076,
      "asu": 7077,
      "oud": 7078,
      "ico": 7079,
      "▁India.[[": 7080,
      "ratic": 7081,
      "▁set": 7082,
      "▁served": 7083,
      "riya": 7084,
      "ानक": 7085,
      "▁After": 7086,
      "र्ग": 7087,
      "र्भ": 7088,
      "amaj": 7089,
      "uscript": 7090,
      "ating": 7091,
      "atna": 7092,
      "▁See": 7093,
      "▁Cather": 7094,
      "agement": 7095,
      "▁trade": 7096,
      "local": 7097,
      "lose": 7098,
      "adakh": 7099,
      "▁mid": 7100,
      "▁middle": 7101,
      "well": 7102,
      "hek": 7103,
      "_of_South_Asia": 7104,
      "cha": 7105,
      "rowing": 7106,
      "fied": 7107,
      "style": 7108,
      "una": 7109,
      "unle": 7110,
      "](https://en.wikipedia.org/India#cite_ref-vatsyayan-lord_433": 7111,
      "नाइटे": 7112,
      "▁Trade": 7113,
      "▁dist": 7114,
      ".\n36": 7115,
      ".\n38": 7116,
      "21.": 7117,
      "emen": 7118,
      "▁Bangalore": 7119,
      "s.\"\n": 7120,
      "▁ब्रिटिश": 7121,
      "लाओ": 7122,
      "_सागर": 7123,
      "▁Emer": 7124,
      "ayashi": 7125,
      "ldlife": 7126,
      "_in_the": 7127,
      "haw": 7128,
      "▁Nuclear": 7129,
      "▁even": 7130,
      "▁आधुनिक": 7131,
      "opic": 7132,
      "-405": 7133,
      "▁though": 7134,
      "▁religions": 7135,
      "स्लि": 7136,
      "_Agency": 7137,
      "aks": 7138,
      "s](https://en.wikipedia.org/P": 7139,
      "ctor": 7140,
      "ghts": 7141,
      "40.": 7142,
      "AAMAAJ": 7143,
      "▁\"Chin": 7144,
      "▁global": 7145,
      "▁Indians": 7146,
      "▁Law": 7147,
      "ensive": 7148,
      ")\n\nA": 7149,
      "▁[Craven": 7150,
      "ucture": 7151,
      "](https://en.wikipedia.org/Central_": 7152,
      "-2\").": 7153,
      "ajp": 7154,
      "ajasthan": 7155,
      "undarb": 7156,
      "avi": 7157,
      "a_d": 7158,
      "kee": 7159,
      "हात्": 7160,
      "▁\"Tamil": 7161,
      "▁[Pakistan": 7162,
      "_Tamil_Nadu": 7163,
      "र्मू": 7164,
      "2011religion": 7165,
      "्राष्ट्र": 7166,
      "▁deve": 7167,
      "issions": 7168,
      "▁\"Ge": 7169,
      "▁\"कु": 7170,
      "_Re": 7171,
      "▁rural": 7172,
      "▁[कु": 7173,
      "▁[Delhi": 7174,
      "▁2011](https://en.wikipedia.org/India#CITEREF": 7175,
      "▁[![The": 7176,
      "मान्य": 7177,
      "neworld": 7178,
      "▁[ब्रिटिश": 7179,
      "▁31": 7180,
      "▁\"Indus": 7181,
      "-daro": 7182,
      "द्रौपदी": 7183,
      "amily": 7184,
      "ational_P": 7185,
      "ohan": 7186,
      "ohenjo": 7187,
      "▁central": 7188,
      "_dance": 7189,
      "▁1997": 7190,
      "2014-p": 7191,
      "▁Urdu": 7192,
      "▁[Indo-": 7193,
      "जराय": 7194,
      "▁News": 7195,
      ".jpg/250px-S": 7196,
      "तिहासिक": 7197,
      "KulkeRothermund2016": 7198,
      "raditional": 7199,
      "▁[संस्कृत": 7200,
      "oorkee": 7201,
      "▁where": 7202,
      "▁whose": 7203,
      "son2014-p": 7204,
      "▁2026.\n": 7205,
      "ropped": 7206,
      "▁These": 7207,
      "tected": 7208,
      "ually": 7209,
      "▁century,": 7210,
      "_War": 7211,
      "▁numbers": 7212,
      "cott": 7213,
      "▁plain": 7214,
      "वैत": 7215,
      "▁speakers": 7216,
      "ortal:": 7217,
      "▁supp": 7218,
      "dira": 7219,
      "▁early": 7220,
      "athakali": 7221,
      "-of-india-": 7222,
      "sites/": 7223,
      "▁mathematic": 7224,
      "emocratic": 7225,
      "▁2008](https://en.wikipedia.org/India#CITEREF": 7226,
      "Ludden2014": 7227,
      "riage": 7228,
      "inistry_of_Home": 7229,
      "lectri": 7230,
      "▁Africa": 7231,
      "union_territory": 7232,
      "▁cities": 7233,
      "▁lower": 7234,
      "anorama": 7235,
      "arlung": 7236,
      "rigonom": 7237,
      "lackb": 7238,
      "▁education": 7239,
      "▁Publication": 7240,
      "ecutive": 7241,
      "astronom": 7242,
      "awaharlal": 7243,
      "▁caused": 7244,
      "▁oldest": 7245,
      "cogni": 7246,
      "ufact": 7247,
      "▁maint:": 7248,
      "Census2011religion": 7249,
      "▁[India](https://en.wikipedia.org/India)": 7250,
      "▁emerged": 7251,
      "Tarlo1996-26": 7252,
      "igenous": 7253,
      "beralisation": 7254,
      "Davidson2014-p": 7255,
      "▁Catherine": 7256,
      "नाइटेड": 7257,
      "स्लिम": 7258,
      "undarbans": 7259,
      "हात्मा": 7260,
      "ohenjo-daro": 7261,
      "inistry_of_Home_Affair": 7262,
      "-H": 7263,
      "-h": 7264,
      "2-1)": 7265,
      "5-0": 7266,
      ";\n": 7267,
      "DR": 7268,
      "RA": 7269,
      "Sanskrit": 7270,
      "_per": 7271,
      "_ex": 7272,
      "_history": 7273,
      "egh": 7274,
      "ogo": 7275,
      "post": 7276,
      "tation": 7277,
      "voy": 7278,
      "▁<": 7279,
      "inated": 7280,
      "onk": 7281,
      "▁(J": 7282,
      "▁pri": 7283,
      "ustice": 7284,
      "▁Court": 7285,
      "▁Century": 7286,
      "chol": 7287,
      "108": 7288,
      "▁Movement": 7289,
      "▁Tw": 7290,
      "s.com": 7291,
      "Univers": 7292,
      "▁Ne": 7293,
      "-45": 7294,
      "▁1980": 7295,
      "▁[*M": 7296,
      "orities/": 7297,
      "▁consid": 7298,
      "/08/": 7299,
      "a/a": 7300,
      "-level": 7301,
      "AsherTalbot2008),": 7302,
      "/authorities/": 7303,
      "ause": 7304,
      "ivision": 7305,
      "▁Monetary": 7306,
      ".uk/": 7307,
      "eghalay": 7308,
      "-se": 7309,
      "-world": 7310,
      ".t": 7311,
      "/we": 7312,
      "2-10": 7313,
      "2%29": 7314,
      "310": 7315,
      "3-3": 7316,
      "425": 7317,
      ":भारत": 7318,
      ":IN": 7319,
      "BRICS": 7320,
      "E﻿": 7321,
      "KI": 7322,
      "Pe": 7323,
      "Political_": 7324,
      "States": 7325,
      "_यु": 7326,
      "_34": 7327,
      "_map": 7328,
      "_జాబితా": 7329,
      "aver": 7330,
      "a-b": 7331,
      "bu": 7332,
      "bhasha": 7333,
      "gration": 7334,
      "lc": 7335,
      "minis": 7336,
      "ns": 7337,
      "uin": 7338,
      "uture": 7339,
      "vanced": 7340,
      "ंजन": 7341,
      "अभिज्ञापक": 7342,
      "एम": 7343,
      "घाट": 7344,
      "चार": 7345,
      "जल": 7346,
      "तमान": 7347,
      "धर्": 7348,
      "यपालिका": 7349,
      "र-": 7350,
      "र्य": 7351,
      "ल्ड": 7352,
      "वली": 7353,
      "शक्ति": 7354,
      "हू": 7355,
      "ाई": 7356,
      "िरा": 7357,
      "िंह": 7358,
      "ीकरण": 7359,
      "ुस्तान": 7360,
      "ूस": 7361,
      "ूनाइटेड": 7362,
      "ेय": 7363,
      "ोत्तर": 7364,
      "२६": 7365,
      "४७": 7366,
      "ఆంధ": 7367,
      "కీ": 7368,
      "కాలు": 7369,
      "క్రమ": 7370,
      "గర్": 7371,
      "డో": 7372,
      "థి": 7373,
      "నె": 7374,
      "నాలు": 7375,
      "పించ": 7376,
      "బడ్డ": 7377,
      "భర": 7378,
      "మహ": 7379,
      "మై": 7380,
      "యన": 7381,
      "రంగ": 7382,
      "లయా": 7383,
      "వార": 7384,
      "శీ": 7385,
      "షనల్": 7386,
      "స్య": 7387,
      "ృద్ధి": 7388,
      "ెంగ": 7389,
      "ేర": 7390,
      "–17": 7391,
      "–120": 7392,
      "▁९": 7393,
      "▁ता": 7394,
      "▁70": 7395,
      "▁దా": 7396,
      "▁धीरे": 7397,
      "▁నాగరికత": 7398,
      "▁టెక్నాలజీ": 7399,
      "](https://id.": 7400,
      "](https://catal": 7401,
      "win": 7402,
      "▁[ख": 7403,
      "▁[राष्ट्रीय": 7404,
      "▁[राजस्थान": 7405,
      "▁\"श": 7406,
      "▁\"वि": 7407,
      "▁\"पु": 7408,
      "▁\"का": 7409,
      "▁\"विश्व": 7410,
      "▁\"राजस्थान": 7411,
      "\")\"": 7412,
      "\")1": 7413,
      "tives": 7414,
      "](https://hi.wikipedia.org/वि": 7415,
      "](https://hi.wikipedia.org/प्र": 7416,
      "](https://hi.wikipedia.org/राष्ट्रीय": 7417,
      "](https://hi.wikipedia.org/गुजरात": 7418,
      "](https://hi.wikipedia.org/राजस्थान": 7419,
      "▁कह": 7420,
      "tions": 7421,
      "▁सश": 7422,
      "▁समा": 7423,
      "▁समान": 7424,
      "▁सल्तनत": 7425,
      "▁मंत्र": 7426,
      "▁मशीन": 7427,
      "्यु": 7428,
      "्यपालिका": 7429,
      "let": 7430,
      "్రై": 7431,
      "్రప్రదేశ్": 7432,
      "rame": 7433,
      "](https://te.wikipedia.org/ఢిల్లీ": 7434,
      "▁पी": 7435,
      "▁पहा": 7436,
      "▁simil": 7437,
      "20085": 7438,
      "▁policy": 7439,
      "ानून": 7440,
      "-100": 7441,
      "atch": 7442,
      "](https://hi.wikipedia.org/भारत_स": 7443,
      "▁Ste": 7444,
      "▁Summit": 7445,
      "▁हिल": 7446,
      "िकेट": 7447,
      "▁अभी": 7448,
      "FOOTNOTENational_Informatics_Centre2005": 7449,
      "stre": 7450,
      "దేశం": 7451,
      "దేశాల": 7452,
      "▁Modi": 7453,
      "▁Machine": 7454,
      "▁do": 7455,
      "▁जै": 7456,
      "▁जिन्": 7457,
      "्षिक": 7458,
      "rces": 7459,
      "olia": 7460,
      "ेशिया\")": 7461,
      "s.jpg": 7462,
      "ర్‌": 7463,
      "▁बल": 7464,
      "▁बौद्ध": 7465,
      "▁बैंक": 7466,
      "_(अभिज्ञापक": 7467,
      "ंगड": 7468,
      "ंगल": 7469,
      "ंगीत": 7470,
      "▁नगर": 7471,
      "▁से](https://": 7472,
      "_स्": 7473,
      "లు?action=edit&redlink=1": 7474,
      "రాఠ": 7475,
      "1991": 7476,
      "▁*A": 7477,
      "▁Home": 7478,
      "289": 7479,
      "11)": 7480,
      "▁Nation": 7481,
      "▁కి": 7482,
      "▁కో": 7483,
      "▁आंद": 7484,
      "క్టో": 7485,
      "▁ती": 7486,
      "▁तो": 7487,
      "▁तुल": 7488,
      "▁तीस": 7489,
      "నియా": 7490,
      "▁వర్": 7491,
      "▁వారస": 7492,
      "geoh": 7493,
      "स्चेंज": 7494,
      "ల్వే": 7495,
      "abin": 7496,
      "▁ne": 7497,
      "▁गति": 7498,
      "1857": 7499,
      "▁సరిహద్దు": 7500,
      "▁మన": 7501,
      "▁మూ": 7502,
      "▁उस": 7503,
      "▁उद्योग": 7504,
      "ड़िशा": 7505,
      "▁शांति": 7506,
      "15/": 7507,
      "▁संस्कृत": 7508,
      "ండమా": 7509,
      "▁around": 7510,
      "▁On": 7511,
      "▁చిన్న": 7512,
      "]](https://hi.wikipedia.org/भारत#cite_note-Combined": 7513,
      "्याचल": 7514,
      "uccess": 7515,
      "తాన": 7516,
      "ముఖ": 7517,
      "ियर": 7518,
      "ी](https://hi.wikipedia.org/न": 7519,
      "త్వం": 7520,
      "त्ता": 7521,
      "▁(సా.శ.17": 7522,
      "▁(సా.శ.14": 7523,
      "▁being": 7524,
      "ंडल": 7525,
      "ులు,": 7526,
      "▁भाषाएं": 7527,
      "–సా.శ.15": 7528,
      "–సా.శ.17": 7529,
      "▁\"मुंबई": 7530,
      "▁ప్రతి": 7531,
      "▁ప్రస్తు": 7532,
      "▁ప్రకారం": 7533,
      "▁ప్రముఖ": 7534,
      "पांड": 7535,
      "ी\")\n-": 7536,
      "ంచిన": 7537,
      "కుడు": 7538,
      "▁[↑](https://hi.wikipedia.org/भारत#cite_ref-5": 7539,
      "▁[↑](https://hi.wikipedia.org/भारत#cite_ref-Combined": 7540,
      "कार्यपालिका": 7541,
      "నుమ": 7542,
      "द्वित": 7543,
      "_Data_": 7544,
      "्राम": 7545,
      "वाँ": 7546,
      "▁రో": 7547,
      "▁రంగ": 7548,
      "▁రవాణా": 7549,
      "▁సాధించ": 7550,
      "▁deb": 7551,
      "▁any": 7552,
      "ష్టు": 7553,
      "▁पुलिस": 7554,
      "ंदर": 7555,
      "ंत्रिक": 7556,
      "▁प्रदेश](https://hi.wikipedia.org/मध्य": 7557,
      "▁[GDP": 7558,
      "](https://hi.wikipedia.org/कु": 7559,
      "त्न": 7560,
      "ంతో": 7561,
      ",_కేంద్రపాలిత": 7562,
      "▁తరువా": 7563,
      "పాలన": 7564,
      "▁वर्ण": 7565,
      "▁वर्तमान": 7566,
      "िवास": 7567,
      "ం](https://te.wikipedia.org/భారతీయ": 7568,
      "](https://hi.wikipedia.org/ब्रिटिश": 7569,
      "▁हिमालय": 7570,
      "గుర్": 7571,
      "నేషనల్": 7572,
      "गणतंत्र": 7573,
      "▁ప్రాంతం": 7574,
      "వందే": 7575,
      "न्नड": 7576,
      "▁किया।": 7577,
      "▁రాజ్యం](https://te.wikipedia.org/": 7578,
      "AsherTalbot20085": 7579,
      "▁[International": 7580,
      "▁బా": 7581,
      "▁బహు": 7582,
      "▁బెంగ": 7583,
      "▁गया।[[": 7584,
      "▁errors\"))\n7": 7585,
      "▁[उर्दू": 7586,
      "आई.": 7587,
      "▁CITEREFKulkeRothermund2004": 7588,
      "▁\"उर्दू": 7589,
      "▁१९८": 7590,
      "ాల్లో": 7591,
      "](https://hi.wikipedia.org/उर्दू": 7592,
      "िल्ली](https://hi.wikipedia.org/द": 7593,
      ".jpg)\n\n[": 7594,
      "▁notation": 7595,
      "वर्ल्ड": 7596,
      "गुजराती": 7597,
      "శ్వా": 7598,
      "क्षेत्रफल": 7599,
      "ారిటీ": 7600,
      "ेस्ट": 7601,
      "▁पूर्वी": 7602,
      "▁अपना": 7603,
      "▁Thomas": 7604,
      "ार्क": 7605,
      "▁न्यायाधीश": 7606,
      "▁[↑](https://hi.wikipedia.org/भारत#cite_ref-FOOTNOTEStein1998": 7607,
      "గోళ": 7608,
      "▁\"Official": 7609,
      "▁across": 7610,
      "▁\"दिल्ली\")": 7611,
      "ड़ीसा": 7612,
      "బడిన": 7613,
      "▁बहुमत": 7614,
      "▁\"संयुक्त": 7615,
      "తున్న": 7616,
      "న్నిక": 7617,
      "▁Art": 7618,
      "▁స్వాతంత్ర్య": 7619,
      "▁माध्यम": 7620,
      "▁కాలంలో": 7621,
      "कल_घ": 7622,
      "మెరి": 7623,
      "▁सुधार": 7624,
      "ष्णकट": 7625,
      "_पार्ट": 7626,
      "▁थी।": 7627,
      "lag_of_India": 7628,
      "▁धरोहर": 7629,
      "▁इतिहास\")": 7630,
      "राठी": 7631,
      "ంపి": 7632,
      "▁संगीत": 7633,
      "బెంగాల్": 7634,
      "cms).": 7635,
      "हायक": 7636,
      "▁According": 7637,
      "_एवं": 7638,
      "ెలవు": 7639,
      "▁नीति": 7640,
      "](https://te.wikipedia.org/భారతదేశంలో_": 7641,
      "ीपी)": 7642,
      "▁वार्षिक": 7643,
      "▁ऑफ": 7644,
      "रेलू_उत्पाद": 7645,
      "-India.pdf)": 7646,
      "▁अनुसंधान": 7647,
      "britannica.com/place": 7648,
      "data.worldbank.org/": 7649,
      "▁(अभिज्ञापक": 7650,
      "▁सूचना-विज्ञान": 7651,
      "▁అధికారిక": 7652,
      "irectorate": 7653,
      "ఆర్ధిక": 7654,
      "▁मौसम": 7655,
      "▁పట్టణ": 7656,
      "▁विस्तृत": 7657,
      "▁కాశ్మీరు": 7658,
      "MetcalfMetcalf2012-26": 7659,
      "▁अभियान": 7660,
      "_सेना": 7661,
      "▁लेकर": 7662,
      "▁लाख": 7663,
      "rajbhasha": 7664,
      "▁अमेरिका": 7665,
      "▁అయిన": 7666,
      "▁రెండు": 7667,
      "ాల్దీవులు": 7668,
      "ట్రో": 7669,
      "ుల్తాన": 7670,
      "▁हालाँकि": 7671,
      "_सूचना-विज्ञान": 7672,
      "ంగ్లీషు": 7673,
      "రాష్ట్రాలు,_కేంద్రపాలిత": 7674,
      "దినోత్సవం": 7675,
      "▁వ్యాసం:": 7676,
      "worldcat.org/": 7677,
      "▁पहुँच": 7678,
      "profile": 7679,
      "िन्धु-गंगा": 7680,
      "_and_union_territories_of_India": 7681,
      "▁[भारत](https://hi.wikipedia.org/भारत)": 7682,
      "ార్లమెంట": 7683,
      "▁2004](https://hi.wikipedia.org/भारत#CITEREFKulkeRothermund2004),": 7684,
      "▁ఏర్ప": 7685,
      "मूल्य": 7686,
      "_map_en": 7687,
      "ministered": 7688,
      "ఆంధ్రప్రదేశ్": 7689,
      "లయాళ": 7690,
      "▁[राजस्थान](https://hi.wikipedia.org/राजस्थान": 7691,
      "▁\"राजस्थान\")": 7692,
      "▁similar": 7693,
      "▁हिल्स": 7694,
      "_(अभिज्ञापक)": 7695,
      "▁तुलना": 7696,
      "geohack": 7697,
      "▁प्रदेश](https://hi.wikipedia.org/मध्य_प्रदेश": 7698,
      "▁[उर्दू](https://hi.wikipedia.org/उर्दू": 7699,
      "िल्ली](https://hi.wikipedia.org/दिल्ली": 7700,
      "कल_घरेलू_उत्पाद": 7701,
      "ष्णकटिबंधीय": 7702,
      "data.worldbank.org/indicator": 7703,
      "▁(अभिज्ञापक)\")": 7704,
      "రాష్ట్రాలు,_కేంద్రపాలిత_ప్రాంత": 7705,
      "*](https://www.": 7706,
      "*](https://web.archive.org/web/200": 7707,
      ",_India": 7708,
      "/M": 7709,
      "1b": 7710,
      "2)[[": 7711,
      "4_": 7712,
      "5]](https://en.wikipedia.org/India#cite_note-": 7713,
      "700": 7714,
      "8%": 7715,
      "CH": 7716,
      "Constituent": 7717,
      "Forest": 7718,
      "Ge": 7719,
      "Gangetic": 7720,
      "Hindu": 7721,
      "IB": 7722,
      "K:": 7723,
      "Navy": 7724,
      "OV": 7725,
      "PT": 7726,
      "_-": 7727,
      "_ci": 7728,
      "_un": 7729,
      "_18": 7730,
      "_2008": 7731,
      "`:": 7732,
      "aur": 7733,
      "audi": 7734,
      "bird": 7735,
      "cted": 7736,
      "dministrative": 7737,
      "digenous": 7738,
      "ealand": 7739,
      "ful": 7740,
      "hag": 7741,
      "jha": 7742,
      "jayan": 7743,
      "lé": 7744,
      "las": 7745,
      "lus": 7746,
      "mon": 7747,
      "pi": 7748,
      "ppe": 7749,
      "pub": 7750,
      "sc": 7751,
      "sla": 7752,
      "sol": 7753,
      "spect": 7754,
      "t/": 7755,
      "uri": 7756,
      "uff": 7757,
      "ying": 7758,
      "ypr": 7759,
      "{{": 7760,
      "–11": 7761,
      "–Pakistan": 7762,
      "▁X": 7763,
      "▁times": 7764,
      "ora": 7765,
      "oram": 7766,
      "orary": 7767,
      "orne": 7768,
      ".wikidata": 7769,
      "▁[Harle": 7770,
      "ena": 7771,
      "terior": 7772,
      "▁\"Special:BookSources/978": 7773,
      "in-O": 7774,
      "anal": 7775,
      "anch": 7776,
      "anies": 7777,
      "](https://en.wikipedia.org/Special:BookSources/978": 7778,
      "though": 7779,
      "hili": 7780,
      "ardian": 7781,
      "ales": 7782,
      "alak": 7783,
      "isa": 7784,
      "ison": 7785,
      "istic": 7786,
      "isak": 7787,
      "cite": 7788,
      "▁(in": 7789,
      "▁(2003": 7790,
      "▁(union": 7791,
      "ito": 7792,
      "itor": 7793,
      "itar": 7794,
      "ital": 7795,
      "itchi": 7796,
      "asar": 7797,
      "ases": 7798,
      "asian": 7799,
      "1960": 7800,
      "1967": 7801,
      "▁ins": 7802,
      "▁inter": 7803,
      "▁independence": 7804,
      "rak": 7805,
      "](https://en.wikipedia.org/India#cite_ref-1": 7806,
      "▁so": 7807,
      "▁sultanate": 7808,
      "▁small": 7809,
      "▁plate": 7810,
      "▁prin": 7811,
      "etnam": 7812,
      "laci": 7813,
      "ing,": 7814,
      "▁cre": 7815,
      "▁char": 7816,
      "▁cond": 7817,
      "▁Am": 7818,
      "aten": 7819,
      "▁Singh": 7820,
      "▁Social": 7821,
      "▁Schwartzberg": 7822,
      "▁Schedule": 7823,
      "[[13": 7824,
      "▁festival": 7825,
      "▁Cynth": 7826,
      "ation,": 7827,
      "▁trib": 7828,
      "▁turn": 7829,
      "urg": 7830,
      "urasia": 7831,
      "urasian": 7832,
      "▁mark": 7833,
      "▁mountain": 7834,
      "vert": 7835,
      "heet": 7836,
      "_of_N": 7837,
      "▁[↑](https://en.wikipedia.org/India#cite_ref-1": 7838,
      "cely": 7839,
      "ilt": 7840,
      "]](https://en.wikipedia.org/India#cite_note-1": 7841,
      "]](https://en.wikipedia.org/India#cite_note-Dyson2018": 7842,
      "▁domin": 7843,
      "▁divisions": 7844,
      "lines": 7845,
      "▁2016.": 7846,
      "olice": 7847,
      "redi": 7848,
      "emor": 7849,
      "▁Bharat": 7850,
      "nific": 7851,
      "mentin-O": 7852,
      "ignific": 7853,
      "_(union_territory": 7854,
      "ir_Force": 7855,
      "▁Desert": 7856,
      "24.": 7857,
      "24_A7C": 7858,
      "▁India\").[[": 7859,
      "1999": 7860,
      "▁E.": 7861,
      "_in_T": 7862,
      "▁eaten": 7863,
      "forest": 7864,
      "22-9": 7865,
      "▁three": 7866,
      "▁remain": 7867,
      "](https://en.wikipedia.org/India#CITEREFCraven1997": 7868,
      "▁198": 7869,
      "▁1970": 7870,
      "▁1971": 7871,
      "oday": 7872,
      "s](https://en.wikipedia.org/United": 7873,
      "▁[\"H": 7874,
      "▁[\"M": 7875,
      "▁Informatics": 7876,
      "ishes": 7877,
      "27.": 7878,
      "▁[Sri": 7879,
      "16]](https://en.wikipedia.org/India#cite_note-": 7880,
      "▁Organisation": 7881,
      "▁Olymp": 7882,
      "▁London": 7883,
      "ension": 7884,
      "▁Wiley": 7885,
      "-981": 7886,
      "_Census": 7887,
      ")\n\n[": 7888,
      ")\n\nIndia": 7889,
      "dog": 7890,
      "▁Kum": 7891,
      "api": 7892,
      "ourbaki": 7893,
      "](https://en.wikipedia.org/Climate_": 7894,
      "-2](https://en.wikipedia.org/Special:BookSources/978-1": 7895,
      ".gov.": 7896,
      "▁[↑](https://en.wikipedia.org/India#cite_ref-FOOTNOTECraven1997": 7897,
      "artial": 7898,
      "alled": 7899,
      "▁original](http://www.": 7900,
      "▁Its": 7901,
      "2006),": 7902,
      "_MG": 7903,
      "▁*[B": 7904,
      "▁\"East": 7905,
      "▁\"Economic": 7906,
      "Harvard": 7907,
      "▁development": 7908,
      "sey": 7909,
      "ians": 7910,
      "398": 7911,
      "39-4": 7912,
      "▁rise": 7913,
      "▁rupee": 7914,
      "▁[978-0-19-9": 7915,
      "▁[978-0-521-80904-7": 7916,
      "ible": 7917,
      "_Bank": 7918,
      "_Games": 7919,
      "_Nations": 7920,
      "_National_P": 7921,
      "ultures": 7922,
      "▁\"Russia": 7923,
      "▁[Russia": 7924,
      "▁\"Special:BookSources/978-0-19-9": 7925,
      "](https://en.wikipedia.org/Special:BookSources/978-0-19-9": 7926,
      "](https://en.wikipedia.org/Russia": 7927,
      "](https://en.wikipedia.org/Indus": 7928,
      "](https://en.wikipedia.org/International_": 7929,
      "▁subject": 7930,
      "Stein201011": 7931,
      "_Indian_subcontinent": 7932,
      "▁[Fisher": 7933,
      "▁(2016).": 7934,
      "_relations": 7935,
      "industani": 7936,
      "▁2023](https://en.wikipedia.org/India#CITEREF": 7937,
      "▁2026.": 7938,
      "ppines": 7939,
      "ample": 7940,
      "▁Association": 7941,
      "crimin": 7942,
      "▁about": 7943,
      "▁diversity": 7944,
      "_of_the_": 7945,
      "ID-19": 7946,
      "▁election\"),": 7947,
      "Vijayan": 7948,
      "Vietnam": 7949,
      "▁2025.\n": 7950,
      "▁traditional": 7951,
      "▁well": 7952,
      "rupee": 7953,
      "al_Pradesh": 7954,
      "Harle1994),": 7955,
      "Fisher2018),": 7956,
      "aharasht": 7957,
      "utta": 7958,
      "▁mathematics": 7959,
      "▁longer": 7960,
      "rmy": 7961,
      "▁2018](https://en.wikipedia.org/India#CITEREFFisher2018),": 7962,
      "▁highest": 7963,
      "ilies": 7964,
      "▁major": 7965,
      ".svg/40px-": 7966,
      "olden_Temple": 7967,
      "▁Publishing\").": 7968,
      "anoram": 7969,
      "izoram": 7970,
      "▁Europe*](https://books.google.com/books?id=": 7971,
      "otsp": 7972,
      "bbc": 7973,
      "▁popular": 7974,
      "emographics": 7975,
      "hristianity": 7976,
      ".org/wiki/Q": 7977,
      "orporation": 7978,
      "▁colleges": 7979,
      ".[[406]](https://en.wikipedia.org/India#cite_note-vatsyayan-lord-433": 7980,
      "67733-7": 7981,
      "ichell2000": 7982,
      "kbar": 7983,
      "▁following": 7984,
      "ataraja": 7985,
      "▁approxim": 7986,
      "IFTY": 7987,
      "](https://www.wikidata": 7988,
      "alcutta": 7989,
      "▁legis": 7990,
      "▁1994](https://en.wikipedia.org/India#CITEREFHarle1994),": 7991,
      "touchability": 7992,
      "wait": 7993,
      "8+5": 7994,
      "}}`:": 7995,
      "▁\"China\")": 7996,
      "▁developed": 7997,
      "▁1997](https://en.wikipedia.org/India#CITEREFCraven1997": 7998,
      "ufacturing": 7999,
      "OVID-19": 8000,
      "lémentin-O": 8001,
      "yprus": 8002,
      "{{cite": 8003,
      "hilippines": 8004,
      "alakrishnan": 8005,
      "itchison": 8006,
      "▁Cynthia": 8007,
      "_(union_territory)": 8008,
      "_National_Park": 8009,
      "aharashtra": 8010,
      "](https://www.wikidata.org/wiki/Q": 8011,
      "▁1997](https://en.wikipedia.org/India#CITEREFCraven1997),": 8012,
      "lémentin-Ojha": 8013,
      "#P": 8014,
      "-ag": 8015,
      "-for": 8016,
      "320": 8017,
      "520": 8018,
      "613": 8019,
      "7.\n": 8020,
      "96": 8021,
      "=`": 8022,
      "_he": 8023,
      "bd": 8024,
      "culture": 8025,
      "evanagari": 8026,
      "gi": 8027,
      "hhattisgarh": 8028,
      "ott": 8029,
      "p.org/": 8030,
      "yed": 8031,
      "क\")": 8032,
      "द्रा": 8033,
      "पूर्ण": 8034,
      "विक": 8035,
      "सर": 8036,
      "२.": 8037,
      "–13": 8038,
      "▁७": 8039,
      "▁7.": 8040,
      "orse": 8041,
      "g/250px-": 8042,
      "▁[लोक": 8043,
      "](https://en.wikipedia.org/wiki": 8044,
      "arv": 8045,
      "2022": 8046,
      "्रु": 8047,
      "ispu": 8048,
      "ica": 8049,
      "▁महा": 8050,
      "▁मिला": 8051,
      "▁India\"](https://web.archive.org/web/201": 8052,
      "laim": 8053,
      "▁capita": 8054,
      "▁Chin": 8055,
      "\n\n\n": 8056,
      "urd": 8057,
      "▁Portal": 8058,
      "▁makes": 8059,
      "▁अधिराज्य": 8060,
      "▁Mana": 8061,
      "▁दिल्ली": 8062,
      "▁Britannica": 8063,
      "▁Barb": 8064,
      "263": 8065,
      "ला\")": 8066,
      "▁प्रशास": 8067,
      "240": 8068,
      "▁Gana": 8069,
      "▁2002": 8070,
      "पुत्र": 8071,
      "18.": 8072,
      "40)": 8073,
      "13)": 8074,
      "▁संयुक्त": 8075,
      "▁Ludden": 8076,
      "मन्त": 8077,
      "मी2": 8078,
      "48)": 8079,
      "धानमन्त": 8080,
      "60)": 8081,
      "%2C_A": 8082,
      "▁१५": 8083,
      "▁Present": 8084,
      "34238": 8085,
      "anipu": 8086,
      "▁\"पूर्वी": 8087,
      "type": 8088,
      "▁हिस्": 8089,
      "▁History*](https://books.google.com/books?id=": 8090,
      "/countries/": 8091,
      "▁मान्यता": 8092,
      "्वरूप": 8093,
      "▁28.": 8094,
      "तुर्क": 8095,
      "aedia": 8096,
      "cms)": 8097,
      "imf.org/": 8098,
      "11934238": 8099,
      "भरत": 8100,
      "▁२०११": 8101,
      "cyclopaedia": 8102,
      "▁dispute": 8103,
      "arathi": 8104,
      "ोंकण": 8105,
      "न्तर्राष्ट्र": 8106,
      "▁`|": 8107,
      "_Assembly": 8108,
      "▁दृष्टि": 8109,
      "▁Ludden,": 8110,
      "anipuri": 8111,
      "%,": 8112,
      "*[": 8113,
      "-ex": 8114,
      ".bnf.fr/ark:/12148/cb": 8115,
      "/an": 8116,
      "1st": 8117,
      "3-": 8118,
      "623": 8119,
      "Economic": 8120,
      "Flag_of_India": 8121,
      "Mon": 8122,
      "_33": 8123,
      "ize": 8124,
      "music": 8125,
      "po": 8126,
      "press": 8127,
      "rance": 8128,
      "–29": 8129,
      "tten": 8130,
      "people": 8131,
      "thme": 8132,
      "▁inequality": 8133,
      "enty-": 8134,
      "▁size": 8135,
      "ritten": 8136,
      "▁Age": 8137,
      "▁Sikh": 8138,
      "▁ful": 8139,
      "▁Council": 8140,
      "ation)": 8141,
      "▁band": 8142,
      "istorical": 8143,
      "heel": 8144,
      "ficient": 8145,
      ".\n16": 8146,
      "uler": 8147,
      "▁2015.": 8148,
      "216": 8149,
      "▁Bureau": 8150,
      "▁India\")*.": 8151,
      "▁2000": 8152,
      "▁2009.": 8153,
      "▁iss": 8154,
      "▁Library": 8155,
      "ains": 8156,
      "_President_of_India": 8157,
      "ummary": 8158,
      "▁[BRICS": 8159,
      "▁\"BRICS": 8160,
      "7080": 8161,
      "▁II": 8162,
      "_Mar": 8163,
      "45)": 8164,
      "▁\"New": 8165,
      "▁provid": 8166,
      "iterature": 8167,
      "efence": 8168,
      "▁(2019).": 8169,
      "▁regional": 8170,
      "edicine": 8171,
      "▁above": 8172,
      "▁2022.\n": 8173,
      ".php": 8174,
      "Ludden200": 8175,
      ".com/news/world": 8176,
      "data.bnf.fr/ark:/12148/cb": 8177,
      "▁local": 8178,
      "▁Himalayas": 8179,
      "ogue.bnf.fr/ark:/12148/cb": 8180,
      "▁continu": 8181,
      "atabase": 8182,
      "▁Technology": 8183,
      ".edu/": 8184,
      "▁adopted": 8185,
      "onkani": 8186,
      "thmetic": 8187,
      "-W": 8188,
      "-Y": 8189,
      "-v": 8190,
      "-ar": 8191,
      "-agar": 8192,
      "-eag": 8193,
      ".JPG": 8194,
      "/g": 8195,
      "0/0": 8196,
      "0&s": 8197,
      "228": 8198,
      "728": 8199,
      "748": 8200,
      "82": 8201,
      "Curry": 8202,
      "Copland": 8203,
      "Gum": 8204,
      "Garg": 8205,
      "HQ": 8206,
      "Kumar": 8207,
      "L.": 8208,
      "SE": 8209,
      "Suk": 8210,
      "Search": 8211,
      "Template": 8212,
      "Tritsch": 8213,
      "Women": 8214,
      "Yum": 8215,
      "Young": 8216,
      "[https": 8217,
      "_Z": 8218,
      "_te": 8219,
      "_वि": 8220,
      "_21": 8221,
      "_sh": 8222,
      "_50": 8223,
      "_art": 8224,
      "_వి": 8225,
      "_77": 8226,
      "_2007": 8227,
      "_World": 8228,
      "_val": 8229,
      "_కాశ్మీ": 8230,
      "_monsoon": 8231,
      "aos": 8232,
      "a](https://en.wikipedia.org/A": 8233,
      "aze": 8234,
      "cia": 8235,
      "d=": 8236,
      "dhy": 8237,
      "ey": 8238,
      "elago": 8239,
      "fos": 8240,
      "fall": 8241,
      "gni": 8242,
      "gions": 8243,
      "iosphere": 8244,
      "k-eag": 8245,
      "mc": 8246,
      "mt": 8247,
      "nus": 8248,
      "nins": 8249,
      "nathura": 8250,
      "oe": 8251,
      "ochi": 8252,
      "otel": 8253,
      "present": 8254,
      "rid": 8255,
      "run": 8256,
      "rian": 8257,
      "ride": 8258,
      "ting": 8259,
      "u\")": 8260,
      "uter": 8261,
      "who": 8262,
      "yr": 8263,
      "zard": 8264,
      "ædia": 8265,
      "ंज़": 8266,
      "ंमार": 8267,
      "अतुल्य": 8268,
      "इतिहास": 8269,
      "उद्यान": 8270,
      "ऋग्व": 8271,
      "क्रम": 8272,
      "कृष्ण": 8273,
      "घा": 8274,
      "जवा": 8275,
      "टन": 8276,
      "टा": 8277,
      "ठा": 8278,
      "ठार": 8279,
      "णे": 8280,
      "तः": 8281,
      "थुरा": 8282,
      "दून": 8283,
      "दयपुर": 8284,
      "धता": 8285,
      "धोला": 8286,
      "नि": 8287,
      "नै": 8288,
      "नजं": 8289,
      "निवेश": 8290,
      "पद": 8291,
      "पीप": 8292,
      "मेव": 8293,
      "मोर": 8294,
      "यण": 8295,
      "रत": 8296,
      "रिक": 8297,
      "ल-": 8298,
      "लेशिया": 8299,
      "वर": 8300,
      "व\")": 8301,
      "वरा": 8302,
      "वरण": 8303,
      "शहरा": 8304,
      "सित": 8305,
      "़तर": 8306,
      "ाग": 8307,
      "िप": 8308,
      "ेज": 8309,
      "ेहरा": 8310,
      "ैम्ब": 8311,
      "ोज": 8312,
      "ोढ़": 8313,
      "ोसी": 8314,
      "ोटे": 8315,
      "ोडिया": 8316,
      "ोवियत": 8317,
      "ोबार": 8318,
      "्मार": 8319,
      "२०१": 8320,
      "४०": 8321,
      "ంస్కృ": 8322,
      "ఉత్తరా": 8323,
      "ఖో": 8324,
      "ఘాలయ": 8325,
      "చ్": 8326,
      "టై": 8327,
      "టర్": 8328,
      "డమ్": 8329,
      "డఖ్": 8330,
      "ణే": 8331,
      "ణంగా": 8332,
      "తే": 8333,
      "తెల": 8334,
      "దరంగ": 8335,
      "నో": 8336,
      "నంద": 8337,
      "బర్": 8338,
      "బార్": 8339,
      "యె": 8340,
      "రె": 8341,
      "లడఖ్": 8342,
      "ళా": 8343,
      "ళి": 8344,
      "శు": 8345,
      "హించ": 8346,
      "ుకు": 8347,
      "ెన్న": 8348,
      "ెట్రో": 8349,
      "ేతి": 8350,
      "ేఘాలయ": 8351,
      "ైనిక": 8352,
      "ొగలు": 8353,
      "ోళ": 8354,
      "‌కా": 8355,
      "‌మహ": 8356,
      "▁x": 8357,
      "▁ढ": 8358,
      "▁६": 8359,
      "▁८": 8360,
      "▁ఐ": 8361,
      "▁ఖ": 8362,
      "▁enti": 8363,
      "▁go": 8364,
      "▁op": 8365,
      "▁rit": 8366,
      "▁–సా.శ.": 8367,
      "▁భారతీయ": 8368,
      "▁9.": 8369,
      "▁भाजपा": 8370,
      "▁very": 8371,
      "▁ईस्ट": 8372,
      "oro": 8373,
      "orbe": 8374,
      "ttac": 8375,
      "perc": 8376,
      "kid=": 8377,
      "▁[ना": 8378,
      "▁[का": 8379,
      "▁[धर्म": 8380,
      "▁[రాష్ట్ర": 8381,
      "▁[జన": 8382,
      "▁[గో": 8383,
      "▁[विश्व": 8384,
      "▁[...]": 8385,
      "enced": 8386,
      "tesv": 8387,
      "▁\"Y": 8388,
      "▁\"ख": 8389,
      "▁\"పా": 8390,
      "▁\"జన": 8391,
      "▁\"గో": 8392,
      "▁\"మూస:": 8393,
      "▁\"हैदराबाद": 8394,
      "▁\"ISO": 8395,
      "inan": 8396,
      "anion": 8397,
      "Infos": 8398,
      "](https://en.wikipedia.org/United": 8399,
      "](https://en.wikipedia.org/South_Asia": 8400,
      "thang": 8401,
      "th_East_Asia_Summit": 8402,
      "til": 8403,
      "hip": 8404,
      "hild": 8405,
      "India_G": 8406,
      "era": 8407,
      "erce": 8408,
      "arayan": 8409,
      "20).": 8410,
      "alol": 8411,
      "altw": 8412,
      "ारा": 8413,
      "ारनाथ": 8414,
      "](https://hi.wikipedia.org/श": 8415,
      "](https://hi.wikipedia.org/सा": 8416,
      "](https://hi.wikipedia.org/विश्व": 8417,
      "▁क्रम": 8418,
      "▁कंपन": 8419,
      "▁क्रांति": 8420,
      "्रिज": 8421,
      "isted": 8422,
      "भारत_के_राज्य": 8423,
      "oms": 8424,
      "omic": 8425,
      "edary": 8426,
      "andy": 8427,
      "anding": 8428,
      "andoor": 8429,
      "andemic": 8430,
      "▁सर्वोच्च": 8431,
      "▁सहायक": 8432,
      "▁(S": 8433,
      "▁(2010": 8434,
      "▁(nominal)": 8435,
      "ought": 8436,
      "▁माना": 8437,
      "▁महारजिस्ट्रार": 8438,
      "▁India](https://en.wikipedia.org/P": 8439,
      "▁India](https://en.wikipedia.org/E": 8440,
      "▁India\".": 8441,
      "ooking": 8442,
      "](https://te.wikipedia.org/G": 8443,
      "](https://te.wikipedia.org/భారతదేశ": 8444,
      "](https://te.wikipedia.org/గో": 8445,
      "](https://te.wikipedia.org/మూస:": 8446,
      "रान": 8447,
      "रामा": 8448,
      "▁पू": 8449,
      "▁पत्र": 8450,
      "▁पब्ल": 8451,
      "▁परीक्षण": 8452,
      "entin": 8453,
      "ently": 8454,
      "▁shar": 8455,
      "▁science": 8456,
      "▁series": 8457,
      "▁signific": 8458,
      "▁pass": 8459,
      "▁poli": 8460,
      "▁purp": 8461,
      "▁plant": 8462,
      "ritical": 8463,
      "ారస్వ": 8464,
      "ानपान": 8465,
      "ानेर-": 8466,
      "ing)": 8467,
      "ingle": 8468,
      "▁car": 8469,
      "▁court": 8470,
      "▁cricket": 8471,
      "▁coral": 8472,
      "▁cultural": 8473,
      "▁A.": 8474,
      "am/": 8475,
      "ush": 8476,
      "usion": 8477,
      "atpura": 8478,
      ").[[": 8479,
      "▁Sub": 8480,
      "▁Some": 8481,
      "▁SCO": 8482,
      "▁Studies": 8483,
      "▁हव": 8484,
      "▁fact": 8485,
      "▁flow": 8486,
      "▁Cup": 8487,
      "▁Caves": 8488,
      "acter": 8489,
      "ago": 8490,
      "agman": 8491,
      "agran": 8492,
      "agogue": 8493,
      "angra": 8494,
      "angla": 8495,
      "angrove": 8496,
      "▁bas": 8497,
      "▁bread": 8498,
      "▁border": 8499,
      "▁birth": 8500,
      "urther": 8501,
      "ads": 8502,
      "adav": 8503,
      "यास": 8504,
      "िकेश": 8505,
      "िकास": 8506,
      "िकोबार": 8507,
      "umer": 8508,
      "▁Political": 8509,
      "▁Puran": 8510,
      "ాలె": 8511,
      "▁mo": 8512,
      "▁met": 8513,
      "▁may": 8514,
      "istence": 8515,
      "▁अब": 8516,
      "▁अमीरात": 8517,
      "▁अलावा": 8518,
      "chae": 8519,
      "roti": 8520,
      "roban": 8521,
      "rotected": 8522,
      "ों_और": 8523,
      "illennium": 8524,
      "స్ట": 8525,
      "స్\")": 8526,
      "స్వాతంత్ర్య": 8527,
      "▁won": 8528,
      "unbird": 8529,
      "107": 8530,
      "▁పర": 8531,
      "▁పండు": 8532,
      "▁Mughal": 8533,
      "▁dances": 8534,
      "▁dynast": 8535,
      ".\n8": 8536,
      ".\n23": 8537,
      ".\n37": 8538,
      "▁जाना": 8539,
      "▁जहाँ": 8540,
      "ाली\")": 8541,
      "linkid=": 8542,
      "▁दर्": 8543,
      "tices": 8544,
      "▁top": 8545,
      "▁today": 8546,
      "▁Bangladesh": 8547,
      "rested": 8548,
      "ateway": 8549,
      "▁बह": 8550,
      "▁बि": 8551,
      "▁ब्यूरो": 8552,
      "ंगोल": 8553,
      "▁प्रत्य": 8554,
      "▁प्रयास": 8555,
      "iris": 8556,
      "▁की।": 8557,
      "तिरु": 8558,
      "▁Des": 8559,
      "▁निर": 8560,
      "indoor": 8561,
      "independ": 8562,
      "ताम": 8563,
      "▁[↑](https://en.wikipedia.org/India#cite_ref-Combined": 8564,
      "లు](https://te.wikipedia.org/": 8565,
      "eck": 8566,
      "రాన్": 8567,
      "రాస్య": 8568,
      "1992": 8569,
      "▁Emirate": 8570,
      "Special:Search": 8571,
      "_in_M": 8572,
      "स्तिक": 8573,
      "Special:BookSources/978-0": 8574,
      "▁वीं": 8575,
      "▁वाला": 8576,
      "▁కే": 8577,
      "▁కోర్": 8578,
      "▁epic": 8579,
      "romedary": 8580,
      "▁आप": 8581,
      "▁आया": 8582,
      "▁आयुक्त": 8583,
      "▁आदि": 8584,
      "త్రిక": 8585,
      "ास्": 8586,
      "-4)": 8587,
      "-46": 8588,
      "క్స్": 8589,
      "క్కి": 8590,
      "▁तीन": 8591,
      "▁వె": 8592,
      "▁వంట": 8593,
      "rynus": 8594,
      "_SCO": 8595,
      "_Sindoor": 8596,
      "ubs": 8597,
      "स्‍": 8598,
      "_Arab": 8599,
      "est_B": 8600,
      "ell": 8601,
      "▁however,": 8602,
      "ables": 8603,
      "abhad": 8604,
      "abelago": 8605,
      "akar": 8606,
      "▁nuclear": 8607,
      "oder": 8608,
      "माख्या": 8609,
      "▁[\"In": 8610,
      "▁Food": 8611,
      "ంగో": 8612,
      "▁సముద్ర": 8613,
      "▁సూచ": 8614,
      "▁సౌక": 8615,
      "▁Intelligence": 8616,
      ".[[30": 8617,
      "▁उन्": 8618,
      "▁उच्च": 8619,
      "2755": 8620,
      "im_C": 8621,
      "▁पर्यटन\")": 8622,
      "్రామ": 8623,
      "AAAAMAAJ": 8624,
      "▁[Andaman": 8625,
      "▁[मराठ": 8626,
      "▁\"Chola": 8627,
      "_केन्द्र": 8628,
      "os/": 8629,
      "▁grad": 8630,
      "ండా": 8631,
      "ండీ": 8632,
      "ండ్య": 8633,
      "िलों": 8634,
      "▁विषय": 8635,
      "▁विभाजन": 8636,
      "▁विभिन्न": 8637,
      "-9](https://en.wikipedia.org/Special:BookSources/978-0-": 8638,
      "_Cons": 8639,
      "_Co-operation": 8640,
      "_Per": 8641,
      "_Publishing": 8642,
      "म्न": 8643,
      "](https://books.google.com/books?id=ZvaGuaJIJgoC&pg=PA": 8644,
      "्यांमार": 8645,
      "uck": 8646,
      "aproban": 8647,
      "తాజ్": 8648,
      "నాథ": 8649,
      "ियम": 8650,
      "ot:": 8651,
      "▁win": 8652,
      "▁\"Sri": 8653,
      "త్వా": 8654,
      "సింది.": 8655,
      "-2](https://en.wikipedia.org/Special:BookSources/978-0-": 8656,
      "overn": 8657,
      "▁[↑](https://en.wikipedia.org/India#cite_ref-FOOTNOTEDikshitSchwartzberg2023": 8658,
      "ysHQ": 8659,
      "ajya": 8660,
      "▁(సా.శ.16": 8661,
      "िसी": 8662,
      "ులు?action=edit&redlink=1": 8663,
      "1.asp?": 8664,
      "▁साक्षरता": 8665,
      "-526": 8666,
      "▁అభి": 8667,
      "▁[Bangladesh": 8668,
      "▁ప్రజా": 8669,
      "मनिरपेक्ष": 8670,
      "earning": 8671,
      "पावा": 8672,
      "पाषाण": 8673,
      "](https://en.wikipedia.org/Sri": 8674,
      "](https://en.wikipedia.org/Sanskrit": 8675,
      "allalli": 8676,
      "▁\"Andaman": 8677,
      "తం?action=edit&redlink=1": 8678,
      "▁\"Pakistan": 8679,
      "oreign_": 8680,
      "_and_B": 8681,
      "_and_Kashmir": 8682,
      "हाई": 8683,
      "हाजन": 8684,
      "_Missile": 8685,
      "_Mahal": 8686,
      "irelease.aspx?rel": 8687,
      "పూర్": 8688,
      "384": 8689,
      "-6\").": 8690,
      "मीन": 8691,
      "temporary": 8692,
      "](https://en.wikipedia.org/Pakistan": 8693,
      "▁करते": 8694,
      "ప్రిల్": 8695,
      "द्दाख": 8696,
      "▁ఉంట": 8697,
      "▁ఉత్తర": 8698,
      "▁\"Ethnic": 8699,
      "ociated": 8700,
      "erala\")": 8701,
      "▁१३": 8702,
      "श्रेणी:CS": 8703,
      "▁సామా": 8704,
      "▁defe": 8705,
      "▁anim": 8706,
      "వాద": 8707,
      "stan\")": 8708,
      "విధ": 8709,
      "ార్ఖండ్": 8710,
      "](https://en.wikipedia.org/Economic": 8711,
      "_Reg": 8712,
      "ंदिरा": 8713,
      "▁\"सिक्किम": 8714,
      "క్షరాస్య": 8715,
      "](https://mai.wikipedia.org/म": 8716,
      "▁[सिक्किम": 8717,
      "engal_": 8718,
      "enguin": 8719,
      "MetcalfMetcalf201": 8720,
      "नीताल": 8721,
      "ports/": 8722,
      "जनगणना": 8723,
      "द्यनाथ": 8724,
      "▁खास": 8725,
      "▁[Dikshit": 8726,
      "▁\"बांग्ला": 8727,
      "त्स": 8728,
      "▁चल": 8729,
      "▁[En": 8730,
      "▁[East": 8731,
      "▁[European": 8732,
      "तीस": 8733,
      "పుర": 8734,
      "▁నడి": 8735,
      "▁[Re": 8736,
      "▁[Robb": 8737,
      "obile": 8738,
      "▁ఇండియా": 8739,
      "▁[बांग्ला": 8740,
      "](https://hi.wikipedia.org/सिक्किम": 8741,
      "566": 8742,
      "▁इसकी": 8743,
      "▁peoples": 8744,
      "▁penins": 8745,
      "िवार": 8746,
      "hoti": 8747,
      "hyan": 8748,
      "▁\"Hinduism": 8749,
      "र्थन": 8750,
      "▁[Kerala": 8751,
      "▁समर्थन": 8752,
      "](https://hi.wikipedia.org/बांग्ला": 8753,
      "मिलन": 8754,
      "फ़िल": 8755,
      "फ़्रीका": 8756,
      "గుప్": 8757,
      "డుకు": 8758,
      "నేషియా": 8759,
      "▁[पश्चिम": 8760,
      "uring_O": 8761,
      "ంగాణ": 8762,
      "हुमूल्य": 8763,
      "▁२००": 8764,
      "▁జన": 8765,
      "లియా": 8766,
      "](https://en.wikipedia.org/Indonesia": 8767,
      "roups": 8768,
      "▁ప్రాచ": 8769,
      "▁విభ": 8770,
      "▁వివిధ": 8771,
      "▁సంఘ": 8772,
      "uggle": 8773,
      "_the_": 8774,
      "जीवन": 8775,
      "_by_Indian_": 8776,
      "▁किया।[[": 8777,
      "ండిచ్చేరి": 8778,
      "AsherTalbot2006),": 8779,
      "%E0%A5%": 8780,
      "ounding": 8781,
      "▁[Indus": 8782,
      "▁[Indonesia": 8783,
      "वनेश्वर": 8784,
      "वनवर्ल्ड": 8785,
      "▁गया।": 8786,
      ".jpg)](https://en.wikipedia.org/File:B": 8787,
      ".jpg)](https://en.wikipedia.org/File:C": 8788,
      "](https://hi.wikipedia.org/भारत_का": 8789,
      "07%2F": 8790,
      "▁agglom": 8791,
      "स्थाप": 8792,
      "ynagogue": 8793,
      "_music": 8794,
      "ामित्व": 8795,
      "arch_2004": 8796,
      "च्चे": 8797,
      "▁मानचित्र": 8798,
      "▁संघर्ष": 8799,
      "▁१९६": 8800,
      "▁१९७": 8801,
      "दाबाद": 8802,
      "జీరియా": 8803,
      "lad-agar": 8804,
      "▁[West": 8805,
      "ంకేతి": 8806,
      "వేలీ": 8807,
      "▁Prospect": 8808,
      "national-language": 8809,
      "▁parties": 8810,
      "ंपनी": 8811,
      "ंपानेर-": 8812,
      "_Organisation": 8813,
      "रक्षित": 8814,
      "▁[Iran": 8815,
      "urrency": 8816,
      "ार्श": 8817,
      "▁[↑](https://hi.wikipedia.org/भारत#cite_ref-FOOTNOTESingh2009": 8818,
      "▁ప్రాంతాలు\")": 8819,
      "-17feb": 8820,
      "బియా": 8821,
      "oastal": 8822,
      "aceu": 8823,
      "1947)": 8824,
      "लिपुरम": 8825,
      "డామన్": 8826,
      "▁రాష్ట్రపతి": 8827,
      "▁भूगोल": 8828,
      "vanabelago": 8829,
      "▁[3](https://en.wikipedia.org/India#cite_ref-": 8830,
      "▁[3](https://en.wikipedia.org/India#cite_ref-FOOTNOTE": 8831,
      "\").\n4": 8832,
      "भूम": 8833,
      "త్రిపుర": 8834,
      "flic": 8835,
      "त्यमेव": 8836,
      "–119": 8837,
      "_కాల": 8838,
      "पी.": 8839,
      "▁छोड़": 8840,
      "▁[दिल्ली](https://hi.wikipedia.org/दिल्ली": 8841,
      "राष्ट्रपति](https://hi.wikipedia.org/भारत_के_": 8842,
      "▁common": 8843,
      "▁election](https://en.wikipedia.org/": 8844,
      "▁రైల్వే": 8845,
      "▁2006](https://en.wikipedia.org/India#CITEREFAsherTalbot2006),": 8846,
      "वैद्यनाथ": 8847,
      "▁music\")": 8848,
      "ल्प": 8849,
      "ल्पा": 8850,
      "య్యూ": 8851,
      "త్తీస్": 8852,
      "▁ప్రదేశ్](https://te.wikipedia.org/": 8853,
      "ैकमिलन": 8854,
      "ोमाल": 8855,
      "నాగాలా": 8856,
      "▁[\"India's": 8857,
      "miling": 8858,
      "ungabhad": 8859,
      "rganisation_for": 8860,
      "गोलशा": 8861,
      "▁\"జమ్మూ": 8862,
      "▁support": 8863,
      "adiverse": 8864,
      "ilgiris": 8865,
      "वीरा": 8866,
      "](https://hi.wikipedia.org/संयुक्त": 8867,
      "▁పాకిస్తాన్": 8868,
      "hindirelease.aspx?rel": 8869,
      "▁endangered": 8870,
      "▁earliest": 8871,
      "_BRICS_Games": 8872,
      "nclm.nic.in/index": 8873,
      "uttaph": 8874,
      "ंटर": 8875,
      "ंटार्कटिका": 8876,
      "ौर्य": 8877,
      "కోవ": 8878,
      "కోబార్": 8879,
      "](https://te.wikipedia.org/జమ్మూ": 8880,
      "ammu_and_Kashmir": 8881,
[...]
