{
  "version": "1.0",
  "truncation": null,
  "padding": null,
  "added_tokens": [
    {
      "id": 0,
      "content": "<pad>",
      "single_word": false,
      "lstrip": false,
      "rstrip": false,
      "normalized": false,
      "special": true
    },
    {
      "id": 1,
      "content": "<unk>",
      "single_word": false,
      "lstrip": false,
      "rstrip": false,
      "normalized": false,
      "special": true
    },
    {
      "id": 2,
      "content": "<bos>",
      "single_word": false,
      "lstrip": false,
      "rstrip": false,
      "normalized": false,
      "special": true
    },
    {
      "id": 3,
      "content": "<eos>",
      "single_word": false,
      "lstrip": false,
      "rstrip": false,
      "normalized": false,
      "special": true
    }
  ],
  "normalizer": null,
  "pre_tokenizer": {
    "type": "Metaspace",
    "replacement": "▁",
    "prepend_scheme": "never",
    "split": true
  },
  "post_processor": null,
  "decoder": {
    "type": "Metaspace",
    "replacement": "▁",
    "prepend_scheme": "never",
    "split": true
  },
  "model": {
    "type": "BPE",
    "dropout": null,
    "unk_token": "<unk>",
    "continuing_subword_prefix": null,
    "end_of_word_suffix": null,
    "fuse_unk": false,
    "byte_fallback": false,
    "ignore_merges": false,
    "vocab": {
      "<pad>": 0,
      "<unk>": 1,
      "<bos>": 2,
      "<eos>": 3,
      "\n": 4,
      "!": 5,
      "\"": 6,
      "#": 7,
      "$": 8,
      "%": 9,
      "&": 10,
      "'": 11,
      "(": 12,
      ")": 13,
      "*": 14,
      "+": 15,
      ",": 16,
      "-": 17,
      ".": 18,
      "/": 19,
      "0": 20,
      "1": 21,
      "2": 22,
      "3": 23,
      "4": 24,
      "5": 25,
      "6": 26,
      "7": 27,
      "8": 28,
      "9": 29,
      ":": 30,
      ";": 31,
      "<": 32,
      "=": 33,
      ">": 34,
      "?": 35,
      "A": 36,
      "B": 37,
      "C": 38,
      "D": 39,
      "E": 40,
      "F": 41,
      "G": 42,
      "H": 43,
      "I": 44,
      "J": 45,
      "K": 46,
      "L": 47,
      "M": 48,
      "N": 49,
      "O": 50,
      "P": 51,
      "Q": 52,
      "R": 53,
      "S": 54,
      "T": 55,
      "U": 56,
      "V": 57,
      "W": 58,
      "X": 59,
      "Y": 60,
      "Z": 61,
      "[": 62,
      "\\": 63,
      "]": 64,
      "^": 65,
      "_": 66,
      "`": 67,
      "a": 68,
      "b": 69,
      "c": 70,
      "d": 71,
      "e": 72,
      "f": 73,
      "g": 74,
      "h": 75,
      "i": 76,
      "j": 77,
      "k": 78,
      "l": 79,
      "m": 80,
      "n": 81,
      "o": 82,
      "p": 83,
      "q": 84,
      "r": 85,
      "s": 86,
      "t": 87,
      "u": 88,
      "v": 89,
      "w": 90,
      "x": 91,
      "y": 92,
      "z": 93,
      "{": 94,
      "|": 95,
      "}": 96,
      "~": 97,
      "°": 98,
      "·": 99,
      "Ö": 100,
      "á": 101,
      "â": 102,
      "æ": 103,
      "ç": 104,
      "è": 105,
      "é": 106,
      "í": 107,
      "ñ": 108,
      "ö": 109,
      "ø": 110,
      "ü": 111,
      "ā": 112,
      "ī": 113,
      "İ": 114,
      "ņ": 115,
      "Ś": 116,
      "ś": 117,
      "ū": 118,
      "ș": 119,
      "ə": 120,
      "ɦ": 121,
      "ɪ": 122,
      "ɾ": 123,
      "ʊ": 124,
      "ʱ": 125,
      "ʼ": 126,
      "ˈ": 127,
      "ː": 128,
      "ί": 129,
      "α": 130,
      "δ": 131,
      "θ": 132,
      "ν": 133,
      "π": 134,
      "ς": 135,
      "ό": 136,
      "ँ": 137,
      "ं": 138,
      "ः": 139,
      "अ": 140,
      "आ": 141,
      "इ": 142,
      "ई": 143,
      "उ": 144,
      "ऊ": 145,
      "ऋ": 146,
      "ऍ": 147,
      "ए": 148,
      "ऐ": 149,
      "ऑ": 150,
      "ओ": 151,
      "औ": 152,
      "क": 153,
      "ख": 154,
      "ग": 155,
      "घ": 156,
      "ङ": 157,
      "च": 158,
      "छ": 159,
      "ज": 160,
      "झ": 161,
      "ञ": 162,
      "ट": 163,
      "ठ": 164,
      "ड": 165,
      "ढ": 166,
      "ण": 167,
      "त": 168,
      "थ": 169,
      "द": 170,
      "ध": 171,
      "न": 172,
      "प": 173,
      "फ": 174,
      "ब": 175,
      "भ": 176,
      "म": 177,
      "य": 178,
      "र": 179,
      "ल": 180,
      "ळ": 181,
      "व": 182,
      "श": 183,
      "ष": 184,
      "स": 185,
      "ह": 186,
      "़": 187,
      "ा": 188,
      "ि": 189,
      "ी": 190,
      "ु": 191,
      "ू": 192,
      "ृ": 193,
      "े": 194,
      "ै": 195,
      "ॉ": 196,
      "ॊ": 197,
      "ो": 198,
      "ौ": 199,
      "्": 200,
      "।": 201,
      "०": 202,
      "१": 203,
      "२": 204,
      "३": 205,
      "४": 206,
      "५": 207,
      "६": 208,
      "७": 209,
      "८": 210,
      "९": 211,
      "॰": 212,
      "ం": 213,
      "ః": 214,
      "అ": 215,
      "ఆ": 216,
      "ఇ": 217,
      "ఈ": 218,
      "ఉ": 219,
      "ఋ": 220,
      "ఎ": 221,
      "ఏ": 222,
      "ఐ": 223,
      "ఒ": 224,
      "ఓ": 225,
      "ఔ": 226,
      "క": 227,
      "ఖ": 228,
      "గ": 229,
      "ఘ": 230,
      "చ": 231,
      "ఛ": 232,
      "జ": 233,
      "ఞ": 234,
      "ట": 235,
      "ఠ": 236,
      "డ": 237,
      "ఢ": 238,
      "ణ": 239,
      "త": 240,
      "థ": 241,
      "ద": 242,
      "ధ": 243,
      "న": 244,
      "ప": 245,
      "ఫ": 246,
      "బ": 247,
      "భ": 248,
      "మ": 249,
      "య": 250,
      "ర": 251,
      "ల": 252,
      "ళ": 253,
      "వ": 254,
      "శ": 255,
      "ష": 256,
      "స": 257,
      "హ": 258,
      "ా": 259,
      "ి": 260,
      "ీ": 261,
      "ు": 262,
      "ూ": 263,
      "ృ": 264,
      "ె": 265,
      "ే": 266,
      "ై": 267,
      "ొ": 268,
      "ో": 269,
      "ౌ": 270,
      "్": 271,
      "ಂ": 272,
      "ಅ": 273,
      "ಆ": 274,
      "ಇ": 275,
      "ಈ": 276,
      "ಉ": 277,
      "ಋ": 278,
      "ಎ": 279,
      "ಏ": 280,
      "ಐ": 281,
      "ಒ": 282,
      "ಓ": 283,
      "ಕ": 284,
      "ಖ": 285,
      "ಗ": 286,
      "ಘ": 287,
      "ಚ": 288,
      "ಛ": 289,
      "ಜ": 290,
      "ಝ": 291,
      "ಞ": 292,
      "ಟ": 293,
      "ಠ": 294,
      "ಡ": 295,
      "ಢ": 296,
      "ಣ": 297,
      "ತ": 298,
      "ಥ": 299,
      "ದ": 300,
      "ಧ": 301,
      "ನ": 302,
      "ಪ": 303,
      "ಫ": 304,
      "ಬ": 305,
      "ಭ": 306,
      "ಮ": 307,
      "ಯ": 308,
      "ರ": 309,
      "ಲ": 310,
      "ಳ": 311,
      "ವ": 312,
      "ಶ": 313,
      "ಷ": 314,
      "ಸ": 315,
      "ಹ": 316,
      "಼": 317,
      "ಾ": 318,
      "ಿ": 319,
      "ೀ": 320,
      "ು": 321,
      "ೂ": 322,
      "ೃ": 323,
      "ೆ": 324,
      "ೇ": 325,
      "ೈ": 326,
      "ೊ": 327,
      "ೋ": 328,
      "ೌ": 329,
      "್": 330,
      "೦": 331,
      "೧": 332,
      "೨": 333,
      "೩": 334,
      "೪": 335,
      "೫": 336,
      "೬": 337,
      "೭": 338,
      "೮": 339,
      "೯": 340,
      "ṇ": 341,
      "Ṛ": 342,
      "ṣ": 343,
      "ṭ": 344,
      "Ἰ": 345,
      " ": 346,
      " ": 347,
      "‌": 348,
      "‍": 349,
      "‎": 350,
      "–": 351,
      "—": 352,
      "‘": 353,
      "’": 354,
      "“": 355,
      "”": 356,
      "†": 357,
      "‡": 358,
      "•": 359,
      "′": 360,
      "″": 361,
      "‹": 362,
      "›": 363,
      "⁡": 364,
      "₹": 365,
      "↑": 366,
      "−": 367,
      "ⓘ": 368,
      "▁": 369,
      "▪": 370,
      "﻿": 371,
      "ia": 372,
      "dia": 373,
      "or": 374,
      "ht": 375,
      "tp": 376,
      ":/": 377,
      "http": 378,
      "://": 379,
      "pe": 380,
      "](": 381,
      "](http": 382,
      "s://": 383,
      "](https://": 384,
      "g/": 385,
      "wi": 386,
      "ki": 387,
      ".or": 388,
      ".org/": 389,
      "wiki": 390,
      "pedia": 391,
      ".wiki": 392,
      "pedia.org/": 393,
      ".wikipedia.org/": 394,
      "▁[": 395,
      "en": 396,
      "te": 397,
      "▁\"": 398,
      "\")": 399,
      "in": 400,
      "on": 401,
      "an": 402,
      "In": 403,
      "ti": 404,
      "](https://en": 405,
      "](https://en.wikipedia.org/": 406,
      "th": 407,
      "India": 408,
      "re": 409,
      "20": 410,
      "▁|": 411,
      "er": 412,
      "al": 413,
      "ar": 414,
      "hi": 415,
      "es": 416,
      "of": 417,
      "tion": 418,
      "is": 419,
      "ार": 420,
      "the": 421,
      "ci": 422,
      "](https://hi": 423,
      "](https://hi.wikipedia.org/": 424,
      "ed": 425,
      "om": 426,
      "▁क": 427,
      "it": 428,
      "▁-": 429,
      "and": 430,
      "te_": 431,
      "▁(": 432,
      "్ర": 433,
      "▁of": 434,
      "▁the": 435,
      "#ci": 436,
      "#cite_": 437,
      "ou": 438,
      "](https://te": 439,
      "](https://te.wikipedia.org/": 440,
      "्र": 441,
      "as": 442,
      "201": 443,
      "](https://en.wikipedia.org/India": 444,
      "भार": 445,
      "ార": 446,
      "भारत": 447,
      "ic": 448,
      "▁India": 449,
      "19": 450,
      "le": 451,
      "tr": 452,
      "▁स": 453,
      "oo": 454,
      "▁in": 455,
      "OT": 456,
      "ation": 457,
      "no": 458,
      "**": 459,
      "id": 460,
      "ac": 461,
      "](https://en.wikipedia.org/India#cite_": 462,
      "▁s": 463,
      "ent": 464,
      "▁and": 465,
      "at": 466,
      "-0": 467,
      "▁p": 468,
      "200": 469,
      "ాల": 470,
      "am": 471,
      "▁c": 472,
      "▁म": 473,
      "ad": 474,
      "▁A": 475,
      "-1": 476,
      "्य": 477,
      "us": 478,
      "్య": 479,
      "ing": 480,
      ").": 481,
      "ref": 482,
      "\n\n": 483,
      "ag": 484,
      "note": 485,
      "భార": 486,
      "భారత": 487,
      "▁S": 488,
      "దే": 489,
      "▁f": 490,
      "[[": 491,
      "▁C": 492,
      "స్": 493,
      "ook": 494,
      "ate": 495,
      "దేశ": 496,
      "ve": 497,
      "रा": 498,
      "▁प": 499,
      "▁ప": 500,
      "ref-": 501,
      "note-": 502,
      "lo": 503,
      "▁b": 504,
      "li": 505,
      "ur": 506,
      "ang": 507,
      "et": 508,
      "kn": 509,
      "సా": 510,
      "um": 511,
      "we": 512,
      "](https://kn": 513,
      "](https://kn.wikipedia.org/": 514,
      "\"),": 515,
      "▁1": 516,
      "78": 517,
      "ww": 518,
      "red": 519,
      "ul": 520,
      "he": 521,
      "▁P": 522,
      "್ರ": 523,
      "న్": 524,
      "to": 525,
      "il": 526,
      "ಾರ": 527,
      "▁m": 528,
      "ें": 529,
      "_of": 530,
      "ान": 531,
      "lin": 532,
      "_of_": 533,
      "00": 534,
      "com": 535,
      "ర్": 536,
      "ver": 537,
      "▁|\n": 538,
      "▁के": 539,
      "र्": 540,
      "▁|\n|": 541,
      "](https://hi.wikipedia.org/भारत": 542,
      "ter": 543,
      "IS": 544,
      "ch": 545,
      "▁ह": 546,
      "▁201": 547,
      "▁[↑": 548,
      "ial": 549,
      "ce": 550,
      "FO": 551,
      "NOT": 552,
      "OTNOT": 553,
      "FOOTNOT": 554,
      "FOOTNOTE": 555,
      "21": 556,
      "्त": 557,
      "ol": 558,
      "978": 559,
      "ist": 560,
      "BN": 561,
      "=1": 562,
      "ISBN": 563,
      "▁a": 564,
      ".\n": 565,
      "ro": 566,
      "action": 567,
      "link": 568,
      "లు": 569,
      "▁R": 570,
      "▁d": 571,
      "edit": 572,
      "action=": 573,
      "fi": 574,
      "action=edit": 575,
      "un": 576,
      "st": 577,
      "▁T": 578,
      "&red": 579,
      "?action=edit": 580,
      "link=1": 581,
      "&redlink=1": 582,
      "?action=edit&redlink=1": 583,
      "రా": 584,
      "our": 585,
      "ig": 586,
      "▁**": 587,
      "ons": 588,
      "]](https://en.wikipedia.org/India#cite_": 589,
      "▁M": 590,
      "](https://en.wikipedia.org/India#cite_ref-": 591,
      "]](https://en.wikipedia.org/India#cite_note-": 592,
      "enti": 593,
      "web": 594,
      "ra": 595,
      "chi": 596,
      "భారతదేశ": 597,
      ".శ": 598,
      "▁w": 599,
      ".శ.": 600,
      "िक": 601,
      "లో": 602,
      "ಭಾರ": 603,
      "या": 604,
      "సా.శ.": 605,
      "ಭಾರತ": 606,
      "res": 607,
      "identi": 608,
      "er)": 609,
      "ment": 610,
      "identifi": 611,
      "identifier)": 612,
      "▁में": 613,
      "tic": 614,
      "▁క": 615,
      "್ಯ": 616,
      "-0)": 617,
      "ीय": 618,
      "▁2": 619,
      "ni": 620,
      "▁to": 621,
      "▁अ": 622,
      "book": 623,
      "es/": 624,
      "india": 625,
      ".g": 626,
      "▁B": 627,
      "ir": 628,
      "త్ర": 629,
      "▁D": 630,
      "em": 631,
      "cial": 632,
      "ాలు": 633,
      "రి": 634,
      "క్": 635,
      "tri": 636,
      "ంద": 637,
      "10": 638,
      "),": 639,
      "pg": 640,
      "age": 641,
      "_(": 642,
      "ని": 643,
      "ों": 644,
      "▁వ": 645,
      ".j": 646,
      "ity": 647,
      "ri": 648,
      "50": 649,
      "\").": 650,
      "▁\"S": 651,
      "-2": 652,
      "▁l": 653,
      "books": 654,
      "202": 655,
      ".com": 656,
      "ind": 657,
      "वि": 658,
      "oun": 659,
      "ना": 660,
      "ec": 661,
      "sia": 662,
      "▁ज": 663,
      "▁19": 664,
      ".com/": 665,
      "IT": 666,
      "](https://en.wikipedia.org/S": 667,
      "ved": 668,
      "್ತ": 669,
      "▁*": 670,
      "ion": 671,
      "ల్": 672,
      "me": 673,
      "ay": 674,
      "्ष": 675,
      "angu": 676,
      "▁[↑](https://en.wikipedia.org/India#cite_ref-": 677,
      "pecial": 678,
      "30": 679,
      "ly": 680,
      "_क": 681,
      "ाल": 682,
      "భారతదేశం": 683,
      "RE": 684,
      "ld": 685,
      "▁है": 686,
      "▁India\")": 687,
      "Uni": 688,
      "\n-": 689,
      "al_": 690,
      "ITE": 691,
      "ITERE": 692,
      "·**": 693,
      "▁**·**": 694,
      "ంగ": 695,
      "▁G": 696,
      "ITEREF": 697,
      "▁స": 698,
      "](https://hi.wikipedia.org/भारत#cite_": 699,
      "▁E": 700,
      "▁द": 701,
      "www": 702,
      "pecial:": 703,
      "_India": 704,
      "ha": 705,
      "▁మ": 706,
      "ourc": 707,
      "12": 708,
      "त्र": 709,
      "▁N": 710,
      "राज": 711,
      ".in": 712,
      "ಲಿ": 713,
      "tu": 714,
      "www.": 715,
      "न्": 716,
      "్రా": 717,
      "ेश": 718,
      "▁ಸ": 719,
      "ources/": 720,
      "ber": 721,
      "op": 722,
      "up": 723,
      "▁•": 724,
      "Book": 725,
      "▁--": 726,
      "िया": 727,
      "▁H": 728,
      "Sources/": 729,
      "pecial:Book": 730,
      "pecial:BookSources/": 731,
      "ీయ": 732,
      "और": 733,
      "▁ಮ": 734,
      "rom": 735,
      "▁e": 736,
      "outh": 737,
      "#C": 738,
      "11": 739,
      "pecial:BookSources/978": 740,
      "▁on": 741,
      "ండ": 742,
      "▁ब": 743,
      "#CITEREF": 744,
      "-4": 745,
      "_in": 746,
      "ew": 747,
      "ंग": 748,
      "▁भारत": 749,
      "▁की": 750,
      "ary": 751,
      "▁---": 752,
      "for": 753,
      "▁प्र": 754,
      "cal": 755,
      "ला": 756,
      "▁त": 757,
      "ory": 758,
      "▁g": 759,
      "भा": 760,
      "्व": 761,
      "జ్య": 762,
      "-3": 763,
      "▁J": 764,
      "▁न": 765,
      "▁చ": 766,
      "▁से": 767,
      "archi": 768,
      "▁Re": 769,
      "_S": 770,
      "vers": 771,
      "im": 772,
      "ಂದ": 773,
      "List": 774,
      "_A": 775,
      "ి.": 776,
      "ರ್": 777,
      "od": 778,
      "తా": 779,
      "ress": 780,
      "▁और": 781,
      "ab": 782,
      "ము": 783,
      "▁200": 784,
      "నా": 785,
      "26": 786,
      "▁ಪ": 787,
      "▁or": 788,
      "per": 789,
      "el": 790,
      "్ట": 791,
      "18": 792,
      "తి": 793,
      "ov": 794,
      "##": 795,
      "▁का": 796,
      "▁F": 797,
      "-8": 798,
      "▁[\"": 799,
      "ens": 800,
      "archive": 801,
      "_स": 802,
      "ub": 803,
      "▁In": 804,
      "▁re": 805,
      "ted": 806,
      "The": 807,
      "199": 808,
      ".[[": 809,
      "▁h": 810,
      "▁by": 811,
      "est": 812,
      "rit": 813,
      "ता": 814,
      "త్": 815,
      "▁n": 816,
      "orld": 817,
      "28": 818,
      "ational": 819,
      "calf": 820,
      "](https://en.wikipedia.org/India#CITEREF": 821,
      "సి": 822,
      "40": 823,
      "sh": 824,
      "्ट": 825,
      "_of_India": 826,
      "anguage": 827,
      "ak": 828,
      "ಗಳ": 829,
      "etcalf": 830,
      "▁[S": 831,
      "▁from": 832,
      ".jpg": 833,
      "archive.org/": 834,
      "ain": 835,
      "ge": 836,
      "ap": 837,
      "pl": 838,
      "n_": 839,
      "▁th": 840,
      "onom": 841,
      "15": 842,
      "ನ್": 843,
      "▁(సా.శ.": 844,
      "ರಾ": 845,
      "ಲ್": 846,
      ".gov": 847,
      "\"](https://": 848,
      "web.": 849,
      "/http": 850,
      "13": 851,
      "▁(identifier)": 852,
      "web/": 853,
      "_(identifier)": 854,
      "archive.org/web/": 855,
      "web.archive.org/web/": 856,
      "▁(identifier)\")": 857,
      "17": 858,
      "ులు": 859,
      "▁రా": 860,
      "16": 861,
      "]](https://en.wikipedia.org/India#cite_note-FOOTNOTE": 862,
      "▁\"भारत": 863,
      "యా": 864,
      "–సా.శ.": 865,
      "tem": 866,
      "ast": 867,
      "▁అ": 868,
      "s/": 869,
      "▁for": 870,
      "ತ್ತ": 871,
      "ಭಾರತದ": 872,
      "स्त": 873,
      "▁व": 874,
      "ish": 875,
      "uc": 876,
      "▁\"C": 877,
      "▁is": 878,
      "-5": 879,
      "24": 880,
      "ort": 881,
      "▁ప్ర": 882,
      "राज्य": 883,
      "inal": 884,
      "ిక": 885,
      "▁[A": 886,
      "umb": 887,
      "क्ष": 888,
      "ित": 889,
      "ಸ್": 890,
      "తం": 891,
      ".in/": 892,
      "ud": 893,
      "▁p.": 894,
      "Metcalf": 895,
      "_and": 896,
      "over": 897,
      "▁O": 898,
      "न्द": 899,
      "14": 900,
      "nd": 901,
      "os": 902,
      "versity": 903,
      "ిన": 904,
      "జ్యం": 905,
      "AA": 906,
      "_C": 907,
      "▁आ": 908,
      "षा": 909,
      "▁Indian": 910,
      "gle": 911,
      "पु": 912,
      "try": 913,
      "జా": 914,
      ".jpg)": 915,
      "ति": 916,
      "\"))": 917,
      "*.": 918,
      "23": 919,
      "](https://en.wikipedia.org/C": 920,
      "ास": 921,
      "ంచ": 922,
      "కు": 923,
      "▁([": 924,
      "ep": 925,
      "id=": 926,
      "%2": 927,
      "ng": 928,
      "ot": 929,
      "oogle": 930,
      "](https://te.wikipedia.org/భారతదేశం": 931,
      "▁W": 932,
      "▁L": 933,
      "33": 934,
      "ను": 935,
      "పూ": 936,
      "har": 937,
      "ensus": 938,
      "▁202": 939,
      "▁[C": 940,
      "▁[ISBN": 941,
      "?id=": 942,
      "▁Asia": 943,
      "'s": 944,
      "_P": 945,
      "భా": 946,
      ".google": 947,
      "books.google": 948,
      ".com/books": 949,
      "_in_India": 950,
      "books.google.com/books": 951,
      "err": 952,
      "books.google.com/books?id=": 953,
      "do": 954,
      "▁\"ISBN": 955,
      "ISBN_(identifier)": 956,
      "ff": 957,
      "स्": 958,
      "art": 959,
      "्रे": 960,
      "-9": 961,
      "ప్ర": 962,
      "▁[978": 963,
      "media": 964,
      "ద్": 965,
      "7.": 966,
      "av": 967,
      "▁K": 968,
      ".org/wiki": 969,
      "px": 970,
      "ింద": 971,
      "▁Uni": 972,
      "▁The": 973,
      "▁ఉ": 974,
      "▁wi": 975,
      "](http://": 976,
      "भाषा": 977,
      "▁orig": 978,
      "▁\"M": 979,
      "opul": 980,
      "\n\n##": 981,
      ".p": 982,
      "mons": 983,
      "▁ಹ": 984,
      "▁को": 985,
      "]](https://hi.wikipedia.org/भारत#cite_": 986,
      "मा": 987,
      "lig": 988,
      "70": 989,
      "br": 990,
      "▁ఆ": 991,
      "था": 992,
      "್ಟ": 993,
      "▁[*": 994,
      "ther": 995,
      "ಲ್ಲಿ": 996,
      "25": 997,
      "load": 998,
      "pecial:BookSources/978-0": 999,
      "▁original": 1000,
      "a_": 1001,
      "upload": 1002,
      "35": 1003,
      "▁ಕ": 1004,
      "log": 1005,
      "aj": 1006,
      "री": 1007,
      ".wikimedia": 1008,
      "tern": 1009,
      ".wikimedia.org/wiki": 1010,
      "eved": 1011,
      "ut": 1012,
      "▁r": 1013,
      "▁ग": 1014,
      "▁ర": 1015,
      "![": 1016,
      "s,": 1017,
      "ची": 1018,
      "ಾನ": 1019,
      "▁as": 1020,
      "pedia/": 1021,
      "ence": 1022,
      "ong": 1023,
      "upload.wikimedia.org/wiki": 1024,
      "upload.wikimedia.org/wikipedia/": 1025,
      "p.": 1026,
      "▁t": 1027,
      "ana": 1028,
      "trieved": 1029,
      "ountri": 1030,
      "▁Retrieved": 1031,
      "36": 1032,
      "rchi": 1033,
      "](https://upload.wikimedia.org/wikipedia/": 1034,
      "umm": 1035,
      ")[[": 1036,
      "మా": 1037,
      "▁సా": 1038,
      "▁[M": 1039,
      "భారతీయ": 1040,
      "de": 1041,
      "ow": 1042,
      "ys": 1043,
      "\")\n-": 1044,
      "ance": 1045,
      "देश": 1046,
      "వా": 1047,
      "thumb": 1048,
      "▁पर": 1049,
      "opulation": 1050,
      "ಿಕ": 1051,
      "▁उ": 1052,
      "▁ವ": 1053,
      "](https://en.wikipedia.org/M": 1054,
      "commons": 1055,
      "-7": 1056,
      "/thumb": 1057,
      "రు": 1058,
      "▁[↑](https://en.wikipedia.org/India#cite_ref-FOOTNOTE": 1059,
      "/thumb/": 1060,
      "▁ए": 1061,
      "*](https://": 1062,
      "ss": 1063,
      "ष्ट": 1064,
      "▁ನ": 1065,
      "▁pp.": 1066,
      "▁है।": 1067,
      "22": 1068,
      "Har": 1069,
      "ाद": 1070,
      "und": 1071,
      "px-": 1072,
      "ड़": 1073,
      "వి": 1074,
      "ష్ట": 1075,
      "ార్": 1076,
      "▁be": 1077,
      "పూ.": 1078,
      "error": 1079,
      "](https://upload.wikimedia.org/wikipedia/commons": 1080,
      "ಂತ": 1081,
      "all": 1082,
      "ountries": 1083,
      "-6": 1084,
      "47": 1085,
      "gh": 1086,
      "▁श": 1087,
      "](https://en.wikipedia.org/ISBN_(identifier)": 1088,
      "_के": 1089,
      "▁[ISBN](https://en.wikipedia.org/ISBN_(identifier)": 1090,
      "▁[B": 1091,
      "▁\"B": 1092,
      "స్థ": 1093,
      "ates": 1094,
      "రిత్ర": 1095,
      "క్ష": 1096,
      "ತ್ತು": 1097,
      "](https://upload.wikimedia.org/wikipedia/commons/thumb/": 1098,
      "90": 1099,
      "1.": 1100,
      "web.archive.org/web/201": 1101,
      "PA": 1102,
      "▁[म": 1103,
      "ans": 1104,
      "_and_": 1105,
      "6.": 1106,
      "_म": 1107,
      "ma": 1108,
      "rchived": 1109,
      "ore": 1110,
      "ष्ट्र": 1111,
      "న్న": 1112,
      "ear": 1113,
      "og": 1114,
      "▁सं": 1115,
      "विश": 1116,
      "9.": 1117,
      "nic": 1118,
      "38": 1119,
      "ies": 1120,
      "ने": 1121,
      "▁\"A": 1122,
      "▁\"P": 1123,
      "4.": 1124,
      "ct": 1125,
      "y_": 1126,
      "ations": 1127,
      "िल": 1128,
      "▁I": 1129,
      "omm": 1130,
      "2011": 1131,
      "](https://hi.wikipedia.org/भारत#cite_ref-": 1132,
      "]](https://hi.wikipedia.org/भारत#cite_note-": 1133,
      "का": 1134,
      "ont": 1135,
      "overn": 1136,
      "2.": 1137,
      "land": 1138,
      "प्र": 1139,
      "▁with": 1140,
      "conom": 1141,
      "ेत्र": 1142,
      "▁ಅ": 1143,
      "▁ಬ": 1144,
      "&pg": 1145,
      "](https://te.wikipedia.org/భారతదేశం#cite_": 1146,
      "&pg=": 1147,
      "-19": 1148,
      "▁Press": 1149,
      "గా": 1150,
      "ರಿ": 1151,
      "▁ल": 1152,
      "](https://en.wikipedia.org/B": 1153,
      "](https://kn.wikipedia.org/ಭಾರತ": 1154,
      "ಗಳು": 1155,
      "ile": 1156,
      "tein": 1157,
      ".\n-": 1158,
      "60": 1159,
      "ంట": 1160,
      "కి": 1161,
      "_के_": 1162,
      "म्": 1163,
      "ಕ್": 1164,
      "ದೇ": 1165,
      "▁इ": 1166,
      "▁\"List": 1167,
      "](https://en.wikipedia.org/P": 1168,
      "ai": 1169,
      "ी](https://hi.wikipedia.org/": 1170,
      "మ్రా": 1171,
      "्या": 1172,
      "/https://": 1173,
      "ష్ట్ర": 1174,
      "esh": 1175,
      "▁*[": 1176,
      "_M": 1177,
      "ంత": 1178,
      "ತಿ": 1179,
      "ರು": 1180,
      "titu": 1181,
      "ata": 1182,
      "india.gov": 1183,
      ".jp": 1184,
      "ummit": 1185,
      "ದೇಶ": 1186,
      "iv": 1187,
      "िय": 1188,
      "▁no": 1189,
      "arg": 1190,
      "_b": 1191,
      "se": 1192,
      "हि": 1193,
      "&pg=PA": 1194,
      "DP": 1195,
      "ire": 1196,
      "ಸಂ": 1197,
      "inis": 1198,
      "ages": 1199,
      "27": 1200,
      "_D": 1201,
      "పు": 1202,
      "▁&": 1203,
      "▁\"G": 1204,
      "List_of_": 1205,
      "overnment": 1206,
      "45": 1207,
      "48": 1208,
      "hin": 1209,
      "सा": 1210,
      "ord": 1211,
      "▁\"T": 1212,
      "Indian": 1213,
      "सं": 1214,
      "ಷ್ಟ": 1215,
      "ಾಗ": 1216,
      "▁న": 1217,
      "▁20": 1218,
      "2006": 1219,
      "▁de": 1220,
      "3.": 1221,
      "ज़": 1222,
      "ture": 1223,
      "ubl": 1224,
      "▁University": 1225,
      "त्त": 1226,
      "మి": 1227,
      "ాన": 1228,
      "▁र": 1229,
      "ank": 1230,
      "ism": 1231,
      ".jpg/": 1232,
      "77": 1233,
      "ll": 1234,
      "ue": 1235,
      "▁[P": 1236,
      "పా": 1237,
      "▁ఇ": 1238,
      "▁త": 1239,
      "eral": 1240,
      "iss": 1241,
      "▁was": 1242,
      "భాష": 1243,
      "ati": 1244,
      "ard": 1245,
      "indu": 1246,
      "pr": 1247,
      "port": 1248,
      "](https://en.wikipedia.org/T": 1249,
      "](https://kn.wikipedia.org/ಭಾರತ#cite_": 1250,
      "ke": 1251,
      "2018": 1252,
      "పాల": 1253,
      "htm": 1254,
      "](https://en.wikipedia.org/F": 1255,
      "ass": 1256,
      "5.": 1257,
      "ts": 1258,
      "▁[G": 1259,
      "-10": 1260,
      "र्व": 1261,
      "*](https://books.google.com/books?id=": 1262,
      "ंड": 1263,
      "▁దేశ": 1264,
      "స్తా": 1265,
      "▁are": 1266,
      "plate": 1267,
      "8.": 1268,
      "▁\"D": 1269,
      "▁\"E": 1270,
      "▁st": 1271,
      "▁language": 1272,
      ")\n\n": 1273,
      "80": 1274,
      "िस": 1275,
      "లీ": 1276,
      "ాయ": 1277,
      "ಿಂದ": 1278,
      "▁an": 1279,
      "als": 1280,
      "istory": 1281,
      "](https://en.wikipedia.org/A": 1282,
      "राष्ट्र": 1283,
      "anguages": 1284,
      "39": 1285,
      "_T": 1286,
      "\")\n": 1287,
      "್ರಾ": 1288,
      "29": 1289,
      "hm": 1290,
      "▁(P": 1291,
      "lop": 1292,
      "▁ex": 1293,
      "మ్రాజ్యం": 1294,
      "46": 1295,
      "](https://en.wikipedia.org/E": 1296,
      "▁सा": 1297,
      "ust": 1298,
      "्षेत्र": 1299,
      "ం:": 1300,
      "ಂಗ": 1301,
      "దేశ్": 1302,
      "cy": 1303,
      "चि": 1304,
      "मन": 1305,
      "ी_": 1306,
      "artic": 1307,
      "onstitu": 1308,
      "sher": 1309,
      "df": 1310,
      "oc": 1311,
      "ం](https://te.wikipedia.org/": 1312,
      "▁राज्य": 1313,
      "ian": 1314,
      "%2C": 1315,
      "2)": 1316,
      "ले": 1317,
      "ಿದ": 1318,
      "▁भाषा": 1319,
      "tics": 1320,
      "ಷ್ಟ್ರ": 1321,
      "जा": 1322,
      "पा": 1323,
      "ంబ": 1324,
      "టి": 1325,
      "▁3": 1326,
      "▁\"म": 1327,
      "▁2011": 1328,
      "stan": 1329,
      "mp": 1330,
      "▁it": 1331,
      "▁\"N": 1332,
      "tim": 1333,
      "ers": 1334,
      "Stein": 1335,
      "_N": 1336,
      "ంలో": 1337,
      "ಜ್ಯ": 1338,
      "▁V": 1339,
      "▁whi": 1340,
      "▁हैं": 1341,
      "స్తాన్": 1342,
      "_s": 1343,
      "a\")": 1344,
      "▁य": 1345,
      "▁वि": 1346,
      "▁error": 1347,
      "ford": 1348,
      "Harv": 1349,
      "4)": 1350,
      "గు": 1351,
      "డు": 1352,
      "నే": 1353,
      "్చ": 1354,
      "▁भ": 1355,
      "pend": 1356,
      "](https://en.wikipedia.org/D": 1357,
      "omp": 1358,
      "49": 1359,
      "other": 1360,
      "rad": 1361,
      "णी": 1362,
      "ಂಡ": 1363,
      "್ವ": 1364,
      "2010": 1365,
      "▁ಮತ್ತು": 1366,
      "_Asia": 1367,
      "/http://": 1368,
      "AJ": 1369,
      "Re": 1370,
      "aki": 1371,
      "ूची": 1372,
      "మూ": 1373,
      "eng": 1374,
      "్రీ": 1375,
      "000": 1376,
      "జాత": 1377,
      "▁[978-0": 1378,
      "BAJ": 1379,
      "QBAJ": 1380,
      "ik": 1381,
      "xford": 1382,
      "गर": 1383,
      "▁tr": 1384,
      "ine": 1385,
      "ical": 1386,
      ",_": 1387,
      "IC": 1388,
      "ex": 1389,
      "లా": 1390,
      "ight": 1391,
      "indi": 1392,
      "ంగా": 1393,
      "▁ಪ್ರ": 1394,
      "language": 1395,
      "ark": 1396,
      "ess": 1397,
      "▁[↑](https://hi.wikipedia.org/भारत#cite_ref-": 1398,
      "▁De": 1399,
      "ib": 1400,
      "oli": 1401,
      "rou": 1402,
      "हा": 1403,
      "డ్": 1404,
      "ిల్": 1405,
      "▁జ": 1406,
      "▁[![": 1407,
      "-1)": 1408,
      "PP": 1409,
      "_B": 1410,
      "ction": 1411,
      "ions": 1412,
      "ेला": 1413,
      "ಖ್ಯ": 1414,
      "ಜನ": 1415,
      "ೆಯ": 1416,
      "▁4": 1417,
      "▁[D": 1418,
      "▁[N": 1419,
      "ರಾಷ್ಟ್ರ": 1420,
      "udd": 1421,
      "1)": 1422,
      "37": 1423,
      "DF": 1424,
      "లి": 1425,
      "▁[2": 1426,
      "స్త్ర": 1427,
      "ated": 1428,
      "pecial:BookSources/978-1": 1429,
      "df)": 1430,
      "ef": 1431,
      "new": 1432,
      "\")\n\n": 1433,
      "ern": 1434,
      "india-": 1435,
      "AAQBAJ": 1436,
      "ove": 1437,
      "ric": 1438,
      "ven": 1439,
      "कार": 1440,
      "पर": 1441,
      "ం\")": 1442,
      "కా": 1443,
      "ణా": 1444,
      "ధిక": 1445,
      "end": 1446,
      "his": 1447,
      "▁कर": 1448,
      "▁ప్రా": 1449,
      "▁వి": 1450,
      "ನ್ನ": 1451,
      "▁[Archived": 1452,
      "జాతీయ": 1453,
      "▁[Archived](https://": 1454,
      "85": 1455,
      "fn": 1456,
      "क्त": 1457,
      "िर": 1458,
      "ोल": 1459,
      "▁at": 1460,
      "icial": 1461,
      "velop": 1462,
      "10.": 1463,
      "▁(PDF": 1464,
      "census": 1465,
      "s.": 1466,
      "कि": 1467,
      "मी": 1468,
      "దక్ష": 1469,
      "▁5": 1470,
      "▁–": 1471,
      "](https://en.wikipedia.org/G": 1472,
      "▁pro": 1473,
      ").\n": 1474,
      "▁సం": 1475,
      "▁చరిత్ర": 1476,
      "MetcalfMetcalf": 1477,
      ".pdf)": 1478,
      "ಿತ": 1479,
      "ೀಯ": 1480,
      "▁ಆ": 1481,
      "tral": 1482,
      "ange": 1483,
      "ublic": 1484,
      "velopment": 1485,
      "డి": 1486,
      "▁[1": 1487,
      "](https://en.wikipedia.org/N": 1488,
      "ింది.": 1489,
      ".nic": 1490,
      "au": 1491,
      "cl": 1492,
      "vi": 1493,
      "ंध": 1494,
      "ेष": 1495,
      "](https://hi.wikipedia.org/म": 1496,
      "United": 1497,
      "ंग्रे": 1498,
      "हिन्द": 1499,
      "▁which": 1500,
      "RIC": 1501,
      "duc": 1502,
      "ition": 1503,
      "ी\")": 1504,
      "ంధ": 1505,
      "ಿಸ": 1506,
      "▁we": 1507,
      "▁[E": 1508,
      "▁[T": 1509,
      "ational_": 1510,
      "స్త": 1511,
      "ाना": 1512,
      "▁अन": 1513,
      "ರ್ಮ": 1514,
      "సియా": 1515,
      "▁రాజ్యం": 1516,
      "▁సామ్రాజ్యం": 1517,
      "-p": 1518,
      "..": 1519,
      "ath": 1520,
      "gen": 1521,
      "द्": 1522,
      "भि": 1523,
      "▁7": 1524,
      "ties": 1525,
      "▁क्षेत्र": 1526,
      "ase": 1527,
      "ult": 1528,
      "ate_": 1529,
      "దీ": 1530,
      "ame": 1531,
      "ingh": 1532,
      "र्म": 1533,
      "▁\"Special:BookSources/978-0": 1534,
      "](https://en.wikipedia.org/Special:BookSources/978-0": 1535,
      "ండి": 1536,
      "దక్షి": 1537,
      "_G": 1538,
      "dus": 1539,
      "धान": 1540,
      "वा": 1541,
      "ोत": 1542,
      "ani": 1543,
      "](https://en.wikipedia.org/List_of_": 1544,
      "▁South": 1545,
      "್ಯಾ": 1546,
      "0%": 1547,
      "56": 1548,
      "श्": 1549,
      "से": 1550,
      "తర": 1551,
      "వం": 1552,
      "▁బ": 1553,
      "▁that": 1554,
      "्रेणी": 1555,
      "html": 1556,
      "ob": 1557,
      "▁[the": 1558,
      "ous": 1559,
      "out": 1560,
      "ach": 1561,
      "ountry": 1562,
      "▁ने": 1563,
      "india.gov.in/": 1564,
      "250": 1565,
      "ost": 1566,
      "श्रेणी": 1567,
      "ట్": 1568,
      "ిత": 1569,
      "ಭಾ": 1570,
      "▁li": 1571,
      "▁\"H": 1572,
      "्रा": 1573,
      "World": 1574,
      "_p": 1575,
      "bot": 1576,
      "धार": 1577,
      "albot": 1578,
      "aste": 1579,
      "territ": 1580,
      "▁199": 1581,
      "विशेष": 1582,
      "RICS": 1583,
      "_చ": 1584,
      "o-": 1585,
      "sland": 1586,
      "ది": 1587,
      "▁\"మ": 1588,
      "ree": 1589,
      "_by_": 1590,
      "श्रेणी:": 1591,
      ")\n-": 1592,
      "fe": 1593,
      "ृत": 1594,
      "ಿಯ": 1595,
      "▁[अ": 1596,
      "econom": 1597,
      "▁has": 1598,
      "\"](https://web.archive.org/web/201": 1599,
      "ಸ್ಥ": 1600,
      "ile:": 1601,
      ".nic.in/": 1602,
      "-s": 1603,
      "1,": 1604,
      "Asher": 1605,
      "_c": 1606,
      "world": 1607,
      "ते": 1608,
      "▁१": 1609,
      "▁ఎ": 1610,
      "▁[మ": 1611,
      "▁\"In": 1612,
      "ीय_": 1613,
      "▁ति": 1614,
      "▁(సా.శ.పూ.": 1615,
      ")\")": 1616,
      "sv": 1617,
      "ंद": 1618,
      "ंत्र": 1619,
      "ूल": 1620,
      "▁\"अ": 1621,
      "cies": 1622,
      "ames": 1623,
      "riti": 1624,
      "▁एक": 1625,
      "3)": 1626,
      "_R": 1627,
      "ah": 1628,
      "के": 1629,
      "ధ్య": 1630,
      "ನೇ": 1631,
      "ೆ.": 1632,
      "▁గ": 1633,
      "▁శ": 1634,
      "▁ಇ": 1635,
      "▁[भारत": 1636,
      "ack": 1637,
      "▁पु": 1638,
      "ంద్ర": 1639,
      "ంది.": 1640,
      "ಂತ್ರ": 1641,
      "विशेष:": 1642,
      "%20": 1643,
      "34": 1644,
      "_E": 1645,
      "hand": 1646,
      "isation": 1647,
      "amil": 1648,
      "\n\n###": 1649,
      "onstitution": 1650,
      "59": 1651,
      "ైన": 1652,
      "▁\"स": 1653,
      "](https://te.wikipedia.org/మ": 1654,
      "▁పే": 1655,
      "rap": 1656,
      "akistan": 1657,
      "AAQBAJ&pg=PA": 1658,
      "/c": 1659,
      "man": 1660,
      "oh": 1661,
      "ty": 1662,
      "िण": 1663,
      "ोग": 1664,
      "ನಾ": 1665,
      "▁v": 1666,
      "▁ಭಾರತದ": 1667,
      "nolog": 1668,
      "idge": 1669,
      "2004": 1670,
      "\n\n[": 1671,
      "▁ಸಂ": 1672,
      "स्तान": 1673,
      "ission": 1674,
      "mpire": 1675,
      "ಭಾಷ": 1676,
      "62": 1677,
      "65": 1678,
      "ట్ట": 1679,
      "▁pe": 1680,
      "▁భారతదేశం": 1681,
      "▁[R": 1682,
      "▁\"The": 1683,
      "▁con": 1684,
      "elhi": 1685,
      "ద్ధ": 1686,
      "roup": 1687,
      "ritish": 1688,
      "s\")": 1689,
      "▁[H": 1690,
      "▁[K": 1691,
      "](https://en.wikipedia.org/H": 1692,
      "ali": 1693,
      "uly": 1694,
      "illi": 1695,
      "/https://www.": 1696,
      "](https://en.wikipedia.org/File:": 1697,
      "-m": 1698,
      "hy": 1699,
      "ram": 1700,
      "गमन": 1701,
      "थि": 1702,
      "ीप": 1703,
      "హింద": 1704,
      "ించ": 1705,
      "ಧರ್ಮ": 1706,
      "▁ఒ": 1707,
      "▁భాష": 1708,
      "▁ಜನ": 1709,
      "▁[క": 1710,
      "▁\"R": 1711,
      "on-": 1712,
      "ome": 1713,
      "▁India's": 1714,
      "2009": 1715,
      "ాల్": 1716,
      "▁countries": 1717,
      "](https://en.wikipedia.org/India#cite_ref-FOOTNOTE": 1718,
      "▁प्रदेश": 1719,
      "ontin": 1720,
      "MetcalfMetcalf2006": 1721,
      "श्रेणी:Harv": 1722,
      "/978": 1723,
      "IN": 1724,
      "hr": 1725,
      "qu": 1726,
      "▁[स": 1727,
      "](https://en.wikipedia.org/R": 1728,
      "lection": 1729,
      "ill": 1730,
      "outh_Asia": 1731,
      "क्षिण": 1732,
      "](http://www.": 1733,
      "▁तिथि": 1734,
      "\"\n": 1735,
      "6)": 1736,
      "]](https://te.wikipedia.org/భారతదేశం#cite_": 1737,
      "_d": 1738,
      "द्य": 1739,
      "नी": 1740,
      "ी_स": 1741,
      "చ్చ": 1742,
      "జీ": 1743,
      "ేంద్ర": 1744,
      "▁\"K": 1745,
      "▁\"క": 1746,
      "hist": 1747,
      "ice": 1748,
      "▁2014": 1749,
      "row": 1750,
      "\").[[": 1751,
      "ంగ్": 1752,
      "doi": 1753,
      "8)": 1754,
      "RC": 1755,
      "gion": 1756,
      "ँच": 1757,
      "यु": 1758,
      "ून": 1759,
      "ದಲ್ಲಿ": 1760,
      "ವಿ": 1761,
      "ಸಿ": 1762,
      "▁ದ": 1763,
      "\")*": 1764,
      "ant": 1765,
      "arl": 1766,
      "2007": 1767,
      "ury": 1768,
      "ರಾಜ್ಯ": 1769,
      "ommission": 1770,
      "ನ್ನು": 1771,
      "▁तिथि:": 1772,
      "-b": 1773,
      "67": 1774,
      "GDP": 1775,
      "countries": 1776,
      "త్య": 1777,
      "బ్": 1778,
      "మీ": 1779,
      "▁8": 1780,
      "▁ख": 1781,
      "orth": 1782,
      "▁\"Indian": 1783,
      "](https://en.wikipedia.org/In": 1784,
      "](https://te.wikipedia.org/ద": 1785,
      "\n\n-": 1786,
      "une": 1787,
      "రాష్ట్ర": 1788,
      "bridge": 1789,
      "conomy": 1790,
      "▁its": 1791,
      "times": 1792,
      "120": 1793,
      "ure": 1794,
      "▁un": 1795,
      "ambridge": 1796,
      "▁अभि": 1797,
      "▁भारतीय": 1798,
      "do-": 1799,
      "▁अभिगमन": 1800,
      "ope": 1801,
      "uary": 1802,
      "जन": 1803,
      "ढ़": 1804,
      "धिक": 1805,
      "ంక": 1806,
      "ప్": 1807,
      "యు": 1808,
      "ಮು": 1809,
      "▁ಭಾರತ": 1810,
      "act": 1811,
      "usic": 1812,
      "్యా": 1813,
      "ater": 1814,
      "▁देश": 1815,
      "తంత్ర": 1816,
      "](https://te.wikipedia.org/భారతదేశం#cite_ref-": 1817,
      "ಭಾಷೆ": 1818,
      "]](https://te.wikipedia.org/భారతదేశం#cite_note-": 1819,
      "43": 1820,
      "7)": 1821,
      "Oxford": 1822,
      "_m": 1823,
      "gan": 1824,
      "ug": 1825,
      "धर्म": 1826,
      "▁te": 1827,
      "्री": 1828,
      "्रोत": 1829,
      "ood": 1830,
      "emplate": 1831,
      "▁जन": 1832,
      "▁तथा": 1833,
      "▁July": 1834,
      "▁\"भारतीय": 1835,
      "yson": 1836,
      "conomic": 1837,
      "_స": 1838,
      "_language": 1839,
      "dit": 1840,
      "led": 1841,
      "oi": 1842,
      "ती": 1843,
      "त्": 1844,
      "बर": 1845,
      "తము": 1846,
      "వే": 1847,
      "ాన్": 1848,
      "▁च": 1849,
      "▁\"क": 1850,
      "ond": 1851,
      "స్క": 1852,
      "uring": 1853,
      "ulture": 1854,
      "▁languages": 1855,
      "ligion": 1856,
      "ansk": 1857,
      "▁2021": 1858,
      "▁हैं।": 1859,
      "ిల్లీ": 1860,
      "దక్షిణ": 1861,
      "-d": 1862,
      "0.": 1863,
      "_1": 1864,
      "na": 1865,
      "ple": 1866,
      "हर": 1867,
      "ूर्व": 1868,
      "्ल": 1869,
      "್ಚ": 1870,
      "▁[In": 1871,
      "\")•": 1872,
      "](https://en.wikipedia.org/K": 1873,
      "▁(201": 1874,
      "2003": 1875,
      "ign": 1876,
      "ower": 1877,
      "ograp": 1878,
      ".;": 1879,
      "aw": 1880,
      "lish": 1881,
      "वं": 1882,
      "ధాన": 1883,
      "బె": 1884,
      "▁U": 1885,
      "▁ad": 1886,
      "▁[L": 1887,
      "erv": 1888,
      "ారు": 1889,
      "▁కా": 1890,
      "▁రాజ": 1891,
      "स्तक": 1892,
      "AARC": 1893,
      "पुस्तक": 1894,
      "▁[978-1": 1895,
      "विशेष:पुस्तक": 1896,
      "्रोत/978": 1897,
      "anskrit": 1898,
      "मान": 1899,
      "eneral": 1900,
      "▁\"L": 1901,
      "\").\n-": 1902,
      "any": 1903,
      "alth": 1904,
      "](https://hi.wikipedia.org/स": 1905,
      "ashm": 1906,
      "िका": 1907,
      "ound": 1908,
      "▁जा": 1909,
      "▁Hindu": 1910,
      "plate_": 1911,
      "\"](https://www.": 1912,
      "pril": 1913,
      "राष्ट्रीय": 1914,
      "radesh": 1915,
      "द्ध": 1916,
      "ashmir": 1917,
      "-l": 1918,
      "Dw": 1919,
      "E0%": 1920,
      "]](https://kn.wikipedia.org/ಭಾರತ#cite_": 1921,
      "mer": 1922,
      "दी": 1923,
      "रकार": 1924,
      "हार": 1925,
      "జి": 1926,
      "దు": 1927,
      "మ్": 1928,
      "శ్": 1929,
      "ష్": 1930,
      "ಗಣ": 1931,
      "ರೆ": 1932,
      "ಹಿಂದ": 1933,
      "▁6": 1934,
      "anc": 1935,
      "alay": 1936,
      "](https://te.wikipedia.org/క": 1937,
      "usin": 1938,
      "్యవ": 1939,
      "uman": 1940,
      "hel": 1941,
      "odern": 1942,
      "पुर": 1943,
      "ystem": 1944,
      "Stein2010": 1945,
      "▁were": 1946,
      "_చరిత్ర": 1947,
      "_F": 1948,
      "gis": 1949,
      "national": 1950,
      "▁राज": 1951,
      "▁[क": 1952,
      "▁\"ब": 1953,
      "](https://hi.wikipedia.org/क": 1954,
      "▁sub": 1955,
      "▁17": 1956,
      "▁18": 1957,
      "1998": 1958,
      "विश्व": 1959,
      "▁इस": 1960,
      "लेख": 1961,
      "ontinent": 1962,
      "69": 1963,
      "_the": 1964,
      "mber": 1965,
      "olog": 1966,
      "ఢిల్లీ": 1967,
      "పంచ": 1968,
      "ారి": 1969,
      "▁cent": 1970,
      "▁मेला": 1971,
      "urope": 1972,
      "▁History": 1973,
      "matics": 1974,
      "మూస": 1975,
      "74": 1976,
      "cre": 1977,
      "tates": 1978,
      "गु": 1979,
      "▁le": 1980,
      "▁ha": 1981,
      "▁\"F": 1982,
      "▁स्": 1983,
      "रालेख": 1984,
      "irst": 1985,
      ".jpg)](https://en.wikipedia.org/File:": 1986,
      "▁ಹೆ": 1987,
      "▁original](https://": 1988,
      "ಕ್ಷ": 1989,
      "ಸಂಖ್ಯ": 1990,
      "article": 1991,
      "250px-": 1992,
      "5)": 1993,
      "57": 1994,
      "continent": 1995,
      "ry": 1996,
      "yn": 1997,
      "ज्": 1998,
      "ा_": 1999,
      "िव": 2000,
      "వు": 2001,
      "encies": 2002,
      "▁\"प": 2003,
      "▁\"భారతీయ": 2004,
      "arch": 2005,
      "2005": 2006,
      "▁Archived": 2007,
      "▁April": 2008,
      "▁हु": 2009,
      "_की_स": 2010,
      "▁वर्": 2011,
      "![](https://upload.wikimedia.org/wikipedia/commons/thumb/": 2012,
      "_में": 2013,
      "argest": 2014,
      "inistry": 2015,
      "-g": 2016,
      "51": 2017,
      "Page": 2018,
      "_4": 2019,
      "_Uni": 2020,
      "les": 2021,
      "ध्य": 2022,
      "्च": 2023,
      "▁[ब": 2024,
      "ari": 2025,
      "cient": 2026,
      "](https://hi.wikipedia.org/अ": 2027,
      "▁An": 2028,
      "र्थ": 2029,
      "old": 2030,
      "peration": 2031,
      "▁Asian": 2032,
      "स्क": 2033,
      "रालेखित": 2034,
      "-c": 2035,
      "330": 2036,
      "air": 2037,
      "జన": 2038,
      "టు": 2039,
      "టె": 2040,
      "ಣಿ": 2041,
      "ತ್ರ": 2042,
      "ತಂತ್ರ": 2043,
      "ದಿ": 2044,
      "ಮಿ": 2045,
      "ವೇ": 2046,
      "▁ಎ": 2047,
      "▁ರ": 2048,
      "entral": 2049,
      "ese": 2050,
      "2008": 2051,
      "▁wh": 2052,
      "tical": 2053,
      "▁ಸಾ": 2054,
      "▁చె": 2055,
      "నాయ": 2056,
      "–సా.శ.పూ.": 2057,
      "-521": 2058,
      "▁ఆర్": 2059,
      "పాలిత": 2060,
      "▁भी": 2061,
      "స్త్రం:": 2062,
      "▁ప్రాంత": 2063,
      "▁ಜನಸಂಖ್ಯ": 2064,
      "ేంద్రపాలిత": 2065,
      "](https://te.wikipedia.org/దస్త్రం:": 2066,
      "-in": 2067,
      ".sv": 2068,
      "Talbot": 2069,
      "_भारत": 2070,
      "थान": 2071,
      "रे": 2072,
      "हास": 2073,
      "ork": 2074,
      "ise": 2075,
      "](https://en.wikipedia.org/Indian_": 2076,
      "चित्र": 2077,
      "AsherTalbot": 2078,
      "ommissioner": 2079,
      "%E0%": 2080,
      "Edit": 2081,
      "_H": 2082,
      "ail": 2083,
      "ms": 2084,
      "mund": 2085,
      "val": 2086,
      "द्र": 2087,
      "िट": 2088,
      "िश": 2089,
      "ुख": 2090,
      "ఖ్య": 2091,
      "గో": 2092,
      "తో": 2093,
      "బి": 2094,
      "హి": 2095,
      "▁y": 2096,
      "▁ag": 2097,
      "▁tem": 2098,
      "ories": 2099,
      "](https://hi.wikipedia.org/ब": 2100,
      "ide": 2101,
      "ats": 2102,
      "▁10": 2103,
      "▁Pro": 2104,
      "line": 2105,
      "india/": 2106,
      "emb": 2107,
      "▁World": 2108,
      "othermund": 2109,
      "illion": 2110,
      "స్కృ": 2111,
      "Page/": 2112,
      "EditPage/": 2113,
      "9)": 2114,
      "a,": 2115,
      "ite": 2116,
      "shi": 2117,
      "ಂಧ": 2118,
      "ಗೆ": 2119,
      "ವಾ": 2120,
      "ಿಮ": 2121,
      "▁ಚ": 2122,
      "▁territ": 2123,
      "▁ಧರ್ಮ": 2124,
      "tive": 2125,
      "ref-1": 2126,
      "note-1": 2127,
      "ulke": 2128,
      "](https://hi.wikipedia.org/भारत_में": 2129,
      "್ತಾನ": 2130,
      "ಭಾರತದ_": 2131,
      "_and_S": 2132,
      "▁not": 2133,
      "help": 2134,
      "100": 2135,
      "121": 2136,
      "_ప": 2137,
      "cto": 2138,
      "mb": 2139,
      "uj": 2140,
      "ution": 2141,
      "फ़": 2142,
      "ीन": 2143,
      "హా": 2144,
      "▁ను": 2145,
      "▁జాతీయ": 2146,
      "ined": 2147,
      "▁सम": 2148,
      "ace": 2149,
      "low": 2150,
      "▁हि": 2151,
      "▁25": 2152,
      "aint": 2153,
      "ongress": 2154,
      "त्तर": 2155,
      "news/": 2156,
      "▁చరిత్ర\")": 2157,
      "ंग्रेज़": 2158,
      "్యవస్థ": 2159,
      "ctober": 2160,
      "3,": 2161,
      "8/": 2162,
      "ck": 2163,
      "fter": 2164,
      "uk": 2165,
      "मिल": 2166,
      "शिया": 2167,
      "ुस": 2168,
      "▁21": 2169,
      "](https://en.wikipedia.org/L": 2170,
      "▁सूची": 2171,
      "▁June": 2172,
      "imf": 2173,
      "\"))\n": 2174,
      "▁([help": 2175,
      "errors": 2176,
      ",000": 2177,
      ".\"\n": 2178,
      "/0": 2179,
      "87": 2180,
      "_ಮ": 2181,
      "pur": 2182,
      "ule": 2183,
      "रु": 2184,
      "డా": 2185,
      "దా": 2186,
      "బడ": 2187,
      "మే": 2188,
      "రణ": 2189,
      "ಪಾ": 2190,
      "ಪ್ರ": 2191,
      "ು.": 2192,
      "▁9": 2193,
      "▁೧": 2194,
      "▁లో": 2195,
      "ority": 2196,
      "▁[W": 2197,
      "▁[प": 2198,
      "omb": 2199,
      "2014": 2200,
      "▁India,": 2201,
      "aman": 2202,
      "▁ch": 2203,
      "▁2010": 2204,
      "▁కూ": 2205,
      "ాలు,": 2206,
      "▁2007": 2207,
      "▁రాష్ట్ర": 2208,
      "brary": 2209,
      "ternational": 2210,
      "earch": 2211,
      "కిస్తాన్": 2212,
      "▁ಪ್ರದೇಶ": 2213,
      "ರಾಷ್ಟ್ರೀಯ": 2214,
      "-f": 2215,
      "4%": 2216,
      "71": 2217,
      "data": 2218,
      "ive": 2219,
      "tal": 2220,
      "ugh": 2221,
      "vis": 2222,
      "कर": 2223,
      "ूच": 2224,
      "▁सरकार": 2225,
      "▁Census": 2226,
      "▁October": 2227,
      "india.gov.in": 2228,
      "ative": 2229,
      "/http://www.": 2230,
      "fn_": 2231,
      "iki": 2232,
      "lass": 2233,
      "pa": 2234,
      "tar": 2235,
      "uch": 2236,
      "पाल": 2237,
      "हु": 2238,
      "ा:": 2239,
      "ैद": 2240,
      "ोक": 2241,
      "వర్": 2242,
      "▁घ": 2243,
      "▁२": 2244,
      "▁ఈ": 2245,
      "▁భారత": 2246,
      "▁per": 2247,
      "\")*.": 2248,
      "ed.": 2249,
      "▁pl": 2250,
      "▁Sfn": 2251,
      "lim": 2252,
      "et:": 2253,
      "▁15": 2254,
      "▁2016": 2255,
      "▁26": 2256,
      "త్రి": 2257,
      "ాలు\")": 2258,
      "ాలు](https://te.wikipedia.org/": 2259,
      "▁\"Special:BookSources/978-1": 2260,
      "](https://en.wikipedia.org/Special:BookSources/978-1": 2261,
      "_Indian_": 2262,
      "ople": 2263,
      "▁तक": 2264,
      "template_": 2265,
      "▁targ": 2266,
      "▁Island": 2267,
      "साँच": 2268,
      "▁error:": 2269,
      "pendencies": 2270,
      "▁[Archived](https://web.archive.org/web/": 2271,
      "किस्तान": 2272,
      "emplate:": 2273,
      "▁template": 2274,
      "_and_Sfn_": 2275,
      "template_errors": 2276,
      "▁target:": 2277,
      "_and_Sfn_template_errors": 2278,
      "89": 2279,
      "C&pg=PA": 2280,
      "Singh": 2281,
      "athe": 2282,
      "ficial": 2283,
      "jec": 2284,
      "s\"))\n": 2285,
      "्ड": 2286,
      "ಟಿ": 2287,
      "ಟ್ಟ": 2288,
      "ಾಲ": 2289,
      "೨೦": 2290,
      "▁ಉ": 2291,
      "▁ಶ": 2292,
      "▁ಭಾಷೆ": 2293,
      "▁[F": 2294,
      "edi": 2295,
      "▁population": 2296,
      "▁cons": 2297,
      "▁CITEREF": 2298,
      "ument": 2299,
      "umber": 2300,
      "▁Pl": 2301,
      "ಾರ್": 2302,
      "](https://hi.wikipedia.org/भारतीय_": 2303,
      "210": 2304,
      "▁Empire": 2305,
      "▁New": 2306,
      "▁government": 2307,
      "▁ಪಾ": 2308,
      "apit": 2309,
      "▁this": 2310,
      "tember": 2311,
      "eptember": 2312,
      "nglish": 2313,
      "▁Asia\")": 2314,
      "▁errors\"))\n": 2315,
      "▁Development": 2316,
      "▁(PDF)": 2317,
      "Off": 2318,
      "_క": 2319,
      "_19": 2320,
      "pt": 2321,
      "rd": 2322,
      "ta": 2323,
      "सम": 2324,
      "ूर": 2325,
      "తు": 2326,
      "పతి": 2327,
      "▁ని": 2328,
      "▁స్థ": 2329,
      "▁[అ": 2330,
      "▁[ప": 2331,
      "▁\"భారతదేశం": 2332,
      "time": 2333,
      "్రి": 2334,
      "lob": 2335,
      "న్ని": 2336,
      "ర్వ": 2337,
      "rab": 2338,
      "ों_की_स": 2339,
      "మిళ": 2340,
      ".jpg/250px-": 2341,
      "▁[Archived](https://web.archive.org/web/201": 2342,
      "श्चि": 2343,
      "వంశ": 2344,
      "ledge": 2345,
      ",0": 2346,
      "2/": 2347,
      "ban": 2348,
      "ocial": 2349,
      "ओं": 2350,
      "न\")": 2351,
      "ीं": 2352,
      "ूप": 2353,
      "iament": 2354,
      "ori": 2355,
      "one": 2356,
      "](https://hi.wikipedia.org/प": 2357,
      "▁into": 2358,
      "▁system": 2359,
      "ade": 2360,
      "iron": 2361,
      "▁\"South": 2362,
      "]](https://hi.wikipedia.org/भारत#cite_note-FOOTNOTE": 2363,
      "ummit\")": 2364,
      "arliament": 2365,
      "DwAAQBAJ&pg=PA": 2366,
      "ज्ञ": 2367,
      "_మ": 2368,
      "_భాష": 2369,
      "dom": 2370,
      "mar": 2371,
      "por": 2372,
      "गण": 2373,
      "रब": 2374,
      "्स": 2375,
      "ఫ్": 2376,
      "ದ್": 2377,
      "ವಾಗ": 2378,
      "ೃತ": 2379,
      "▁స్": 2380,
      "▁em": 2381,
      "king": 2382,
      "▁[J": 2383,
      "▁[బ": 2384,
      "▁[స": 2385,
      "tel": 2386,
      "▁\"అ": 2387,
      "▁\"ಭಾರತದ": 2388,
      "▁किया": 2389,
      "ley": 2390,
      "▁sfn": 2391,
      "entre": 2392,
      "▁September": 2393,
      "](https://kn.wikipedia.org/ಭಾರತದ_": 2394,
      "న్నాయ": 2395,
      "▁[↑](https://kn.wikipedia.org/ಭಾರತ#cite_": 2396,
      "▁కాల": 2397,
      "नाम": 2398,
      "▁En": 2399,
      "imes": 2400,
      "ులు](https://te.wikipedia.org/": 2401,
      ".jpg)](https://te.wikipedia.org/దస్త్రం:": 2402,
      "▁ಕೋ": 2403,
      "▁రై": 2404,
      "_के_राज्य": 2405,
      "ಂಗ್": 2406,
      "ಿದೆ.": 2407,
      "Stein1998": 2408,
      "engal": 2409,
      "ಸ್ಥೆ": 2410,
      "ंदिर": 2411,
      "హిందూ": 2412,
      "ographi": 2413,
      "Singh2009": 2414,
      "/p": 2415,
      "1/": 2416,
      "44": 2417,
      "88": 2418,
      "Dyson": 2419,
      "_प्र": 2420,
      "gy": 2421,
      "pic": 2422,
      "viron": 2423,
      "जी": 2424,
      "ली": 2425,
      "ष्": 2426,
      "▁\"J": 2427,
      "ini": 2428,
      "eration": 2429,
      "ouse": 2430,
      "lear": 2431,
      "ross": 2432,
      "▁dis": 2433,
      "uclear": 2434,
      "_Press": 2435,
      "List_of_countries": 2436,
      "also": 2437,
      "▁have": 2438,
      "▁year": 2439,
      "vironment": 2440,
      "&s": 2441,
      "/A": 2442,
      "_L": 2443,
      "hp": 2444,
      "kno": 2445,
      "ंजा": 2446,
      "ख्या": 2447,
      "दक्षिण": 2448,
      "वन": 2449,
      "ద్ర": 2450,
      "భూ": 2451,
      "య్య": 2452,
      "ర్య": 2453,
      "▁ల": 2454,
      "▁es": 2455,
      "▁us": 2456,
      "▁\"ప": 2457,
      "▁\"బ": 2458,
      "▁\"స": 2459,
      "](https://en.wikipedia.org/J": 2460,
      "ofindia": 2461,
      "cience": 2462,
      "▁their": 2463,
      "▁Commissioner": 2464,
      "ateg": 2465,
      "ural": 2466,
      "anges": 2467,
      "▁Pradesh": 2468,
      "▁[↑](https://te.wikipedia.org/భారతదేశం#cite_ref-": 2469,
      "oll": 2470,
      "▁National": 2471,
      "न्न": 2472,
      "्वीप": 2473,
      "త్త": 2474,
      "▁అధిక": 2475,
      "▁ప్రదేశ్": 2476,
      "ప్రదేశ్": 2477,
      "▁गया": 2478,
      "hina": 2479,
      "▁language\")": 2480,
      "_summit": 2481,
      "gency": 2482,
      "▁खाना": 2483,
      "▁నుండి": 2484,
      "ों_की_सूची": 2485,
      "న్నాయి.": 2486,
      "ंजाब": 2487,
      "%28": 2488,
      "2%": 2489,
      "4).": 2490,
      "_at": 2491,
      "cri": 2492,
      "son": 2493,
      "ya": 2494,
      "बसे": 2495,
      "ुल": 2496,
      "ेव": 2497,
      "ಕಾ": 2498,
      "ಪು": 2499,
      "ೆಲ": 2500,
      "▁[19": 2501,
      "trar": 2502,
      "idd": 2503,
      "▁Aug": 2504,
      "▁first": 2505,
      "ेंद्र": 2506,
      "](https://hi.wikipedia.org/भारत_क": 2507,
      "▁2018": 2508,
      "▁ಮು": 2509,
      "ortal": 2510,
      "ffair": 2511,
      "▁Press\").": 2512,
      "inister": 2513,
      "▁राज्यों": 2514,
      "▁भाषा\")": 2515,
      "censusindia.gov.in/": 2516,
      "html)": 2517,
      "outledge": 2518,
      "ಹಿಂದೂ": 2519,
      "gistrar": 2520,
      "330px-": 2521,
      "ombined": 2522,
      "▁August": 2523,
      "\".": 2524,
      "-re": 2525,
      "86": 2526,
      "Rothermund": 2527,
      "eth": 2528,
      "fl": 2529,
      "rin": 2530,
      "van": 2531,
      "बंध": 2532,
      "ణి": 2533,
      "తమిళ": 2534,
      "మె": 2535,
      "మైన": 2536,
      "హార": 2537,
      "ోర్": 2538,
      "▁also": 2539,
      "▁[I": 2540,
      "▁\"ఇ": 2541,
      "▁\"భారత": 2542,
      "](https://te.wikipedia.org/బ": 2543,
      "ool": 2544,
      "▁comp": 2545,
      "▁Population": 2546,
      "▁हो": 2547,
      "▁2019": 2548,
      "▁during": 2549,
      "▁మొ": 2550,
      "▁नि": 2551,
      "నాగ": 2552,
      "త్తర": 2553,
      "ులు\")": 2554,
      "%2F": 2555,
      "▁[मूल": 2556,
      "▁(PDF).": 2557,
      "economic": 2558,
      "120px-": 2559,
      "ganisation": 2560,
      "ారు.": 2561,
      "శ్మీ": 2562,
      "uropean": 2563,
      "మూస:": 2564,
      "embly": 2565,
      "Dyson2018": 2566,
      "/f": 2567,
      "84": 2568,
      "Kulke": 2569,
      "_3": 2570,
      "_%28": 2571,
      "ibrary": 2572,
      "oor": 2573,
      "uis": 2574,
      "चल": 2575,
      "ब्": 2576,
      "wing": 2577,
      ".org/10.": 2578,
      "▁सबसे": 2579,
      "▁part": 2580,
      "-17": 2581,
      "urr": 2582,
      "▁16": 2583,
      "▁**[": 2584,
      "ayan": 2585,
      "ालय": 2586,
      "▁Jan": 2587,
      "ode": 2588,
      "▁region": 2589,
      "isher": 2590,
      "न्द्र": 2591,
      "hism": 2592,
      "▁पुरालेखित": 2593,
      "doi.org/10.": 2594,
      "चित्र:": 2595,
      "▁सूची\")": 2596,
      "censusindia.gov.in/2011": 2597,
      "▁पुरालेखित।": 2598,
      "Combined": 2599,
      "jab": 2600,
      "la": 2601,
      "pp": 2602,
      "आई": 2603,
      "जरा": 2604,
      "ेख": 2605,
      "ैन": 2606,
      "శా": 2607,
      "ైనా": 2608,
      "ಕಿಸ": 2609,
      "ದು": 2610,
      "ನೆ": 2611,
      "ಯು": 2612,
      "ಸ್ತ": 2613,
      "ುನಾ": 2614,
      "ೇಂದ": 2615,
      "ೈನ": 2616,
      "ೊಂದ": 2617,
      "▁ಈ": 2618,
      "▁ಲ": 2619,
      "▁0.": 2620,
      "▁[ఇ": 2621,
      "▁\"జ": 2622,
      "annic": 2623,
      "India)": 2624,
      "estern": 2625,
      "](https://hi.wikipedia.org/चित्र:": 2626,
      "](https://te.wikipedia.org/ఇ": 2627,
      "](https://te.wikipedia.org/స": 2628,
      "▁India:": 2629,
      "adu": 2630,
      "భారత_": 2631,
      "್ರಿ": 2632,
      "రాజ": 2633,
      "లో](https://te.wikipedia.org/": 2634,
      "ember": 2635,
      "రిజ": 2636,
      "క్కు": 2637,
      "-2)": 2638,
      "▁Nations": 2639,
      "ండ్": 2640,
      "odi": 2641,
      "ritannic": 2642,
      "ishing": 2643,
      "स्था": 2644,
      "चीन": 2645,
      "ियों": 2646,
      "ಂಗಾ": 2647,
      "क्ति": 2648,
      "]](https://kn.wikipedia.org/ಭಾರತ#cite_note-": 2649,
      "ology": 2650,
      "స్కృతి": 2651,
      "ujar": 2652,
      "_and_Sfn_template_errors?action=edit&redlink=1": 2653,
      "ategory": 2654,
      "ಕಿಸ್ತಾನ": 2655,
      ",6": 2656,
      "31": 2657,
      "75": 2658,
      ":[": 2659,
      "iver": 2660,
      "प्त": 2661,
      "ोर": 2662,
      "।[[": 2663,
      "▁+": 2664,
      "▁[उ": 2665,
      "tec": 2666,
      "▁\"W": 2667,
      "them": 2668,
      "▁class": 2669,
      "etwe": 2670,
      "ourt": 2671,
      "▁जिस": 2672,
      "▁प्रा": 2673,
      "-81": 2674,
      "▁form": 2675,
      "versity_Press": 2676,
      "%29": 2677,
      "स्थान": 2678,
      "nologue": 2679,
      "history": 2680,
      "usiness": 2681,
      ".svg": 2682,
      "ुसार": 2683,
      "KulkeRothermund": 2684,
      "etween": 2685,
      "76": 2686,
      "_O": 2687,
      "dis": 2688,
      "gar": 2689,
      "hol": 2690,
      "च्च": 2691,
      "ण्ड": 2692,
      "िन": 2693,
      "ం?action=edit&redlink=1": 2694,
      "ఆసియా": 2695,
      "చే": 2696,
      "బా": 2697,
      "▁$": 2698,
      "](https://books.google.com/books?id=": 2699,
      "▁[జ": 2700,
      "omen": 2701,
      "amb": 2702,
      "▁Ass": 2703,
      "▁పా": 2704,
      "iles/": 2705,
      "](https://hi.wikipedia.org/भारत#CITEREF": 2706,
      "chnolog": 2707,
      "olper": 2708,
      "▁world": 2709,
      "resid": 2710,
      "▁వా": 2711,
      "ండు": 2712,
      "▁చూ": 2713,
      "_सं": 2714,
      "త్వ": 2715,
      "▁2022": 2716,
      "ప్రధాన": 2717,
      ".php": 2718,
      "irect": 2719,
      ".jpg/330px-": 2720,
      "▁తే": 2721,
      "▁साथ": 2722,
      "udden": 2723,
      "view": 2724,
      "...": 2725,
      "](https://hi.wikipedia.org/भारत_में_": 2726,
      "olpert": 2727,
      "-of": 2728,
      "-india-": 2729,
      "2-0)": 2730,
      "4/": 2731,
      "CE": 2732,
      "_K": 2733,
      "_In": 2734,
      "_re": 2735,
      "a/": 2736,
      "has": 2737,
      "ne": 2738,
      "ok": 2739,
      "rac": 2740,
      "ाम": 2741,
      "ಂಬ": 2742,
      "ಗು": 2743,
      "ಭೆ": 2744,
      "ಯಾ": 2745,
      "ಸಭೆ": 2746,
      "▁ಒ": 2747,
      "▁al": 2748,
      "▁30": 2749,
      "▁im": 2750,
      "▁था": 2751,
      "▁धर्म": 2752,
      "▁[U": 2753,
      "▁[ಮ": 2754,
      "▁\"ಮ": 2755,
      "▁\"श्रेणी:Harv": 2756,
      "\").\n": 2757,
      "eser": 2758,
      "](https://hi.wikipedia.org/श्रेणी:Harv": 2759,
      "▁India\"),": 2760,
      "▁सि": 2761,
      "adition": 2762,
      "▁bec": 2763,
      "](https://kn.wikipedia.org/ಮ": 2764,
      "term": 2765,
      "istan": 2766,
      "unjab": 2767,
      "raven": 2768,
      "trib": 2769,
      "-40": 2770,
      "form": 2771,
      "्वर": 2772,
      "able": 2773,
      "▁2006": 2774,
      "1994": 2775,
      "umbai": 2776,
      "▁आधार": 2777,
      "▁ವಿ": 2778,
      "▁संघ": 2779,
      "पाकिस्तान": 2780,
      "▁subcontinent": 2781,
      "crease": 2782,
      "_University_Press": 2783,
      "▁([help](https://hi.wikipedia.org/श्रेणी:Harv": 2784,
      "lobal": 2785,
      "iddle": 2786,
      "▁January": 2787,
      "▁([help](https://hi.wikipedia.org/श्रेणी:Harv_and_Sfn_template_errors?action=edit&redlink=1": 2788,
      "1_": 2789,
      "2_": 2790,
      "_సా": 2791,
      "are": 2792,
      "fric": 2793,
      "gl": 2794,
      "lad": 2795,
      "tor": 2796,
      "ual": 2797,
      "की": 2798,
      "णा": 2799,
      "तंत्र": 2800,
      "वरी": 2801,
      "्ला": 2802,
      "ంప": 2803,
      "కో": 2804,
      "గణ": 2805,
      "దిన": 2806,
      "నై": 2807,
      "రీ": 2808,
      "▁Y": 2809,
      "▁ar": 2810,
      "▁ac": 2811,
      "▁विश्व": 2812,
      "▁[3": 2813,
      "▁\"उ": 2814,
      "▁\"చ": 2815,
      "\"):": 2816,
      "ering": 2817,
      "](https://hi.wikipedia.org/उ": 2818,
      "edic": 2819,
      "](https://te.wikipedia.org/జ": 2820,
      "2019": 2821,
      "tra": 2822,
      "्यट": 2823,
      "▁May": 2824,
      "▁Metcalf": 2825,
      "▁క్రీ": 2826,
      "క్‌": 2827,
      "నికి": 2828,
      "ల్ల": 2829,
      "ाली": 2830,
      "ంగీ": 2831,
      "▁GDP": 2832,
      "▁సి": 2833,
      "నాభా": 2834,
      ".gov.in/": 2835,
      "▁(identifier)\"):[": 2836,
      "జాబి": 2837,
      ".png": 2838,
      "Harle": 2839,
      ".jpg/120px-": 2840,
      "articl": 2841,
      "▁[![](https://upload.wikimedia.org/wikipedia/commons/thumb/": 2842,
      "श्मी": 2843,
      "economy": 2844,
      "▁శా": 2845,
      "▁భాష\")": 2846,
      "బెంగ": 2847,
      "ffairs": 2848,
      "ategory:": 2849,
      "జాబితా": 2850,
      "-le": 2851,
      "82": 2852,
      "aper": 2853,
      "c=": 2854,
      "ee": 2855,
      "public": 2856,
      "rganisation": 2857,
      "ंब": 2858,
      "गढ़": 2859,
      "ज्य": 2860,
      "तमिल": 2861,
      "दा": 2862,
      "ांग": 2863,
      "ेर": 2864,
      "iation": 2865,
      "ones": 2866,
      "andhi": 2867,
      "ature": 2868,
      "▁co": 2869,
      "▁Act": 2870,
      "▁Comp": 2871,
      "▁Congress": 2872,
      "▁but": 2873,
      "▁between": 2874,
      "cember": 2875,
      "▁March": 2876,
      "▁अधिक": 2877,
      "▁1950": 2878,
      "berg": 2879,
      "▁2009": 2880,
      "▁Fe": 2881,
      ".jpg)\n\n": 2882,
      "तिहास": 2883,
      "ligi": 2884,
      "▁१९": 2885,
      "\n\n[![](https://upload.wikimedia.org/wikipedia/commons/thumb/": 2886,
      "युक्त": 2887,
      "▁century": 2888,
      "स्कृत": 2889,
      "▁हिन्द": 2890,
      ",[[": 2891,
      ".n": 2892,
      "1-0)": 2893,
      "3-0)": 2894,
      "4-0)": 2895,
      "National_": 2896,
      "fic": 2897,
      "lag": 2898,
      "pu": 2899,
      "ran": 2900,
      "rish": 2901,
      "wo": 2902,
      "y\")": 2903,
      "वे": 2904,
      "చల్": 2905,
      "యన్": 2906,
      "షు": 2907,
      "ూర్": 2908,
      "ಖ್": 2909,
      "ಚ್ಚ": 2910,
      "ಣೆ": 2911,
      "ದಾ": 2912,
      "ಪಂ": 2913,
      "ಭೂ": 2914,
      "ರಂ": 2915,
      "ಲಾ": 2916,
      "ಹಾ": 2917,
      "ಹಲಿ": 2918,
      "ೆಹಲಿ": 2919,
      "▁over": 2920,
      "▁all": 2921,
      "▁[చ": 2922,
      "▁[భారత": 2923,
      "▁[ಭಾರತದ": 2924,
      "▁[భారతీయ": 2925,
      "ominal": 2926,
      "](https://te.wikipedia.org/ప": 2927,
      "](https://te.wikipedia.org/భారతీయ": 2928,
      "्रिट": 2929,
      "ారం": 2930,
      "ార్ట": 2931,
      "1947": 2932,
      "ooperation": 2933,
      "▁sec": 2934,
      "ాలయ": 2935,
      "▁मान": 2936,
      "here": 2937,
      "▁more": 2938,
      "▁di": 2939,
      "▁dance": 2940,
      "याल": 2941,
      "▁22": 2942,
      "క్క": 2943,
      "▁వ్యవస్థ": 2944,
      "2023": 2945,
      "indus": 2946,
      "▁ము": 2947,
      "ండో": 2948,
      "्वार": 2949,
      "ರ್ಥ": 2950,
      "ముంబ": 2951,
      "సిన": 2952,
      "ినల్": 2953,
      "ద్ద": 2954,
      "▁ఉన్న": 2955,
      "▁ఉంది.": 2956,
      "ಂತರ": 2957,
      "िल्ल": 2958,
      "-19-8": 2959,
      "▁Press.": 2960,
      "ಕ್ಕ": 2961,
      "▁2020": 2962,
      "పాకిస్తాన్": 2963,
      "-107": 2964,
      "▁produc": 2965,
      "clud": 2966,
      "ంధీ": 2967,
      "्राज्य": 2968,
      "▁ఒక": 2969,
      "▁ఒరిజ": 2970,
      "ಸಿಂಧ": 2971,
      "apita": 2972,
      "వంశం": 2973,
      "ದ್ಧ": 2974,
      "ographic": 2975,
      "censusindia.gov.in/2011census": 2976,
      "▁తేదీ": 2977,
      "ార్టీ": 2978,
      "▁ఒరిజినల్": 2979,
      ",9": 2980,
      "Island": 2981,
      "_W": 2982,
      "_और": 2983,
      "ces": 2984,
      "evelopment": 2985,
      "fr": 2986,
      "hang": 2987,
      "iz": 2988,
      "ph": 2989,
      "ttar": 2990,
      "wart": 2991,
      "zberg": 2992,
      "एं": 2993,
      "भी": 2994,
      "वर्": 2995,
      "▁'": 2996,
      "▁/": 2997,
      "▁other": 2998,
      "ped": 2999,
      "](https://doi.org/10.": 3000,
      "▁\"I": 3001,
      "ann": 3002,
      "](https://en.wikipedia.org/W": 3003,
      "ars": 3004,
      "▁कार": 3005,
      "ough": 3006,
      "▁India.": 3007,
      "▁par": 3008,
      "▁1.": 3009,
      "▁most": 3010,
      "00)": 3011,
      "come": 3012,
      "chwart": 3013,
      "▁[↑](https://hi.wikipedia.org/भारत#cite_": 3014,
      "▁ab": 3015,
      "▁after": 3016,
      "▁General": 3017,
      "▁East": 3018,
      "▁बाद": 3019,
      "formatics": 3020,
      "▁For": 3021,
      "-80": 3022,
      "▁national": 3023,
      "▁number": 3024,
      "माण": 3025,
      "ड़ा": 3026,
      "▁been": 3027,
      "▁शास": 3028,
      "904": 3029,
      "▁साम": 3030,
      "▁यह": 3031,
      "auth": 3032,
      "▁[भारतीय": 3033,
      "actbook": 3034,
      "▁original](https://www.": 3035,
      "%E0%A": 3036,
      "ज्ञान": 3037,
      "▁years": 3038,
      "ritannica": 3039,
      "ujarat": 3040,
      "chwartzberg": 3041,
      "/India": 3042,
      "2,": 3043,
      "55": 3044,
      "ID": 3045,
      "Vi": 3046,
      "ft": 3047,
      "gram": 3048,
      "lam": 3049,
      "lations": 3050,
      "mu": 3051,
      "minis": 3052,
      "nominal": 3053,
      "oth": 3054,
      "s-": 3055,
      "tain": 3056,
      "ua": 3057,
      "vol": 3058,
      "टे": 3059,
      "तर": 3060,
      "लु": 3061,
      "शास": 3062,
      "ाट": 3063,
      "జ్": 3064,
      "వరి": 3065,
      "శ్చ": 3066,
      "ిన్న": 3067,
      "ెల": 3068,
      "▁थ": 3069,
      "▁en": 3070,
      "ia\")": 3071,
      "▁[t": 3072,
      "▁[Indian": 3073,
      "enn": 3074,
      "▁\"భారతదేశ": 3075,
      "▁\"विशेष:पुस्तक": 3076,
      "ince": 3077,
      "eral_": 3078,
      "ised": 3079,
      "](https://hi.wikipedia.org/ISBN_(identifier)": 3080,
      "](https://hi.wikipedia.org/विशेष:पुस्तक": 3081,
      "omes": 3082,
      "్రె": 3083,
      "▁official": 3084,
      "▁स्रोत/978": 3085,
      "▁pri": 3086,
      "ama": 3087,
      "ustral": 3088,
      "▁Cambridge": 3089,
      "▁पा": 3090,
      "loc": 3091,
      "life": 3092,
      "anglad": 3093,
      "_of_the": 3094,
      "](https://hi.wikipedia.org/भारत_के_": 3095,
      "▁2012": 3096,
      "▁2017": 3097,
      "▁Th": 3098,
      "నిస్తాన్": 3099,
      ".com/news/": 3100,
      "▁మధ్య": 3101,
      "122": 3102,
      "ियाँ": 3103,
      "लाई": 3104,
      "_स्रोत/978": 3105,
      "▁Oxford": 3106,
      "ose": 3107,
      "](https://te.wikipedia.org/భారతదేశంలో": 3108,
      "harma": 3109,
      "▁[ISBN](https://hi.wikipedia.org/ISBN_(identifier)": 3110,
      "avid": 3111,
      "▁ఉన్నాయి.": 3112,
      "ligence": 3113,
      "▁[*A": 3114,
      "dex": 3115,
      "స్థాన్": 3116,
      "▁लि": 3117,
      "_के_आ": 3118,
      "html).": 3119,
      "▁పేజీ": 3120,
      "మ్మూ": 3121,
      "साँचा:": 3122,
      "▁\"భారతదేశంలో": 3123,
      "श्चिम": 3124,
      "telligence": 3125,
      "▁చూసిన": 3126,
      "ांग्ला": 3127,
      "▁తేదీ:": 3128,
      "gramme": 3129,
      "శ్చి": 3130,
      "](https://hi.wikipedia.org/विशेष:पुस्तक_स्रोत/978": 3131,
      "angladesh": 3132,
      "▁పేజీని": 3133,
      "*,": 3134,
      "-India": 3135,
      "/S": 3136,
      "01": 3137,
      "6).": 3138,
      "6-0)": 3139,
      "79": 3140,
      "CO": 3141,
      "Rep": 3142,
      "_भाषा": 3143,
      "dr": 3144,
      "nal": 3145,
      "oon": 3146,
      "oci": 3147,
      "rm": 3148,
      "ंप": 3149,
      "मुख": 3150,
      "ಮ್ರಾ": 3151,
      "ಶ್ಚ": 3152,
      "ಹಾರ": 3153,
      "ುವ": 3154,
      "್ಮ": 3155,
      "▁res": 3156,
      "▁art": 3157,
      "▁राष्ट्रीय": 3158,
      "with": 3159,
      "kim": 3160,
      "▁[e": 3161,
      "\")**": 3162,
      "er,": 3163,
      "arb": 3164,
      "asia": 3165,
      "2016": 3166,
      "2000": 3167,
      "2001": 3168,
      "▁Ch": 3169,
      "▁Constitution": 3170,
      "ters": 3171,
      "olic": 3172,
      "union": 3173,
      "rahm": 3174,
      "್ಯವ": 3175,
      "▁24": 3176,
      "ird": 3177,
      "emple": 3178,
      "▁जु": 3179,
      "▁English": 3180,
      "ेश्वर": 3181,
      "▁ಸ್ವ": 3182,
      "▁[South": 3183,
      ".gov/": 3184,
      "ಸ್ಕ": 3185,
      "harat": 3186,
      "doc": 3187,
      "▁ಹೊಂದ": 3188,
      "▁उप": 3189,
      "म्ब": 3190,
      "▁states": 3191,
      "▁यु": 3192,
      "ikshi": 3193,
      "olitical": 3194,
      "▁[2](https://en.wikipedia.org/India#cite_ref-FOOTNOTE": 3195,
      "ovement": 3196,
      "▁[1](https://en.wikipedia.org/India#cite_ref-FOOTNOTE": 3197,
      "obb": 3198,
      "▁2014.\n": 3199,
      "त्प": 3200,
      "गुजरा": 3201,
      "▁ಹೆಚ್ಚ": 3202,
      "ತಂತ್ರ್ಯ": 3203,
      "▁territories": 3204,
      "ूचना": 3205,
      "▁ಪಾಕಿಸ್ತಾನ": 3206,
      "_प्रदेश": 3207,
      "ುನಾವ": 3208,
      "ರ್ಥಿಕ": 3209,
      "nominal)": 3210,
      "omestic": 3211,
      "ಮ್ರಾಜ್ಯ": 3212,
      "ikshit": 3213,
      "-20": 3214,
      "/5": 3215,
      "119": 3216,
      "5-0)": 3217,
      "73": 3218,
      "Hindi": 3219,
      "NGDP": 3220,
      "WE": 3221,
      "_12": 3222,
      "_पर": 3223,
      "_territ": 3224,
      "hat": 3225,
      "if": 3226,
      "ime": 3227,
      "ket": 3228,
      "pib": 3229,
      "s18": 3230,
      "s.[[": 3231,
      "ymb": 3232,
      "काल": 3233,
      "बाद": 3234,
      "में": 3235,
      "रक्ष": 3236,
      "वाद": 3237,
      "ाष्ट्र": 3238,
      "ागर": 3239,
      "ोर्": 3240,
      "షన్": 3241,
      "హ్": 3242,
      "ెలు": 3243,
      "▁k": 3244,
      "pear": 3245,
      "▁[v": 3246,
      "▁[Metcalf": 3247,
      "▁[सं": 3248,
      "▁[doi": 3249,
      "alore": 3250,
      "alley": 3251,
      "ara": 3252,
      "off": 3253,
      "theast": 3254,
      "](https://te.wikipedia.org/అ": 3255,
      "▁se": 3256,
      "▁St": 3257,
      "angalore": 3258,
      "etary": 3259,
      "▁1,": 3260,
      "▁14": 3261,
      "िक्ष": 3262,
      "రియా": 3263,
      "▁1947": 3264,
      "▁మార్": 3265,
      "▁Hindi": 3266,
      "▁election": 3267,
      "क्षेत्र": 3268,
      "ndaman": 3269,
      ".jpg)\n-": 3270,
      "ప్రపంచ": 3271,
      "_मेला": 3272,
      "नेमा": 3273,
      "ommon": 3274,
      "▁\"Doi": 3275,
      "▁state": 3276,
      "cyc": 3277,
      "](https://en.wikipedia.org/Doi": 3278,
      "▁December": 3279,
      "▁సంస్కృతి": 3280,
      "దీవ": 3281,
      "धार_पर": 3282,
      "द्योग": 3283,
      "हाराष्ट्र": 3284,
      "▁estim": 3285,
      "chnology": 3286,
      "resident": 3287,
      "▁2006](https://en.wikipedia.org/India#CITEREF": 3288,
      "▁(identifier)\"):[10.": 3289,
      "्रिटिश": 3290,
      "_के_आधार_पर": 3291,
      "▁[doi](https://en.wikipedia.org/Doi": 3292,
      "_के_आधार_पर_भारत": 3293,
      "▁[doi](https://en.wikipedia.org/Doi_(identifier)": 3294,
      "-21": 3295,
      "32": 3296,
      "7C": 3297,
      "_f": 3298,
      "gions": 3299,
      "oin": 3300,
      "right": 3301,
      "wn": 3302,
      "लि": 3303,
      "ल\")": 3304,
      "▁j": 3305,
      "▁time": 3306,
      "orther": 3307,
      "▁[[": 3308,
      "▁[s": 3309,
      "▁[India": 3310,
      "reat": 3311,
      "read": 3312,
      "ale": 3313,
      "andard": 3314,
      "ased": 3315,
      "▁India\").": 3316,
      "▁स्व": 3317,
      "▁includ": 3318,
      "▁spe": 3319,
      "▁मंदिर": 3320,
      "्यव": 3321,
      "▁Pe": 3322,
      "▁Per": 3323,
      "▁music": 3324,
      "ched": 3325,
      "▁2015": 3326,
      "▁Budd": 3327,
      "▁BCE": 3328,
      "riod": 3329,
      "2024": 3330,
      "▁है,": 3331,
      "▁दक्षिण": 3332,
      "ंगा": 3333,
      "▁[Stein": 3334,
      "bruary": 3335,
      "▁[2](https://en.wikipedia.org/India#cite_ref-": 3336,
      "▁[1](https://en.wikipedia.org/India#cite_ref-": 3337,
      "_pro": 3338,
      "vision": 3339,
      "ed.).": 3340,
      "▁पुरालेखित।.": 3341,
      "▁became": 3342,
      "olicy": 3343,
      "▁जुलाई": 3344,
      "_के_आधार_पर_भारत_के_राज्य": 3345,
      "-to": 3346,
      ".as": 3347,
      "/P": 3348,
      "/articl": 3349,
      "1–": 3350,
      "2-2": 3351,
      "53": 3352,
      "8–": 3353,
      "CN": 3354,
      "IM": 3355,
      "National": 3356,
      "UN": 3357,
      "Wolpert": 3358,
      "_వ": 3359,
      "cent": 3360,
      "ges": 3361,
      "ru": 3362,
      "tb": 3363,
      "ton": 3364,
      "ीस": 3365,
      "००": 3366,
      "ం\"),": 3367,
      "ంత్రి": 3368,
      "ఆఫ్": 3369,
      "కత": 3370,
      "కై": 3371,
      "క్య": 3372,
      "దాయ": 3373,
      "రే": 3374,
      "లంక": 3375,
      "వీ": 3376,
      "శ్రీ": 3377,
      "షి": 3378,
      "సు": 3379,
      "ಕ್ತ": 3380,
      "ಗೋ": 3381,
      "ಜಾ": 3382,
      "ಜೈನ": 3383,
      "ಡಳ": 3384,
      "ಡಿ": 3385,
      "ಡೆ": 3386,
      "ಡ್": 3387,
      "ಧ್ಯ": 3388,
      "ಳಿ": 3389,
      "ಷಿ": 3390,
      "ಷ್": 3391,
      "ಿನ": 3392,
      "ಿಲಿ": 3393,
      "ೀಪ": 3394,
      "ೋಕ": 3395,
      "ೌದ್ಧ": 3396,
      "▁ఏ": 3397,
      "▁नाम": 3398,
      "win": 3399,
      "▁[ಬ": 3400,
      "▁[సి": 3401,
      "▁[United": 3402,
      "▁\"ಬ": 3403,
      "high": 3404,
      "eds.": 3405,
      "](https://te.wikipedia.org/చ": 3406,
      "iction": 3407,
      "▁Sh": 3408,
      "స్సా": 3409,
      "▁पूर्व": 3410,
      "▁పరి": 3411,
      "▁పార్టీ": 3412,
      "](https://kn.wikipedia.org/ಬ": 3413,
      "న్‌": 3414,
      "olk": 3415,
      "▁dec": 3416,
      "▁Talbot": 3417,
      "▁**ರಾಷ್ಟ್ರೀಯ": 3418,
      "▁కు": 3419,
      "▁27": 3420,
      "▁अप": 3421,
      "▁వచ్చ": 3422,
      "नाग": 3423,
      "abad": 3424,
      "ముద్ర": 3425,
      "▁Increase": 3426,
      "1996": 3427,
      "ನ್.": 3428,
      "▁विक": 3429,
      "▁Union": 3430,
      "▁right": 3431,
      "▁two": 3432,
      "905": 3433,
      "_and_de": 3434,
      "▁It": 3435,
      "▁ಬೆ": 3436,
      "గాంధీ": 3437,
      "ತಿಹಾ": 3438,
      "ರುವ": 3439,
      "▁रूप": 3440,
      "నేపాల": 3441,
      "▁tradition": 3442,
      "▁[↑](https://hi.wikipedia.org/भारत#cite_ref-FOOTNOTE": 3443,
      "olitics": 3444,
      "▁పేరు": 3445,
      "▁देशों": 3446,
      "▁చెయ్య": 3447,
      "▁ಜನಸಂಖ್ಯೆ": 3448,
      "▁2010](https://en.wikipedia.org/India#CITEREF": 3449,
      "▁కూడా": 3450,
      "ughal": 3451,
      "Official": 3452,
      "▁ಕೋಟಿ": 3453,
      "ంగీతం": 3454,
      "ligious": 3455,
      "ముంబై": 3456,
      "శ్చిమ": 3457,
      "ಶ್ಚಿಮ": 3458,
      "ುನಾವಣೆ": 3459,
      "WEO": 3460,
      "▁మార్గ": 3461,
      "orthern": 3462,
      "ಡಳಿತ": 3463,
      "ತಿಹಾಸ": 3464,
      "▁చెయ్యబడ": 3465,
      "-B": 3466,
      ".india": 3467,
      "2).": 3468,
      "5–": 3469,
      "7-0)": 3470,
      "99": 3471,
      "Asia": 3472,
      "TR": 3473,
      "ae": 3474,
      "par": 3475,
      "ures": 3476,
      "va": 3477,
      "ंक": 3478,
      "एशिया": 3479,
      "धी": 3480,
      "ोन": 3481,
      "▁:": 3482,
      "▁\"Re": 3483,
      "▁\"United": 3484,
      "inated": 3485,
      "](https://en.wikipedia.org/The": 3486,
      "ar,": 3487,
      "ार्": 3488,
      "▁कि": 3489,
      "ash": 3490,
      "▁summit\")": 3491,
      "▁caste": 3492,
      "ussia": 3493,
      "wealth": 3494,
      "change": 3495,
      "rop": 3496,
      "▁Times": 3497,
      "ournal": 3498,
      "▁Data": 3499,
      "▁*The": 3500,
      "▁Economic": 3501,
      "_in_S": 3502,
      "ंगाल": 3503,
      "▁तट": 3504,
      "▁general": 3505,
      "▁न्या": 3506,
      "▁[\"India": 3507,
      "▁Indus": 3508,
      "1990": 3509,
      "1997": 3510,
      "osed": 3511,
      "_Centre": 3512,
      "▁एवं": 3513,
      "ivil": 3514,
      "▁\"Economy": 3515,
      "](https://en.wikipedia.org/Economy": 3516,
      "onstituent": 3517,
      "PPP": 3518,
      "AsherTalbot2008": 3519,
      "▁Plate": 3520,
      "श्मीर": 3521,
      "▁February": 3522,
      "%E0%A4%": 3523,
      "ymbol": 3524,
      "्यवस्था": 3525,
      ")\n": 3526,
      ".b": 3527,
      "58": 3528,
      "91": 3529,
      "JP": 3530,
      "Population": 3531,
      "_n": 3532,
      "az": 3533,
      "di": 3534,
      "div": 3535,
      "lang": 3536,
      "nam": 3537,
      "oy": 3538,
      "ote": 3539,
      "str": 3540,
      "ves": 3541,
      "सद": 3542,
      "ोड़": 3543,
      "గర": 3544,
      "టక": 3545,
      "టా": 3546,
      "దార": 3547,
      "నీ": 3548,
      "రో": 3549,
      "సభ": 3550,
      "ెద్ద": 3551,
      "▁ci": 3552,
      "▁he": 3553,
      "▁up": 3554,
      "▁[न": 3555,
      "▁\"द": 3556,
      "▁\"సి": 3557,
      "onetary": 3558,
      "thnologue": 3559,
      "208": 3560,
      "arn": 3561,
      "▁केंद्र": 3562,
      "itary": 3563,
      "](https://te.wikipedia.org/భారత_": 3564,
      "196": 3565,
      "1950": 3566,
      "trol": 3567,
      "▁sh": 3568,
      "▁sup": 3569,
      "atar": 3570,
      "▁పు": 3571,
      "▁13": 3572,
      "ility": 3573,
      "▁modern": 3574,
      "chool": 3575,
      "▁2019.": 3576,
      "cean": 3577,
      "्तर": 3578,
      "ung": 3579,
      "రాజ్య": 3580,
      "▁కేంద్రపాలిత": 3581,
      "▁29": 3582,
      "▁BRICS": 3583,
      "2025": 3584,
      "▁మా": 3585,
      "tud": 3586,
      "fore": 3587,
      "▁group": 3588,
      "भाग": 3589,
      "▁చే": 3590,
      "ము\")": 3591,
      "▁had": 3592,
      "rits": 3593,
      "త్స": 3594,
      "▁రాజ్య": 3595,
      "▁2023": 3596,
      "▁2026": 3597,
      "వాతంత్ర": 3598,
      "संख्या": 3599,
      "ublishing": 3600,
      "▁దేశాల": 3601,
      "▁area": 3602,
      "లాదేశ్": 3603,
      "స్తు": 3604,
      "▁अनुसार": 3605,
      "▁సామ్రాజ్యం](https://te.wikipedia.org/": 3606,
      "_by_GDP": 3607,
      "హిందీ": 3608,
      "▁భాషలు": 3609,
      "▁प्रदेश\")": 3610,
      "rowth": 3611,
      "ంగ్లాదేశ్": 3612,
      "times.com/": 3613,
      "-largest": 3614,
      "▁स्थ": 3615,
      "_ప్రా": 3616,
      "్రిటి": 3617,
      "▁అధికార": 3618,
      "glance": 3619,
      "ూర్పు": 3620,
      "కైవు": 3621,
      "_by_GDP_(": 3622,
      "05": 3623,
      "300": 3624,
      "500": 3625,
      "Craven": 3626,
      "En": 3627,
      "II": 3628,
      "_Island": 3629,
      "bi": 3630,
      "cat": 3631,
      "cord": 3632,
      "ehr": 3633,
      "oa": 3634,
      "population": 3635,
      "rg": 3636,
      "site": 3637,
      "slam": 3638,
      "t-": 3639,
      "ving": 3640,
      "y,": 3641,
      "yan": 3642,
      "yayan": 3643,
      "एँ": 3644,
      "एस": 3645,
      "गो": 3646,
      "चे": 3647,
      "डी": 3648,
      "सी": 3649,
      "ಖಂಡ": 3650,
      "ಗ್ರಾ": 3651,
      "ಟೆ": 3652,
      "ಣಾ": 3653,
      "ದೆಹಲಿ": 3654,
      "ಪತಿ": 3655,
      "ಬ್ಯಾ": 3656,
      "ಮ್": 3657,
      "ಮಾನ": 3658,
      "ಯಿ": 3659,
      "ಸಾ": 3660,
      "ೂರ್": 3661,
      "ೆಷಿ": 3662,
      "▁ref": 3663,
      "▁ದೇಶ": 3664,
      "▁ರಾಜ್ಯ": 3665,
      "](https://www.": 3666,
      "▁[हिन्द": 3667,
      "▁\"O": 3668,
      "▁\"U": 3669,
      "ार्ट": 3670,
      "2015": 3671,
      "achin": 3672,
      "▁मूल": 3673,
      "vel": 3674,
      "loy": 3675,
      "urn": 3676,
      "urban": 3677,
      "etail": 3678,
      "](https://kn.wikipedia.org/List_of_countries": 3679,
      "ಾರ್ವ": 3680,
      "▁me": 3681,
      "▁mil": 3682,
      "▁million": 3683,
      "217": 3684,
      "_(India)": 3685,
      "indust": 3686,
      "विधान": 3687,
      "▁जो": 3688,
      "▁ಸಿ": 3689,
      "▁one": 3690,
      "▁बहु": 3691,
      "▁सेना": 3692,
      "imalay": 3693,
      "▁house": 3694,
      "ಗಳಲ್ಲಿ": 3695,
      ".jpg)](https://hi.wikipedia.org/चित्र:": 3696,
      "▁ಹೋ": 3697,
      "▁ನಗ": 3698,
      "ड़ी": 3699,
      "ತ್ತು_": 3700,
      "▁ಅತಿ": 3701,
      "-19-9": 3702,
      "▁Press](https://en.wikipedia.org/": 3703,
      "म्बर": 3704,
      "▁*[The": 3705,
      "ಸಂಸ್ಕ": 3706,
      "induism": 3707,
      "▁भू": 3708,
      "ikh": 3709,
      "ovember": 3710,
      "ricket": 3711,
      "▁ಆರ್ಥಿಕ": 3712,
      "ultan": 3713,
      "\"](https://web.archive.org/web/20160": 3714,
      "ಸ್ಥಾನ": 3715,
      "▁period": 3716,
      "ಸಿಖ್": 3717,
      "धिकार": 3718,
      "ಗಣರಾಜ್ಯ": 3719,
      "▁ಹೆಸ": 3720,
      "ತ್ರಿಕ": 3721,
      "ವೇಬ್ಯಾ": 3722,
      "atsyayan": 3723,
      "ainting": 3724,
      "_ಮತ್ತು_": 3725,
      "ಪ್ರದೇಶ": 3726,
      "▁೧೯": 3727,
      "೨೦೧": 3728,
      "ವಾಗಿ": 3729,
      "ೇಂದ್ರ": 3730,
      "tecture": 3731,
      "्यटन": 3732,
      "Harle1994": 3733,
      "ಕ್ಕೆ": 3734,
      "ಸಿಂಧೂ": 3735,
      "▁ಹೆಚ್ಚು": 3736,
      "IMF": 3737,
      "Wolpert2003": 3738,
      "Craven1997": 3739,
      "ೆಷಿನ್": 3740,
      "ಾರ್ವತ್ರಿಕ": 3741,
      "ಸಂಸ್ಕೃತ": 3742,
      "ವೇಬ್ಯಾಕ್": 3743,
      ".c": 3744,
      "3_": 3745,
      "4–": 3746,
      "6/": 3747,
      "6]](https://en.wikipedia.org/India#cite_note-": 3748,
      "7%": 3749,
      "BC": 3750,
      "IA": 3751,
      "Main": 3752,
      "Pakistan": 3753,
      "ahar": 3754,
      "cul": 3755,
      "tle": 3756,
      "vatsyayan": 3757,
      "त्य": 3758,
      "तिक": 3759,
      "दू": 3760,
      "भू": 3761,
      "श्री": 3762,
      "ीत": 3763,
      "ील": 3764,
      "ంజా": 3765,
      "గి": 3766,
      "టీ": 3767,
      "టాన్": 3768,
      "ది.": 3769,
      "మంత్రి": 3770,
      "లను": 3771,
      "వె": 3772,
      "వరణ": 3773,
      "హదార": 3774,
      "ూచ": 3775,
      "▁హ": 3776,
      "▁భారతదేశ": 3777,
      "▁end": 3778,
      "teen": 3779,
      "\");": 3780,
      "tig": 3781,
      "](https://en.wikipedia.org/I": 3782,
      "](https://en.wikipedia.org/O": 3783,
      "religion": 3784,
      "errit": 3785,
      "omas": 3786,
      "▁(eds.": 3787,
      "్రమ": 3788,
      "astern": 3789,
      "2017": 3790,
      "▁such": 3791,
      "ammu": 3792,
      "inguis": 3793,
      "\n\n|": 3794,
      "\n\nMain": 3795,
      "agar": 3796,
      "▁States": 3797,
      "▁found": 3798,
      "urch": 3799,
      "ilg": 3800,
      "ISO": 3801,
      "ficient": 3802,
      "భారతదేశ_": 3803,
      "▁కొ": 3804,
      "▁Bank": 3805,
      "▁వ్యా": 3806,
      "▁largest": 3807,
      "नाथ": 3808,
      "](https://en.wikipedia.org/South_Asia": 3809,
      "_क्षेत्र": 3810,
      "▁మత": 3811,
      "▁మతము": 3812,
      "▁ear": 3813,
      "pecial:BookSources/978-81": 3814,
      "తావరణ": 3815,
      "▁2003": 3816,
      "▁2008": 3817,
      "నాడు": 3818,
      "ake": 3819,
      "aksh": 3820,
      "uction": 3821,
      "▁Off": 3822,
      "]](https://hi.wikipedia.org/भारत#cite_note-1": 3823,
      "▁[*The": 3824,
      "▁एशिया": 3825,
      "eshow": 3826,
      "▁dependencies": 3827,
      "▁ఇతర": 3828,
      "ాయి": 3829,
      "ी_भाषा": 3830,
      "_BRICS": 3831,
      "ణాసియా": 3832,
      "▁अन्य": 3833,
      "athak": 3834,
      "-lord": 3835,
      "national-": 3836,
      "inistry_of_": 3837,
      "టెడ్": 3838,
      "▁ఆర్కైవు": 3839,
      "-in-": 3840,
      "ंग्रेज़ी": 3841,
      "pendencies_by_": 3842,
      "▁రైలు": 3843,
      "భూటాన్": 3844,
      "_సామ్రాజ్యం": 3845,
      ".png)": 3846,
      "▁[↑](https://hi.wikipedia.org/भारत#cite_ref-1": 3847,
      "ministr": 3848,
      "गुजरात": 3849,
      "▁estimate": 3850,
      "_and_dependencies_by_": 3851,
      "ymbols": 3852,
      "langoff": 3853,
      "వాతంత్ర్య": 3854,
      "vatsyayan-lord": 3855,
      "6–": 3856,
      "81": 3857,
      "9-0)": 3858,
      "C).": 3859,
      "Fisher": 3860,
      "_en": 3861,
      "_for": 3862,
      "a-": 3863,
      "aus": 3864,
      "ealth": 3865,
      "evan": 3866,
      "fgh": 3867,
      "get": 3868,
      "her": 3869,
      "i,": 3870,
      "ls": 3871,
      "sha": 3872,
      "wal": 3873,
      "अन": 3874,
      "जय": 3875,
      "टक": 3876,
      "पी": 3877,
      "पति": 3878,
      "मह": 3879,
      "रो": 3880,
      "ेस": 3881,
      "▁फ": 3882,
      "▁am": 3883,
      "▁ri": 3884,
      "▁und": 3885,
      "▁[m": 3886,
      "▁[द": 3887,
      "tes": 3888,
      "▁\"V": 3889,
      "](https://en.wikipedia.org/V": 3890,
      "arge": 3891,
      "ess/": 3892,
      "esearch": 3893,
      "ould": 3894,
      "lec": 3895,
      "▁south": 3896,
      "▁some": 3897,
      "atak": 3898,
      "ata_": 3899,
      "-07": 3900,
      "adi": 3901,
      "▁Ar": 3902,
      "-14": 3903,
      "uslim": 3904,
      "▁Sanskrit": 3905,
      "▁Chin": 3906,
      "▁mathe": 3907,
      "_of_S": 3908,
      "▁total": 3909,
      "emoc": 3910,
      "▁later": 3911,
      "▁large": 3912,
      "िया\")": 3913,
      "▁2004": 3914,
      "26)": 3915,
      "▁Fund": 3916,
      "akh": 3917,
      "▁than": 3918,
      "▁War": 3919,
      "▁[*India": 3920,
      "▁गण": 3921,
      "owland": 3922,
      "म्म": 3923,
      "%2C_": 3924,
      "▁2011.\n-": 3925,
      "arket": 3926,
      "efficient": 3927,
      "india-glance": 3928,
      "हिन्दी": 3929,
      "](https://en.wikipedia.org/List_of_countries": 3930,
      "▁people": 3931,
      "▁union": 3932,
      "वंश": 3933,
      "▁जाता": 3934,
      "meric": 3935,
      "usiness/": 3936,
      "▁वर्ष": 3937,
      "▁who": 3938,
      "ैदान": 3939,
      "limate": 3940,
      "▁emp": 3941,
      "▁Assembly": 3942,
      "तंत्रता": 3943,
      "▁साम्राज्य": 3944,
      "द्योगिक": 3945,
      "erritory": 3946,
      "Fisher2018": 3947,
      "fghan": 3948,
      "india-glance/": 3949,
      ",NGDP": 3950,
      "-78": 3951,
      "-on-": 3952,
      "/auth": 3953,
      "219": 3954,
      "2nd": 3955,
      "63": 3956,
      "7,": 3957,
      "8+": 3958,
      "8-0)": 3959,
      "93": 3960,
      "Dikshit": 3961,
      "Empire": 3962,
      "Qu": 3963,
      "Schwartzberg": 3964,
      "Template:": 3965,
      "_g": 3966,
      "_11": 3967,
      "back": 3968,
      "can": 3969,
      "country": 3970,
      "d/": 3971,
      "dones": 3972,
      "etr": 3973,
      "lor": 3974,
      "ner": 3975,
      "ning": 3976,
      "पे": 3977,
      "मंत्र": 3978,
      "ल्": 3979,
      "िज़": 3980,
      "ेट": 3981,
      "ం.": 3982,
      "ంశ": 3983,
      "ఆర్": 3984,
      "ఉత్తర": 3985,
      "ఒడి": 3986,
      "కీయ": 3987,
      "గలు": 3988,
      "చు": 3989,
      "జరా": 3990,
      "తూర్పు": 3991,
      "భు": 3992,
      "మన్": 3993,
      "యి": 3994,
      "లస": 3995,
      "ీన": 3996,
      "ేక": 3997,
      "ಕ್ರ": 3998,
      "ತೆ": 3999,
      "ತ್ಯ": 4000,
      "ಧಾನ": 4001,
      "ಷ್ಯಾ": 4002,
      "್ಥ": 4003,
      "೦೦": 4004,
      "▁छ": 4005,
      "▁ड": 4006,
      "▁డ": 4007,
      "▁ತ": 4008,
      "▁ro": 4009,
      "▁ra": 4010,
      "▁ರಾಷ್ಟ್ರ": 4011,
      "▁జాబితా": 4012,
      "▁high": 4013,
      "▁[इ": 4014,
      "▁[భారతదేశ": 4015,
      "▁[पु": 4016,
      "entr": 4017,
      "▁\"इ": 4018,
      "Informatics": 4019,
      "tis": 4020,
      "2021": 4021,
      "asing": 4022,
      "amp": 4023,
      "▁मु": 4024,
      "▁Ac": 4025,
      "ingdom": 4026,
      "▁CE": 4027,
      "▁పట్ట": 4028,
      "](https://kn.wikipedia.org/ಚ": 4029,
      "▁Pakistan": 4030,
      "▁many": 4031,
      "0000": 4032,
      "ర్\")": 4033,
      "chin": 4034,
      "olle": 4035,
      "▁**జాతీయ": 4036,
      "▁28": 4037,
      "నిక": 4038,
      "▁long": 4039,
      "विज्ञान": 4040,
      "ाला": 4041,
      "ంగ్రె": 4042,
      "▁సభ": 4043,
      "▁ಸ್ಥ": 4044,
      "-3)": 4045,
      "ರ್ಷ": 4046,
      "తాబ్": 4047,
      "▁[\"A": 4048,
      "▁[\"C": 4049,
      "▁northern": 4050,
      "ರಾಜ": 4051,
      "\"](https://books.google.com/books?id=": 4052,
      "ast_Asia": 4053,
      "▁ప్రపంచ": 4054,
      "▁ప్రభు": 4055,
      "▁K.": 4056,
      "▁Kashmir": 4057,
      "▁ఆసియా": 4058,
      "ಿಕ್": 4059,
      "▁उत्तर": 4060,
      "ड़े": 4061,
      "▁ಅನೇ": 4062,
      "మ్రాజ్య": 4063,
      "ivis": 4064,
      "▁ext": 4065,
      "ಿದ್": 4066,
      "గుజరా": 4067,
      "pendent": 4068,
      "▁సామ్రాజ్యం\")": 4069,
      "anipur": 4070,
      "ಂತ್ರಿ": 4071,
      "MetcalfMetcalf2006),": 4072,
      "द्यान": 4073,
      "త్యేక": 4074,
      "రాష్ట్రపతి": 4075,
      "do-A": 4076,
      "ప్ప": 4077,
      "▁2021.": 4078,
      "▁కాశ్మీ": 4079,
      "▁రాజవంశం": 4080,
      "ances": 4081,
      "र्थिक": 4082,
      "▁ಸಾಮ್ರಾಜ್ಯ": 4083,
      "▁చెంద": 4084,
      "▁ఆర్ధిక": 4085,
      "▁ಜನಸಂಖ್ಯೆಯ": 4086,
      "▁समय": 4087,
      "▁[Archived](https://web.archive.org/web/202": 4088,
      "ಟ್ಟು": 4089,
      "▁స్థాన": 4090,
      "▁[↑](https://kn.wikipedia.org/ಭಾರತ#cite_ref-": 4091,
      "▁Environment": 4092,
      "తమిళనాడు": 4093,
      "ప్రధానమంత్రి": 4094,
      "గణతంత్ర": 4095,
      "▁క్రీడ": 4096,
      "यालय": 4097,
      "Report": 4098,
      "▁ಸ್ವಾ": 4099,
      "document": 4100,
      "ommonwealth": 4101,
      "ఆఫ్ఘ": 4102,
      "శ్రీలంక": 4103,
      "షియా": 4104,
      "న్‌ఫ": 4105,
      "నేపాల్": 4106,
      "▁చెయ్యబడింది.": 4107,
      ".indiatimes.com/": 4108,
      "](https://en.wikipedia.org/Economy_of_": 4109,
      "ehru": 4110,
      "▁(eds.).": 4111,
      "inguistic": 4112,
      "fghanistan": 4113,
      "DikshitSchwartzberg": 4114,
      "Informatics_Centre": 4115,
      "తాబ్ద": 4116,
      "▁ಅನೇಕ": 4117,
      ".htm": 4118,
      "7]](https://en.wikipedia.org/India#cite_note-FOOTNOTE": 4119,
      "Ludden": 4120,
      "Spear": 4121,
      "_h": 4122,
      "_to": 4123,
      "a.": 4124,
      "bank": 4125,
      "cms": 4126,
      "election": 4127,
      "gr": 4128,
      "ho": 4129,
      "ie": 4130,
      "iter": 4131,
      "languages": 4132,
      "ten": 4133,
      "west": 4134,
      "डु": 4135,
      "णि": 4136,
      "धु": 4137,
      "लोक": 4138,
      "▁%": 4139,
      "▁economic": 4140,
      "▁urban": 4141,
      "▁[O": 4142,
      "▁[V": 4143,
      "▁[c": 4144,
      "▁\"न": 4145,
      "▁\"सं": 4146,
      "](https://en.wikipedia.org/Re": 4147,
      "2020": 4148,
      "educ": 4149,
      "omin": 4150,
      "▁(1,": 4151,
      "ical_": 4152,
      "▁power": 4153,
      "▁comm": 4154,
      "▁मा": 4155,
      "▁All": 4156,
      "▁Arab": 4157,
      "▁Afric": 4158,
      "▁Sec": 4159,
      "▁11": 4160,
      "ild": 4161,
      "▁2011.": 4162,
      "▁Min": 4163,
      "▁Modern": 4164,
      "resent": 4165,
      "▁British": 4166,
      "rief": 4167,
      "▁land": 4168,
      "नाव": 4169,
      "▁द्वार": 4170,
      "124": 4171,
      "_Summit": 4172,
      "▁[\"National": 4173,
      "▁2024": 4174,
      "माज": 4175,
      "▁rule": 4176,
      "▁है।\n\n": 4177,
      "-19-5": 4178,
      "ी](https://hi.wikipedia.org/अ": 4179,
      "erala": 4180,
      "ineering": 4181,
      "-pro": 4182,
      "सेना": 4183,
      "qual": 4184,
      "▁चु": 4185,
      "▁2021.\n": 4186,
      "ervation": 4187,
      "▁हुई": 4188,
      "%E0%B": 4189,
      "▁2018](https://en.wikipedia.org/India#CITEREF": 4190,
      "▁classical": 4191,
      "KulkeRothermund2004": 4192,
      "formation": 4193,
      "त्पाद": 4194,
      "_in_South_Asia": 4195,
      "ast_Asia_Summit": 4196,
      "education": 4197,
      "\"[[": 4198,
      "-world": 4199,
      ".IN": 4200,
      ".fr": 4201,
      "2–": 4202,
      "2),": 4203,
      "5).": 4204,
      "98": 4205,
      "LA": 4206,
      "Pro": 4207,
      "South": 4208,
      "_ब": 4209,
      "_ప్రదేశ్": 4210,
      "han": 4211,
      "ix": 4212,
      "ities": 4213,
      "k:": 4214,
      "m.nic.in/": 4215,
      "ncl": 4216,
      "owe": 4217,
      "y-": 4218,
      "y=": 4219,
      "ईसा": 4220,
      "कल": 4221,
      "खाना": 4222,
      "तु": 4223,
      "नगर": 4224,
      "रवरी": 4225,
      "ैक": 4226,
      "ोम": 4227,
      "ం,": 4228,
      "ఉప": 4229,
      "కొ": 4230,
      "కేంద్రపాలిత": 4231,
      "జె": 4232,
      "ఢ్": 4233,
      "నాల": 4234,
      "లే": 4235,
      "ళు": 4236,
      "ౌద్ధ": 4237,
      "▁ऊ": 4238,
      "▁50": 4239,
      "▁భా": 4240,
      "▁6.": 4241,
      "▁article": 4242,
      "dian": 4243,
      "ors": 4244,
      "▁[వి": 4245,
      "▁\"India": 4246,
      "▁\"19": 4247,
      "▁\"Oxford": 4248,
      "ins": 4249,
      "tition": 4250,
      "arna": 4251,
      "es,": 4252,
      "](https://hi.wikipedia.org/इ": 4253,
      "▁(*": 4254,
      "ics": 4255,
      "icon": 4256,
      "▁सु": 4257,
      "▁str": 4258,
      "▁social": 4259,
      "-00": 4260,
      "-06": 4261,
      "ాలీ": 4262,
      "ams": 4263,
      "▁capita": 4264,
      "-111": 4265,
      "▁Cons": 4266,
      "los": 4267,
      "ety": 4268,
      "▁minister": 4269,
      "003": 4270,
      "ర్చ": 4271,
      "र्दू": 4272,
      "▁2013": 4273,
      "ists": 4274,
      "tical_": 4275,
      "▁अग": 4276,
      "ాలు?action=edit&redlink=1": 4277,
      "ly,": 4278,
      "▁दिया": 4279,
      "pecial:EditPage/": 4280,
      "hai": 4281,
      "▁Nadu": 4282,
      "▁बढ़": 4283,
      "ainism": 4284,
      "\"](https://web.archive.org/web/": 4285,
      "]](https://en.wikipedia.org/India#cite_note-FOOTNOTEMetcalfMetcalf2006": 4286,
      "–సా.శ.18": 4287,
      "▁అత్య": 4288,
      "▁[Asher": 4289,
      "epart": 4290,
      "▁Language": 4291,
      "▁ఆధ": 4292,
      "25)": 4293,
      "logo": 4294,
      "మాఖ్య": 4295,
      "వాణా": 4296,
      "ంటి": 4297,
      "_Development": 4298,
      "-108": 4299,
      "राष्ट्रपति": 4300,
      "▁\"National": 4301,
      "_New": 4302,
      "▁Valley": 4303,
      "pendence": 4304,
      "rade": 4305,
      "▁trans": 4306,
      "డ్డ": 4307,
      "▁జనాభా": 4308,
      "overe": 4309,
      "MetcalfMetcalf201": 4310,
      "దక్షిణాసియా": 4311,
      "dustry": 4312,
      "india.gov.in/india-glance/": 4313,
      "्रां": 4314,
      "▁గల": 4315,
      "ohn": 4316,
      "▁భారతదేశంలో": 4317,
      "hrist": 4318,
      "యునై": 4319,
      "ష్ణ": 4320,
      "_చరిత్ర?action=edit&redlink=1": 4321,
      "ynast": 4322,
      "▁हुआ": 4323,
      "हासागर": 4324,
      "▁territory": 4325,
      "▁రాష్ట్రాలు,": 4326,
      "వర్గ": 4327,
      "▁Islands": 4328,
      "_మతము": 4329,
      "ष्ण": 4330,
      "_at_the": 4331,
      "▁మొద": 4332,
      "ंबई": 4333,
      "hanghai": 4334,
      "शासित": 4335,
      "▁लिए": 4336,
      "union_territ": 4337,
      ".aspx": 4338,
      "ictionary": 4339,
      "▁विकास": 4340,
      "WEO.IN": 4341,
      "arnatak": 4342,
      "IMFWEO.IN": 4343,
      "▁among": 4344,
      "▁under": 4345,
      "Spear1990": 4346,
      "nclm.nic.in/": 4347,
      "pecial:EditPage/Template:": 4348,
      "epartment": 4349,
      "యునైటెడ్": 4350,
      "%)": 4351,
      "-india": 4352,
      ".world": 4353,
      "/D": 4354,
      "/g": 4355,
      "/h": 4356,
      "230": 4357,
      "54": 4358,
      "545": 4359,
      "7/": 4360,
      "9,": 4361,
      "9).": 4362,
      ":**": 4363,
      "Con": 4364,
      "European": 4365,
      "Human": 4366,
      "IB": 4367,
      "Taj": 4368,
      "UCN": 4369,
      "Wiki": 4370,
      "_J": 4371,
      "_V": 4372,
      "_17": 4373,
      "_ಭಾಷೆ": 4374,
      "ave": 4375,
      "business/": 4376,
      "che": 4377,
      "e/": 4378,
      "ez": 4379,
      "go": 4380,
      "ili": 4381,
      "ker": 4382,
      "o.": 4383,
      "ras": 4384,
      "way": 4385,
      "क्स": 4386,
      "न](https://hi.wikipedia.org/": 4387,
      "वै": 4388,
      "स्ट": 4389,
      "ाप": 4390,
      "ूर्": 4391,
      "ृति": 4392,
      "ैल": 4393,
      "ಂಶ": 4394,
      "ಧಿಕ": 4395,
      "ಯನ್": 4396,
      "ರಿಕ": 4397,
      "ಲೋಕ": 4398,
      "ಳುವ": 4399,
      "ಾಲ್": 4400,
      "ೆಂದ": 4401,
      "ೋಗ": 4402,
      "▁ಭ": 4403,
      "▁फ़": 4404,
      "▁history": 4405,
      "▁term": 4406,
      "oral": 4407,
      "pee": 4408,
      "pect": 4409,
      "▁[आ": 4410,
      "▁[ज": 4411,
      "▁[Oxford": 4412,
      "▁\"[": 4413,
      "▁\"आ": 4414,
      "▁\"हिन्द": 4415,
      "\")[[": 4416,
      "ारी": 4417,
      "ार्च": 4418,
      "its": 4419,
      "▁(2018": 4420,
      "▁they": 4421,
      "ict": 4422,
      "1970": 4423,
      "atus": 4424,
      "atter": 4425,
      "ada": 4426,
      "▁Al": 4427,
      "▁SAARC": 4428,
      "▁Science": 4429,
      "[[೧": 4430,
      "▁Con": 4431,
      "▁both": 4432,
      "umeration": 4433,
      "](https://kn.wikipedia.org/G": 4434,
      "ulti": 4435,
      "▁Portal": 4436,
      "▁maj": 4437,
      "▁R.": 4438,
      "▁Raj": 4439,
      "▁war": 4440,
      "िक्": 4441,
      "▁2.": 4442,
      "▁Bengal": 4443,
      "▁जून": 4444,
      "](https://en.wikipedia.org/South": 4445,
      "ayback": 4446,
      "▁दिस": 4447,
      "127": 4448,
      "राजस्थान": 4449,
      "▁ಸು": 4450,
      "▁ಮಾ": 4451,
      "118": 4452,
      "-317": 4453,
      "▁Registrar": 4454,
      "▁Republic": 4455,
      "▁ಪಶ್ಚಿಮ": 4456,
      "▁ಪೂರ್": 4457,
      "▁Fr": 4458,
      "ests": 4459,
      "apan": 4460,
      ".gov.in": 4461,
      "]](https://en.wikipedia.org/India#cite_note-FOOTNOTEStein2010": 4462,
      "ternational_": 4463,
      "own": 4464,
      "▁ವ್ಯವ": 4465,
      "▁ನಂತರ": 4466,
      "नेपाल": 4467,
      "त्तरा": 4468,
      "ports": 4469,
      "जाति": 4470,
      "್ವೀಪ": 4471,
      "riculture": 4472,
      "endra": 4473,
      "ಿತು.": 4474,
      "▁क्षेत्र\")": 4475,
      "ultural": 4476,
      "धानमंत्र": 4477,
      "▁\"History": 4478,
      "▁ಸಂಪ": 4479,
      "](https://en.wikipedia.org/History": 4480,
      "rown": 4481,
      "्रीका": 4482,
      "ography": 4483,
      "▁ರೂ": 4484,
      "▁ರಲ್ಲಿ": 4485,
      "-521-80": 4486,
      "▁Programme": 4487,
      "▁ಚುನಾವಣೆ": 4488,
      "jection": 4489,
      "ಾಲಯ": 4490,
      "▁ಶತ": 4491,
      "arliamentary": 4492,
      "गणना": 4493,
      "known": 4494,
      "▁used": 4495,
      "▁खाना\")": 4496,
      "▁निर्": 4497,
      "▁ಒಟ್ಟು": 4498,
      "National_Informatics_Centre": 4499,
      "माणु": 4500,
      "904-7": 4501,
      "ustralia": 4502,
      "▁2006](https://en.wikipedia.org/India#CITEREFMetcalfMetcalf2006),": 4503,
      "▁ಬೆಳ": 4504,
      "▁ರಾಜ್ಯಗಳು": 4505,
      "teenth": 4506,
      "म्मू": 4507,
      "▁ಸ್ವಾತಂತ್ರ್ಯ": 4508,
      "▁article:": 4509,
      "ಧಿಕೃತ": 4510,
      "ೆಂದರೆ": 4511,
      "▁दिसम्बर": 4512,
      "▁ಪೂರ್ವ": 4513,
      "-521-80904-7": 4514,
      "National_Informatics_Centre2005": 4515,
      "&ss": 4516,
      "/article": 4517,
      "110": 4518,
      "5_": 4519,
      ":EditPage/": 4520,
      "Library": 4521,
      "New": 4522,
      "Robb": 4523,
      "Sharma": 4524,
      "_प": 4525,
      "_న": 4526,
      "ao": 4527,
      "cess": 4528,
      "day": 4529,
      "detail": 4530,
      "each": 4531,
      "ihar": 4532,
      "oast": 4533,
      "ria": 4534,
      "ron": 4535,
      "sur": 4536,
      "stitu": 4537,
      "vid": 4538,
      "war": 4539,
      "zation": 4540,
      "टी": 4541,
      "वी": 4542,
      "हीं": 4543,
      "िन्": 4544,
      "ैंड": 4545,
      "ఖండ": 4546,
      "టిక": 4547,
      "డే": 4548,
      "ద్య": 4549,
      "మార్": 4550,
      "మాలయ": 4551,
      "లలో": 4552,
      "లకు": 4553,
      "ళ్": 4554,
      "వ](https://te.wikipedia.org/": 4555,
      "ానికి": 4556,
      "ాళు": 4557,
      "ీర్": 4558,
      "–12": 4559,
      "▁భ": 4560,
      "▁oc": 4561,
      "▁యు": 4562,
      "▁low": 4563,
      "▁...": 4564,
      "▁[4": 4565,
      "▁\"వి": 4566,
      "](https://en.wikipedia.org/U": 4567,
      "reme": 4568,
      "20210": 4569,
      "](https://hi.wikipedia.org/सं": 4570,
      "▁(199": 4571,
      "▁there": 4572,
      "](https://te.wikipedia.org/S": 4573,
      "▁India*](https://books.google.com/books?id=": 4574,
      "▁sp": 4575,
      "ాలో": 4576,
      "▁country": 4577,
      "▁मार्च": 4578,
      "्यता": 4579,
      "inger": 4580,
      "▁Se": 4581,
      "▁Summit\")": 4582,
      "▁Cooperation": 4583,
      "స్వ": 4584,
      "స్లా": 4585,
      "▁पह": 4586,
      "▁पार्ट": 4587,
      "▁పాల": 4588,
      "న్\")": 4589,
      "▁member": 4590,
      "र्स": 4591,
      "र्जा": 4592,
      "](https://hi.wikipedia.org/भारतीय": 4593,
      "21)": 4594,
      "road": 4595,
      "states": 4596,
      "ource": 4597,
      "igh": 4598,
      "▁కార": 4599,
      "▁కలి": 4600,
      "▁Delhi": 4601,
      "emale": 4602,
      "ాలు\n\n": 4603,
      "రిహ": 4604,
      "రికత": 4605,
      "క్నాల": 4606,
      "నిమా": 4607,
      "50)": 4608,
      "▁సంగీతం": 4609,
      "त्रि": 4610,
      "▁बना": 4611,
      "▁చి": 4612,
      "▁north": 4613,
      "apu": 4614,
      "ులు\"),": 4615,
      "–సా.శ.13": 4616,
      "▁అయ": 4617,
      "▁ప్రధాన": 4618,
      "epal": 4619,
      "-90": 4620,
      "ప్రదాయ": 4621,
      "ప్రత్యేక": 4622,
      "ద్వీ": 4623,
      "▁ఉప": 4624,
      "▁రె": 4625,
      "ummer": 4626,
      "▁began": 4627,
      "న్నడ": 4628,
      "▁संविधान": 4629,
      "ంటు": 4630,
      "र्वत": 4631,
      "ंडिया": 4632,
      "▁దేశంలో": 4633,
      "ాయి.": 4634,
      "ం:Harv": 4635,
      "पात": 4636,
      "ibet": 4637,
      "olitical_": 4638,
      "uddhism": 4639,
      "కాశ్మీ": 4640,
      "ंग्रेस": 4641,
      "ducation": 4642,
      "ంధు": 4643,
      "ingham": 4644,
      "▁control": 4645,
      "ద్ధం": 4646,
      "ద్ధి": 4647,
      "ాల్దీవ": 4648,
      "చ్చే": 4649,
      "Oxford_University_Press": 4650,
      "దక్షిణ_": 4651,
      "▁కాంగ్రె": 4652,
      "Stein2010),": 4653,
      "ryan": 4654,
      "स्कृति": 4655,
      "టెక్నాల": 4656,
      "హిమాలయ": 4657,
      "Office": 4658,
      "rdu": 4659,
      "orities": 4660,
      "▁లే": 4661,
      "త్తరా": 4662,
      "cript": 4663,
      "నాగరికత": 4664,
      "క్కువ": 4665,
      "esert": 4666,
      "క్‌సభ": 4667,
      "▁శాస్త్ర": 4668,
      "▁Act,": 4669,
      "▁Company": 4670,
      "▁हिन्दी": 4671,
      "▁diff": 4672,
      "▁शासन": 4673,
      "▁थी": 4674,
      "ెలుగు": 4675,
      "/articleshow": 4676,
      "▁వచ్చింది.": 4677,
      "▁2010](https://en.wikipedia.org/India#CITEREFStein2010),": 4678,
      "_ప్రాంత": 4679,
      "rgani": 4680,
      "yanmar": 4681,
      "▁Press](https://en.wikipedia.org/Oxford_University_Press": 4682,
      "ultanate": 4683,
      "ministrative": 4684,
      "8+5": 4685,
      "▁द्वारा": 4686,
      "quality": 4687,
      "ర్చ:": 4688,
      "వర్గం:Harv": 4689,
      "Spear199024": 4690,
      "▁फ़रवरी": 4691,
      ":EditPage/మూస:": 4692,
      "ాళుక్య": 4693,
      "▁occ": 4694,
      "ప్రత్యేక:EditPage/మూస:": 4695,
      "టెక్నాలజీ": 4696,
      "\"](http://": 4697,
      ",5": 4698,
      ".html)": 4699,
      "1]](https://en.wikipedia.org/India#cite_note-FOOTNOTE": 4700,
      "320": 4701,
      "3TR": 4702,
      "4,": 4703,
      "66": 4704,
      "95": 4705,
      "Ag": 4706,
      "Ch": 4707,
      "DS": 4708,
      "_न": 4709,
      "_13": 4710,
      "_Re": 4711,
      "dition": 4712,
      "hal": 4713,
      "hra": 4714,
      "ii": 4715,
      "ks": 4716,
      "lia": 4717,
      "mon": 4718,
      "rans": 4719,
      "uth": 4720,
      "ward": 4721,
      "work": 4722,
      "yle": 4723,
      "खंड": 4724,
      "खण्ड": 4725,
      "गोल": 4726,
      "द्वीप": 4727,
      "धि": 4728,
      "योग": 4729,
      "रू": 4730,
      "व्यवस्था": 4731,
      "शीन": 4732,
      "ां": 4733,
      "ुंबई": 4734,
      "ौर": 4735,
      "ौद्ध": 4736,
      "ौद्योगिक": 4737,
      "▁z": 4738,
      "▁या": 4739,
      "▁ed.).": 4740,
      "dia/": 4741,
      "](https://web.archive.org/web/201": 4742,
      "▁[p": 4743,
      "enni": 4744,
      "tered": 4745,
      "anor": 4746,
      "tice": 4747,
      "than": 4748,
      "erent": 4749,
      "aldiv": 4750,
      "arh": 4751,
      "aran": 4752,
      "hief": 4753,
      "▁(India": 4754,
      "▁(nominal)": 4755,
      "्रम": 4756,
      "as,": 4757,
      "lem": 4758,
      "trod": 4759,
      "▁संग": 4760,
      "atab": 4761,
      "▁मैदान": 4762,
      "▁Affairs": 4763,
      "-16": 4764,
      "▁C.": 4765,
      "▁China": 4766,
      "lowing": 4767,
      "urton": 4768,
      "ett": 4769,
      "▁P.": 4770,
      "▁Publishing": 4771,
      "▁mi": 4772,
      "▁man": 4773,
      "▁made": 4774,
      "onsoon": 4775,
      "▁23": 4776,
      "▁अरब": 4777,
      "▁D.": 4778,
      "ountain": 4779,
      "नाडु": 4780,
      "sian": 4781,
      "▁जल": 4782,
      "▁India\")\n\n": 4783,
      "▁Government": 4784,
      "▁दर": 4785,
      "117": 4786,
      "force": 4787,
      "▁प्रति": 4788,
      "verse": 4789,
      "▁[\"G": 4790,
      "▁[\"The": 4791,
      "ubcontinent": 4792,
      "▁relations": 4793,
      ".[[3": 4794,
      ".[[4": 4795,
      "ताब्": 4796,
      "▁non-": 4797,
      "akhand": 4798,
      "स्त्र": 4799,
      "▁वा": 4800,
      "▁\"Category:": 4801,
      "पुरी": 4802,
      "23)": 4803,
      "](https://en.wikipedia.org/Category:": 4804,
      "ots": 4805,
      "otals": 4806,
      "_Pro": 4807,
      "def": 4808,
      "](https://hi.wikipedia.org/भारत#cite_ref-FOOTNOTE": 4809,
      "▁इतिहास": 4810,
      "_Delhi": 4811,
      "order": 4812,
      "▁हैं,": 4813,
      "engali": 4814,
      "पर्यटन": 4815,
      "किम": 4816,
      "viol": 4817,
      "duct": 4818,
      "india.gov.in/kno": 4819,
      "▁1998": 4820,
      "_East_Asia_Summit": 4821,
      "/cb": 4822,
      "illenni": 4823,
      "AARC_summit": 4824,
      "दीव": 4825,
      "▁इसके": 4826,
      "▁lead": 4827,
      "▁left": 4828,
      "रेल": 4829,
      "पालिका": 4830,
      "▁घाट": 4831,
      "▁Empire\")": 4832,
      "▁world's": 4833,
      "▁सिनेमा": 4834,
      "tribution": 4835,
      "▁York": 4836,
      "rishn": 4837,
      "ttarakhand": 4838,
      "▁prime": 4839,
      "ociety": 4840,
      "rahmapu": 4841,
      "िक्षा": 4842,
      "windia/": 4843,
      "_Islands": 4844,
      "_and_dependencies_by_population": 4845,
      "entral_": 4846,
      "do-Aryan": 4847,
      "िक्किम": 4848,
      "rganization": 4849,
      "3TRt": 4850,
      "aldives": 4851,
      "india.gov.in/knowindia/": 4852,
      "illennium": 4853,
      "-n": 4854,
      "-r": 4855,
      "-30": 4856,
      ".పూ.": 4857,
      "0&s": 4858,
      "1%": 4859,
      "7c": 4860,
      "94": 4861,
      "Rowland": 4862,
      "[![](https://upload.wikimedia.org/wikipedia/commons/thumb/": 4863,
      "_2": 4864,
      "_ಚ": 4865,
      "_2004": 4866,
      "_ಧರ್ಮ": 4867,
      "_ಪ್ರದೇಶ": 4868,
      "af": 4869,
      "aci": 4870,
      "aury": 4871,
      "bc": 4872,
      "britannica": 4873,
      "ele": 4874,
      "ling": 4875,
      "lack": 4876,
      "mi": 4877,
      "min": 4878,
      "mal": 4879,
      "nf": 4880,
      "oord": 4881,
      "operation": 4882,
      "press": 4883,
      "pper": 4884,
      "ser": 4885,
      "ym": 4886,
      "रण": 4887,
      "लिस": 4888,
      "वार": 4889,
      "वीं": 4890,
      "शक": 4891,
      "स](https://hi.wikipedia.org/": 4892,
      "सभा": 4893,
      "ांध": 4894,
      "ोष": 4895,
      "०१": 4896,
      "ంతం": 4897,
      "ఆగ": 4898,
      "కళ": 4899,
      "ఖండ్": 4900,
      "గం": 4901,
      "గ్": 4902,
      "గిన": 4903,
      "గఢ్": 4904,
      "జో": 4905,
      "ట్ర": 4906,
      "తెలుగు": 4907,
      "ద్రా": 4908,
      "పద": 4909,
      "భి": 4910,
      "యో": 4911,
      "లక్ష": 4912,
      "వర": 4913,
      "శో": 4914,
      "షా": 4915,
      "హు": 4916,
      "హార్": 4917,
      "హాయ": 4918,
      "ాష్ట్ర": 4919,
      "ీక": 4920,
      "ీహార్": 4921,
      "ుల": 4922,
      "ుల్": 4923,
      "ోల్": 4924,
      "ోత్స": 4925,
      "ౌర్య": 4926,
      "ಂ](https://kn.wikipedia.org/": 4927,
      "ಂಗಳ": 4928,
      "ಅಸ್": 4929,
      "ಉತ್ತ": 4930,
      "ಕಡ": 4931,
      "ಕಿ": 4932,
      "ಕಾರ": 4933,
      "ಗಢ": 4934,
      "ಗಮ": 4935,
      "ಚಲ": 4936,
      "ಜರಾ": 4937,
      "ಟ್": 4938,
      "ತ್": 4939,
      "ತಮಿ": 4940,
      "ತೆಲ": 4941,
      "ದ್ರಾ": 4942,
      "ನಿ": 4943,
      "ಮಾ": 4944,
      "ಮನ್": 4945,
      "ರತ": 4946,
      "ರೀ": 4947,
      "ರ್ಯ": 4948,
      "ಲಸ": 4949,
      "ವರ": 4950,
      "ಶ್ವ": 4951,
      "ಶ್ಮ": 4952,
      "ಹಿಮ": 4953,
      "ಿಣ": 4954,
      "ಿಹ": 4955,
      "ೈಸ್ತ": 4956,
      "ೊಂಡ": 4957,
      "ೋಕ್": 4958,
      "೦೯": 4959,
      "▁ध": 4960,
      "▁36": 4961,
      "▁his": 4962,
      "▁out": 4963,
      "▁[హ": 4964,
      "▁[ಕ": 4965,
      "▁[ಭಾರತ": 4966,
      "▁[World": 4967,
      "▁\"హ": 4968,
      "▁\"ಕ": 4969,
      "▁\"ఢిల్లీ": 4970,
      "ines": 4971,
      "thnic": 4972,
      "reen": 4973,
      "▁|\n\n": 4974,
      "eries": 4975,
      "ofile": 4976,
      "isc": 4977,
      "itz": 4978,
      "్రూ": 4979,
      "](https://te.wikipedia.org/సి": 4980,
      "icha": 4981,
      "▁incre": 4982,
      "ating": 4983,
      "ాలా": 4984,
      "ాలలో": 4985,
      "ament": 4986,
      "▁Agency": 4987,
      "్యం": 4988,
      "▁S.": 4989,
      "राठ": 4990,
      "](https://kn.wikipedia.org/ಕ": 4991,
      "ಾರು": 4992,
      "▁mar": 4993,
      "_of_C": 4994,
      "ర్ణా": 4995,
      "ర్మే": 4996,
      "vert": 4997,
      "्ता:": 4998,
      ".\n13": 4999,
      "▁River": 5000,
      "▁domestic": 5001,
      "▁This": 5002,
      "rain": 5003,
      "లోక్‌సభ": 5004,
      "▁28.": 5005,
      "▁अप्र": 5006,
      "▁Di": 5007,
      "▁David": 5008,
      "ంది": 5009,
      "▁వంశ": 5010,
      "index": 5011,
      "ounci": 5012,
      "aylor": 5013,
      "30)": 5014,
      "al_in": 5015,
      "▁Ge": 5016,
      "▁Gandhi": 5017,
      "▁दृ": 5018,
      "▁दो": 5019,
      "hak": 5020,
      "12.": 5021,
      "129": 5022,
      "ಲಿಗ್ರಾ": 5023,
      "▁ಸರ್": 5024,
      "▁ಸಾರ್ವತ್ರಿಕ": 5025,
      "upta": 5026,
      "▁Himalay": 5027,
      "▁ಮನ": 5028,
      "▁ಮೊ": 5029,
      "▁ಮಿಲಿ": 5030,
      "▁ಮೆಷಿನ್": 5031,
      "ండర్": 5032,
      "▁प्रमुख": 5033,
      "imach": 5034,
      "_Ass": 5035,
      "_Affairs": 5036,
      "abha": 5037,
      "▁2005": 5038,
      "266": 5039,
      "త్మా": 5040,
      "](https://en.wikipedia.org/India#CITEREFB": 5041,
      "407": 5042,
      "akes": 5043,
      "ಲ್ಲ": 5044,
      "17.": 5045,
      "170": 5046,
      "asting": 5047,
      "▁అతి": 5048,
      "ికి": 5049,
      "udi": 5050,
      "osp": 5051,
      "▁Wiki": 5052,
      "ద్దు": 5053,
      "avy": 5054,
      "▁United": 5055,
      "ternal": 5056,
      "▁రహదార": 5057,
      "మాచల్": 5058,
      "▁సామ్రాజ్య": 5059,
      "▁ವಲಸ": 5060,
      "రువా": 5061,
      "రుణా": 5062,
      "▁शु": 5063,
      "న్నో": 5064,
      "▁ಅಧಿಕೃತ": 5065,
      "▁ಬಿ": 5066,
      "▁ಬ್ರಿ": 5067,
      "ರಿವ": 5068,
      "ರಿಯಾ": 5069,
      "▁लग": 5070,
      "िये": 5071,
      "మిజో": 5072,
      "▁रह": 5073,
      "anka": 5074,
      "▁ఇది": 5075,
      "atis": 5076,
      "](https://kn.wikipedia.org/ಭಾರತ#cite_ref-": 5077,
      "▁status": 5078,
      "▁ಪ್ರಪಂ": 5079,
      "▁జరి": 5080,
      "▁విస్త": 5081,
      "ಿತ್ರ": 5082,
      "o-d": 5083,
      "ृत्य": 5084,
      "ಿಯಲ್ಲಿ": 5085,
      ".nic.in/)\n-": 5086,
      "तेलु": 5087,
      "ನೇಪಾ": 5088,
      "▁శతాబ్ద": 5089,
      "▁ಇತಿಹಾಸ": 5090,
      "%20A": 5091,
      "▁ಸಂಸ್ಥೆ": 5092,
      "62-2": 5093,
      "ట్టు": 5094,
      "ంగ్లీ": 5095,
      "ूनिव": 5096,
      "ರಾಜ್ಯಸಭೆ": 5097,
      "రాష్ట్రాలు": 5098,
      "ಮುಂಬ": 5099,
      "▁tex": 5100,
      "వేద": 5101,
      "▁రాజకీయ": 5102,
      "]](https://kn.wikipedia.org/ಭಾರತ#cite_note-1": 5103,
      "ಗಣತಿ": 5104,
      "ಹಿಂದಿ": 5105,
      "ಕ್ಷಿಣ": 5106,
      "olden": 5107,
      "ಣಿಪು": 5108,
      "▁ప్రాంతాలు": 5109,
      ".svg/": 5110,
      "హిమాచల్": 5111,
      "ship": 5112,
      "▁ಧರ್ಮ\")": 5113,
      "హాత్మా": 5114,
      "೨೦೦೯": 5115,
      "▁ಭಾಷೆಗಳು": 5116,
      "edie": 5117,
      "ूरो": 5118,
      "▁[↑](https://kn.wikipedia.org/ಭಾರತ#cite_ref-1": 5119,
      "▁ప్రదేశ్\")": 5120,
      "](https://hi.wikipedia.org/भारत_की_": 5121,
      "](https://hi.wikipedia.org/भारत_का_": 5122,
      "▁ಮುಖ್ಯ": 5123,
      "flu": 5124,
      "హారాష్ట్ర": 5125,
      "▁composed": 5126,
      "/files/": 5127,
      "శాస్త్ర": 5128,
      "ಯುಕ್ತ": 5129,
      "▁ಲಕ್ಷ": 5130,
      "రాజస్థాన్": 5131,
      "▁వాతావరణ": 5132,
      "_संघ": 5133,
      "ಗುಜರಾ": 5134,
      "దినోత్స": 5135,
      "బెంగాలీ": 5136,
      "82905": 5137,
      "fication": 5138,
      "యన్మార్": 5139,
      "ಪಂಜಾ": 5140,
      "ಭೂಮಿ": 5141,
      "▁ముఖ్య": 5142,
      "-19-882905": 5143,
      "-107-111": 5144,
      "ennai": 5145,
      "▁ಹೊಂದಿದೆ.": 5146,
      "▁युद्ध": 5147,
      "▁न्यायालय": 5148,
      "JPG": 5149,
      "tudies": 5150,
      "cording": 5151,
      "ಟೆಲಿಗ್ರಾ": 5152,
      "achine": 5153,
      "industan": 5154,
      "▁ಸಿರಿವ": 5155,
      "▁ನಗರ": 5156,
      "धिकारिक": 5157,
      "▁ಹೆಸರು": 5158,
      "೨೦೧೪": 5159,
      "ంజాబ్": 5160,
      "▁వ్యాస": 5161,
      "▁Official": 5162,
      "-780": 5163,
      "donesia": 5164,
      "ಕ್ರೈಸ್ತ": 5165,
      "▁[पुरालेखित": 5166,
      "▁ಸ್ಥಾನ": 5167,
      "గుజరాత్": 5168,
      "ఆఫ్ఘనిస్తాన్": 5169,
      "న్‌ఫర్మే": 5170,
      "DikshitSchwartzberg2023": 5171,
      "▁अगस्त": 5172,
      "ಲೋಕಸಭೆ": 5173,
      "धानमंत्री": 5174,
      "వ](https://te.wikipedia.org/List_of_countries": 5175,
      "రిహద్దు": 5176,
      "చ్చేరి": 5177,
      "▁(India)\")": 5178,
      "Rowland1970": 5179,
      "britannica.com/": 5180,
      "oordinated": 5181,
      "ಂಗಳೂ": 5182,
      "ಅಸ್ಸಾ": 5183,
      "ತಮಿಳ": 5184,
      "ಶ್ಮೀ": 5185,
      "ichael": 5186,
      "ర్ణాటక": 5187,
      "▁ವಲಸೆ": 5188,
      "రుణాచల్": 5189,
      "▁ಪ್ರಪಂಚ": 5190,
      "ಪಂಜಾಬ": 5191,
      "-19-882905-8": 5192,
      "-107-11162-2": 5193,
      "న్‌ఫర్మేషన్": 5194,
      "-C": 5195,
      "-S": 5196,
      "-प": 5197,
      ".ni": 5198,
      "/F": 5199,
      "130": 5200,
      "2]](https://en.wikipedia.org/India#cite_note-": 5201,
      "2]](https://en.wikipedia.org/India#cite_note-FOOTNOTE": 5202,
      "3/": 5203,
      "3),": 5204,
      "3]](https://en.wikipedia.org/India#cite_note-FOOTNOTE": 5205,
      "314": 5206,
      "5%": 5207,
      "6%": 5208,
      "64": 5209,
      "Ethnologue": 5210,
      "_अ": 5211,
      "_ए": 5212,
      "_per": 5213,
      "_15": 5214,
      "be": 5215,
      "ds": 5216,
      "kar": 5217,
      "lated": 5218,
      "lurton": 5219,
      "map": 5220,
      "que": 5221,
      "ris": 5222,
      "rust": 5223,
      "s_of_India": 5224,
      "t\")": 5225,
      "ंका": 5226,
      "कट": 5227,
      "खा": 5228,
      "गंगा": 5229,
      "देव": 5230,
      "भो": 5231,
      "मेर": 5232,
      "ल](https://hi.wikipedia.org/": 5233,
      "लंका": 5234,
      "हैद": 5235,
      "िला": 5236,
      "ीमा": 5237,
      "ूह": 5238,
      "्म": 5239,
      "▁—": 5240,
      "▁lo": 5241,
      "orical": 5242,
      "ortheast": 5243,
      ".org": 5244,
      "▁[ओ": 5245,
      "ency": 5246,
      "▁\"ओ": 5247,
      "inance": 5248,
      "anthem": 5249,
      "](https://en.wikipedia.org/United": 5250,
      "report": 5251,
      "ally": 5252,
      "aries": 5253,
      "theh": 5254,
      "](https://hi.wikipedia.org/आ": 5255,
      "▁(in": 5256,
      "▁(19": 5257,
      "▁them": 5258,
      "astr": 5259,
      "icob": 5260,
      "▁industry": 5261,
      "acy": 5262,
      "▁summit": 5263,
      "ator": 5264,
      "▁pre": 5265,
      "▁painting": 5266,
      "-135": 5267,
      "राबाद": 5268,
      "ular": 5269,
      "uled": 5270,
      "▁movement": 5271,
      "ाने": 5272,
      "ver,": 5273,
      "र्ना": 5274,
      "21.": 5275,
      "olon": 5276,
      "▁app": 5277,
      "▁Time": 5278,
      "▁Territory": 5279,
      "▁Monetary": 5280,
      "raj": 5281,
      "ravi": 5282,
      "▁western": 5283,
      "ments": 5284,
      "▁Be": 5285,
      "_का_": 5286,
      "▁November": 5287,
      "▁eastern": 5288,
      "▁बन": 5289,
      "▁J.": 5290,
      "▁नी": 5291,
      "ability": 5292,
      "▁2001": 5293,
      "elang": 5294,
      "18.": 5295,
      "ensity": 5296,
      "▁new": 5297,
      "28.": 5298,
      "uduch": 5299,
      "overty": 5300,
      "▁Ocean": 5301,
      "erry": 5302,
      "avi": 5303,
      "▁Kingdom": 5304,
      "ligions": 5305,
      "▁[↑](https://en.wikipedia.org/India#cite_ref-FOOTNOTEMetcalfMetcalf2006": 5306,
      "▁है।[[": 5307,
      "_and_D": 5308,
      "▁संबंध": 5309,
      "ontent": 5310,
      "हिमा": 5311,
      "27)": 5312,
      "overnment_of_India": 5313,
      "त्तीस": 5314,
      "ankar": 5315,
      "pringer": 5316,
      "र्वो": 5317,
      "_Temple": 5318,
      "▁भाषाओं": 5319,
      "▁3,": 5320,
      "_Nations": 5321,
      "ikkim": 5322,
      "rough": 5323,
      "▁[National": 5324,
      "vention": 5325,
      "▁करने": 5326,
      "857": 5327,
      "िरपे": 5328,
      "general_": 5329,
      "वायु": 5330,
      "reek": 5331,
      "-symbols": 5332,
      "ीपी": 5333,
      "national-symbols": 5334,
      "▁मेला\")": 5335,
      "▁हुए": 5336,
      "_Indian_general_": 5337,
      "ject": 5338,
      "/population": 5339,
      "-level": 5340,
      ".net": 5341,
      "industry": 5342,
      "िल्ली": 5343,
      "भीम": 5344,
      "▁कार्य": 5345,
      "volution": 5346,
      "▁[हिन्दी](https://hi.wikipedia.org/": 5347,
      "ildlife": 5348,
      ".aspx?": 5349,
      "3TRtDwAAQBAJ&pg=PA": 5350,
      "हैदराबाद": 5351,
      "र्नाटक": 5352,
      "uducherry": 5353,
      "िरपेक्ष": 5354,
      "_Indian_general_election": 5355,
      "-D": 5356,
      "-h": 5357,
      "-y": 5358,
      "-and": 5359,
      "-with": 5360,
      ".html).": 5361,
      "/we": 5362,
      "/lin": 5363,
      "/ark": 5364,
      "1200": 5365,
      "3-8": 5366,
      "422": 5367,
      "68": 5368,
      ":India": 5369,
      "CL": 5370,
      "C-0": 5371,
      "DR": 5372,
      "E﻿": 5373,
      "IJ": 5374,
      "QAAQBAJ&pg=PA": 5375,
      "RL": 5376,
      "St": 5377,
      "SAARC_summit": 5378,
      "_24": 5379,
      "_38": 5380,
      "_languages": 5381,
      "a-b": 5382,
      "cia": 5383,
      "ece": 5384,
      "ght": 5385,
      "lood": 5386,
      "m2": 5387,
      "mil": 5388,
      "oard": 5389,
      "p?": 5390,
      "t,": 5391,
      "xchange": 5392,
      "yam": 5393,
      "ze": 5394,
      "ंह": 5395,
      "झार": 5396,
      "डिया": 5397,
      "तट": 5398,
      "निक": 5399,
      "पान": 5400,
      "मालय": 5401,
      "हन": 5402,
      "हरी": 5403,
      "ाय": 5404,
      "िज": 5405,
      "िस्तान": 5406,
      "िहार": 5407,
      "ంతి": 5408,
      "కాల": 5409,
      "కారం": 5410,
      "ఖ్": 5411,
      "గంగా": 5412,
      "టో": 5413,
      "డిన": 5414,
      "తీ": 5415,
      "ధి": 5416,
      "ధించ": 5417,
      "నల్": 5418,
      "మన": 5419,
      "మర": 5420,
      "ర్యా": 5421,
      "లం": 5422,
      "లతో": 5423,
      "లమె": 5424,
      "ీస్": 5425,
      "ూప": 5426,
      "ూరు": 5427,
      "ెనీ": 5428,
      "ౌక": 5429,
      "–24": 5430,
      "▁ऑ": 5431,
      "▁ద": 5432,
      "▁ఫ": 5433,
      "▁राष्ट्र": 5434,
      "▁దక్షిణ": 5435,
      "▁హిందూ": 5436,
      "▁economy": 5437,
      "▁గాంధీ": 5438,
      "orce": 5439,
      ":/121": 5440,
      "▁[च": 5441,
      "▁[భారతదేశం": 5442,
      "▁[ఢిల్లీ": 5443,
      "▁\"World": 5444,
      "20)": 5445,
      "20.": 5446,
      "erg": 5447,
      "arendra": 5448,
      "esti": 5449,
      "ison": 5450,
      "](https://hi.wikipedia.org/ओ": 5451,
      "▁कुल": 5452,
      "▁(2006": 5453,
      "ారస": 5454,
      "▁India](https://en.wikipedia.org/G": 5455,
      "ootb": 5456,
      "▁influ": 5457,
      "▁since": 5458,
      "ాలను": 5459,
      "adwe": 5460,
      "agen": 5461,
      "ages/": 5462,
      "agari": 5463,
      "aglia": 5464,
      "▁far": 5465,
      "▁Chand": 5466,
      "▁Centre": 5467,
      "స్](https://te.wikipedia.org/": 5468,
      "▁పెద్ద": 5469,
      "lopedia": 5470,
      "lief": 5471,
      "ets": 5472,
      "\"),[[": 5473,
      "▁12": 5474,
      "red/lin": 5475,
      "hell": 5476,
      "▁Park": 5477,
      "▁Public": 5478,
      "00–సా.శ.పూ.": 5479,
      "ర్లు": 5480,
      "▁केन्द्र": 5481,
      "र्ष": 5482,
      "▁ही": 5483,
      "▁होत": 5484,
      "లు\")": 5485,
      "▁Research": 5486,
      "state": 5487,
      "▁Tamil": 5488,
      "igr": 5489,
      "▁M.": 5490,
      "▁Man": 5491,
      "▁Mana": 5492,
      "raz": 5493,
      "▁women": 5494,
      "▁వే": 5495,
      "▁Gu": 5496,
      "▁Gana": 5497,
      "▁देख": 5498,
      "ियां": 5499,
      "11.": 5500,
      "▁नद": 5501,
      "▁नहीं": 5502,
      "▁से](http://": 5503,
      "architecture": 5504,
      "267": 5505,
      "▁From": 5506,
      "▁Index": 5507,
      "▁rem": 5508,
      "త్తం": 5509,
      "ains": 5510,
      "geoh": 5511,
      "▁(సా.శ.15": 5512,
      "▁(సా.శ.13": 5513,
      "160": 5514,
      "▁అనే": 5515,
      "▁वार": 5516,
      "24.": 5517,
      "▁ప్రజ": 5518,
      "తం\")": 5519,
      "पुरा": 5520,
      "238": 5521,
      "ంచి": 5522,
      "otal": 5523,
      "स्ला": 5524,
      "aves": 5525,
      "light": 5526,
      "▁ఆఫ్": 5527,
      "254": 5528,
      "▁rate": 5529,
      "▁సాం": 5530,
      "▁[Ministry": 5531,
      "▁उद्यान": 5532,
      "ssam": 5533,
      "ార్లమె": 5534,
      "▁शताब्": 5535,
      "▁\"British": 5536,
      "oreign": 5537,
      "ogue": 5538,
      "▁लेख": 5539,
      "కిస్థాన్": 5540,
      "_Data_": 5541,
      "48/cb": 5542,
      "▁నే": 5543,
      "▁నగర": 5544,
      "▁रहा": 5545,
      "issing": 5546,
      "key": 5547,
      "▁[GDP": 5548,
      "▁[Government": 5549,
      "▁దేశం": 5550,
      ")\n\nThe": 5551,
      "hmed": 5552,
      "టిబె": 5553,
      "_Nadu": 5554,
      "్రీ.పూ.": 5555,
      "▁[![A": 5556,
      "▁[New": 5557,
      "](https://en.wikipedia.org/National_": 5558,
      "athur": 5559,
      "ండియా": 5560,
      "](https://en.wikipedia.org/List_of_SAARC_summit": 5561,
      "▁ఎక్కువ": 5562,
      "▁ఎన్నో": 5563,
      "▁\"Indo-": 5564,
      "विशेष:EditPage/": 5565,
      "amily": 5566,
      "amil_Nadu": 5567,
      "hya": 5568,
      "anta": 5569,
      "](https://en.wikipedia.org/Indo-": 5570,
      "timesofindia": 5571,
      "▁technology": 5572,
      "_సం": 5573,
      "awahar": 5574,
      "▁Hinduism": 5575,
      "ancis": 5576,
      "gisl": 5577,
      "▁मेला](https://hi.wikipedia.org/": 5578,
      "టుంబ": 5579,
      "▁when": 5580,
      "▁భారత్": 5581,
      "▁Islands\")": 5582,
      "श्चिमी": 5583,
      "▁dispu": 5584,
      "▁మొత్తం": 5585,
      "urrent": 5586,
      "▁प्राप्त": 5587,
      "garh": 5588,
      "బాద్": 5589,
      ".php?": 5590,
      "-of-india-": 5591,
      "hasha": 5592,
      "▁along": 5593,
      "eserve": 5594,
      "ంపెనీ": 5595,
      "-lead": 5596,
      "View": 5597,
      "▁स्रोत/978-0": 5598,
      "▁स्रोत/978-1": 5599,
      "](https://hi.wikipedia.org/विशेष:पुस्तक_स्रोत/978-0": 5600,
      "](https://hi.wikipedia.org/विशेष:पुस्तक_स्रोत/978-1": 5601,
      "-India.pdf)": 5602,
      "kimages/": 5603,
      "హ్మ": 5604,
      "cyclop": 5605,
      "cyclopedia": 5606,
      "▁Persian": 5607,
      "▁ఏర్": 5608,
      ".bnf": 5609,
      "▁groups": 5610,
      "్రిటిషు": 5611,
      "▁भूम": 5612,
      "omason": 5613,
      "akshadwe": 5614,
      "_BRICS_summit": 5615,
      "shared/lin": 5616,
      "▁गणराज्य": 5617,
      "▁employ": 5618,
      "bank.org/": 5619,
      "▁चुनाव": 5620,
      ".fr/ark": 5621,
      "Provision": 5622,
      "▁అత్యధిక": 5623,
      "overeign": 5624,
      "hristian": 5625,
      "nclm.nic.in/shared/lin": 5626,
      "ీర్ణ": 5627,
      "దక్షిణ_ఆసియా": 5628,
      "रेलू": 5629,
      "rahmaputra": 5630,
      "▁[पुरालेखित](https://web.archive.org/web/201": 5631,
      "icobar": 5632,
      "▁summits\")": 5633,
      "र्वोच्च": 5634,
      ":/12148/cb": 5635,
      "ootball": 5636,
      "geohack": 5637,
      "](https://en.wikipedia.org/List_of_SAARC_summits": 5638,
      "विशेष:EditPage/साँचा:": 5639,
      "timesofindia.indiatimes.com/": 5640,
      "awaharl": 5641,
      ".bnf.fr/ark": 5642,
      "akshadweep": 5643,
      "nclm.nic.in/shared/linkimages/": 5644,
      ".bnf.fr/ark:/12148/cb": 5645,
      "->": 5646,
      "-विज्ञान": 5647,
      ".ಎ": 5648,
      "2-4": 5649,
      "270": 5650,
      "3–": 5651,
      "318": 5652,
      "3-7": 5653,
      "41": 5654,
      "400": 5655,
      "52": 5656,
      "534": 5657,
      "6-2": 5658,
      "677": 5659,
      "7).": 5660,
      "9]](https://en.wikipedia.org/India#cite_note-": 5661,
      "AS": 5662,
      "CH": 5663,
      "Census": 5664,
      "Gua": 5665,
      "JIJ": 5666,
      "Kashmir": 5667,
      "MC": 5668,
      "MID": 5669,
      "Ministry_of_": 5670,
      "NA": 5671,
      "OV": 5672,
      "S1": 5673,
      "Zva": 5674,
      "_-": 5675,
      "_v": 5676,
      "_आ": 5677,
      "_उ": 5678,
      "_ಬ": 5679,
      "_pe": 5680,
      "_30": 5681,
      "_26": 5682,
      "_36": 5683,
      "_देश": 5684,
      "_ಸಂ": 5685,
      "a)": 5686,
      "aur": 5687,
      "aul": 5688,
      "bbc": 5689,
      "c/c": 5690,
      "code": 5691,
      "casting": 5692,
      "ek": 5693,
      "gra": 5694,
      "ham": 5695,
      "had": 5696,
      "ij": 5697,
      "les/": 5698,
      "lue": 5699,
      "most": 5700,
      "mrits": 5701,
      "pture": 5702,
      "s:": 5703,
      "s_in_India": 5704,
      "tandard": 5705,
      "ंच": 5706,
      "ईरा": 5707,
      "छत्तीस": 5708,
      "त्व": 5709,
      "फल": 5710,
      "फ्रीका": 5711,
      "बैक": 5712,
      "लग": 5713,
      "स\")": 5714,
      "सून": 5715,
      "िंध": 5716,
      "ीच": 5717,
      "।\n\n": 5718,
      "ಇಂಡ": 5719,
      "ಏಷ್ಯಾ": 5720,
      "ಗಿನ": 5721,
      "ಗೊಂಡ": 5722,
      "ಘಟ": 5723,
      "ಡು": 5724,
      "ಪಾರ": 5725,
      "ರೇಂದ್ರ": 5726,
      "ವು": 5727,
      "ವರಿ": 5728,
      "ವೆ.": 5729,
      "ವನ್ನು": 5730,
      "ಹಿ": 5731,
      "ಾಂಗ್": 5732,
      "ಿಗೆ": 5733,
      "ಿರುವ": 5734,
      "ುತ್ತ": 5735,
      "ೊಡ್": 5736,
      "ೋದಿ": 5737,
      "್‌": 5738,
      "್ನೆ": 5739,
      "೨]](https://kn.wikipedia.org/ಭಾರತ#cite_note-": 5740,
      "▁·": 5741,
      "▁ಜ": 5742,
      "▁೨": 5743,
      "▁80": 5744,
      "▁ಗಣರಾಜ್ಯ": 5745,
      "▁Qu": 5746,
      "▁ರಾಜ": 5747,
      "iam": 5748,
      "orn": 5749,
      "▁[ಹಿಂದೂ": 5750,
      "en,": 5751,
      "▁\"च": 5752,
      "▁\"ನ": 5753,
      "▁\"ಸ": 5754,
      "▁\"ಭಾರತ": 5755,
      "▁\"ಹಿಂದೂ": 5756,
      "\")\n\n##": 5757,
      "th](https://kn.wikipedia.org/List_of_countries": 5758,
      "th_BRICS_summit": 5759,
      "reed": 5760,
      "aland": 5761,
      "alli": 5762,
      "aria": 5763,
      "arlo": 5764,
      "araj": 5765,
      "arath": 5766,
      "hib": 5767,
      "es.": 5768,
      "](https://hi.wikipedia.org/च": 5769,
      "omain": 5770,
      "▁कई": 5771,
      "▁कश्मीर": 5772,
      "▁off": 5773,
      "outheast": 5774,
      "ick": 5775,
      "▁सद": 5776,
      "▁सैन": 5777,
      "▁sq": 5778,
      "entury": 5779,
      "▁culture": 5780,
      "▁caus": 5781,
      "▁मुख": 5782,
      "adras": 5783,
      "-12)": 5784,
      "uss": 5785,
      "\n\n1.": 5786,
      "▁fig": 5787,
      "▁Civil": 5788,
      "▁पर्वत": 5789,
      "loth": 5790,
      "▁bu": 5791,
      "urity": 5792,
      "](https://kn.wikipedia.org/ಹಿಂದೂ": 5793,
      "್ರೀ": 5794,
      "_of_2011": 5795,
      "▁2016.": 5796,
      "iger": 5797,
      "-0)\n": 5798,
      "ema": 5799,
      "emic": 5800,
      "emplate_": 5801,
      "emographic": 5802,
      "10)": 5803,
      "1017": 5804,
      "rim": 5805,
      "rime": 5806,
      "वित": 5807,
      "▁1965": 5808,
      "್ತ್‌": 5809,
      "_का": 5810,
      "Union": 5811,
      "al_Population": 5812,
      "▁Europe": 5813,
      "▁दि": 5814,
      "▁Nehru": 5815,
      "ಲಿಮ್": 5816,
      "oples": 5817,
      "upt": 5818,
      "▁बा": 5819,
      "▁बीच": 5820,
      "▁से](http://www.": 5821,
      "ಂದು": 5822,
      "26.": 5823,
      "▁ಪು": 5824,
      "▁ಪ್ರಾ": 5825,
      "-85": 5826,
      "▁International": 5827,
      "▁regions": 5828,
      "▁hum": 5829,
      "▁human": 5830,
      "ताज": 5831,
      "▁name": 5832,
      "_of_India.svg": 5833,
      "ಗಳನ್ನು": 5834,
      "159": 5835,
      "24)": 5836,
      "क्षा": 5837,
      "ಸ್ಲಿಮ್": 5838,
      "▁Organisation": 5839,
      "न्दिर": 5840,
      "_Census": 5841,
      "▁आधिकारिक": 5842,
      "23.": 5843,
      "▁Linguistic": 5844,
      "▁[Central": 5845,
      "_Paper": 5846,
      "स्थ": 5847,
      "arty": 5848,
      "▁wide": 5849,
      "▁ಹಾಗ": 5850,
      "709": 5851,
      "▁ಕಾ": 5852,
      "▁ಕ್ರಿ": 5853,
      "utom": 5854,
      "▁गु": 5855,
      "▁tree": 5856,
      "▁उत्पाद": 5857,
      "▁ವಾ": 5858,
      "▁ನದಿ": 5859,
      "ाद्वीप": 5860,
      "undament": 5861,
      "-674": 5862,
      "▁[British": 5863,
      "_मंदिर": 5864,
      "▁संस्कृति": 5865,
      "प्रा": 5866,
      "▁Press](https://en.wikipedia.org/C": 5867,
      "ರಿಂದ": 5868,
      "▁इन": 5869,
      "ಸಂಸ": 5870,
      "ಸಂಯುಕ್ತ": 5871,
      "▁\"Government": 5872,
      "ಾಗರೀ": 5873,
      "▁def": 5874,
      "िस्ट": 5875,
      "_Totals": 5876,
      "್ರಾಡಳಿತ": 5877,
      "ociation": 5878,
      "iance": 5879,
      "ಿದೆ": 5880,
      "ikhism": 5881,
      "ext": 5882,
      "ighth": 5883,
      "ibcode": 5884,
      "हाय": 5885,
      "▁[Dyson": 5886,
      "ರಾಷ್ಟ್ರಪತಿ": 5887,
      "▁करोड़": 5888,
      "▁ಆಡಳಿತ": 5889,
      "▁अनु": 5890,
      "್ಯಾಪಾರ": 5891,
      "▁1994": 5892,
      "o-operation": 5893,
      "ಿಯಿಂದ": 5894,
      "▁[अंग्रेज़": 5895,
      "केर": 5896,
      "onstitutional": 5897,
      "ವಿರ": 5898,
      "ಮುಖ್ಯ": 5899,
      "▁जनगणना": 5900,
      "▁languages\")": 5901,
      "_1_of_2011": 5902,
      "ರೆಗೆ": 5903,
      "▁राजनी": 5904,
      "74-108": 5905,
      "▁\"पंजाब": 5906,
      "र्थव्यवस्था": 5907,
      "▁ಎಂಬ": 5908,
      "▁ಎನ್.": 5909,
      "▁ಸಾವಿರ": 5910,
      "3,422": 5911,
      "▁[पंजाब": 5912,
      "करण": 5913,
      "▁2016.\n": 5914,
      "▁ಉಪ": 5915,
      "गणराज्य": 5916,
      "kingdom": 5917,
      "▁ಕೋಟ": 5918,
      "gypt": 5919,
      "ೆಲ್ತ್‌": 5920,
      "▁होता": 5921,
      "▁2019.\n": 5922,
      "uisine": 5923,
      "ब्ब": 5924,
      "ೇಂದ್ರಾಡಳಿತ": 5925,
      "odiversity": 5926,
      "▁जिसमें": 5927,
      "disha": 5928,
      "irector": 5929,
      "-4020": 5930,
      "▁ವಿಭ": 5931,
      "वेबैक": 5932,
      "ಲಾದೇಶ": 5933,
      "▁second": 5934,
      "▁कारण": 5935,
      "ಹಾರಾ": 5936,
      "ोर्ड": 5937,
      "▁km2": 5938,
      "_मेला?action=edit&redlink=1": 5939,
      "▁Plateau": 5940,
      "गोआ": 5941,
      "श्रीलंका": 5942,
      "evanagari": 5943,
      "emocrac": 5944,
      "](https://kn.wikipedia.org/ಚಿತ್ರ": 5945,
      "▁%),": 5946,
      "ಳುವಳಿ": 5947,
      "▁ಶತಮಾನ": 5948,
      "र्सिट": 5949,
      "roadcasting": 5950,
      "uthority": 5951,
      "atabase": 5952,
      "ಿಹ್ನೆ": 5953,
      "▁अप्रैल": 5954,
      "▁ಮೊದ": 5955,
      "ूनिवर्सिट": 5956,
      "edieval": 5957,
      "-78074-108": 5958,
      "ಂಗಳೂರು": 5959,
      "Provisional_Population": 5960,
      "GuaJIJ": 5961,
      "ZvaGuaJIJ": 5962,
      "ಘಟನೆ": 5963,
      "ಾಂಗ್ಲಾದೇಶ": 5964,
      "ೊಡ್ಡ": 5965,
      "_Paper_1_of_2011": 5966,
      "▁ಹಾಗೂ": 5967,
      "ಾಗರೀಕ": 5968,
      "_Totals_Paper_1_of_2011": 5969,
      "▁[अंग्रेज़ी](https://hi.wikipedia.org/अ": 5970,
      "▁ಎನ್.ಡಿ": 5971,
      "-78074-108-6": 5972,
      "Provisional_Population_Totals_Paper_1_of_2011": 5973,
      "ZvaGuaJIJgo": 5974,
      "Provisional_Population_Totals_Paper_1_of_2011_India": 5975,
      "%202": 5976,
      ")\"),": 5977,
      "*)": 5978,
      "-i": 5979,
      "-the": 5980,
      "3%": 5981,
      "3-1": 5982,
      "3]](https://en.wikipedia.org/India#cite_note-": 5983,
      "5]](https://en.wikipedia.org/India#cite_note-FOOTNOTE": 5984,
      "613": 5985,
      "6]](https://en.wikipedia.org/India#cite_note-FOOTNOTE": 5986,
      "8%": 5987,
      "97": 5988,
      "9857": 5989,
      ":C": 5990,
      "AG": 5991,
      "A/A": 5992,
      "CA/A": 5993,
      "Fr": 5994,
      "HDR": 5995,
      "IF": 5996,
      "IUCN": 5997,
      "Pl": 5998,
      "Tab": 5999,
      "Vu": 6000,
      "ZVu": 6001,
      "_व": 6002,
      "_జాబితా": 6003,
      "_with": 6004,
      "ax": 6005,
      "ced": 6006,
      "cog": 6007,
      "cise": 6008,
      "ered": 6009,
      "equality": 6010,
      "hu": 6011,
      "hā": 6012,
      "hut": 6013,
      "jan": 6014,
      "jana": 6015,
      "kZVu": 6016,
      "nc": 6017,
      "oefficient": 6018,
      "rid": 6019,
      "tats": 6020,
      "uf": 6021,
      "ues": 6022,
      "ंट": 6023,
      "अभि": 6024,
      "जम्मू": 6025,
      "पि": 6026,
      "भ्यता": 6027,
      "मो": 6028,
      "लों": 6029,
      "वल": 6030,
      "शा": 6031,
      "िख": 6032,
      "िम": 6033,
      "ीगढ़": 6034,
      "ॉक": 6035,
      "्ले": 6036,
      "१९": 6037,
      "ఆంధ": 6038,
      "కీ": 6039,
      "కాలు": 6040,
      "క్రమ": 6041,
      "గర్": 6042,
      "డో": 6043,
      "థి": 6044,
      "నె": 6045,
      "నాలు": 6046,
      "పించ": 6047,
      "బడ్డ": 6048,
      "భర": 6049,
      "మహ": 6050,
      "మై": 6051,
      "యన": 6052,
      "రంగ": 6053,
      "లయా": 6054,
      "వార": 6055,
      "శీ": 6056,
      "షనల్": 6057,
      "స్య": 6058,
      "ృద్ధి": 6059,
      "ెంగ": 6060,
      "ేర": 6061,
      "▁<": 6062,
      "▁ओ": 6063,
      "▁old": 6064,
      "▁దా": 6065,
      "▁నాగరికత": 6066,
      "▁టెక్నాలజీ": 6067,
      "orpor": 6068,
      ".org/en": 6069,
      "▁[f": 6070,
      "▁[वि": 6071,
      "▁[सा": 6072,
      "▁\"ग": 6073,
      "▁\"ल": 6074,
      "tici": 6075,
      "erman": 6076,
      "ala": 6077,
      "aro": 6078,
      "ising": 6079,
      "▁कु": 6080,
      "anda": 6081,
      "▁(c": 6082,
      "్రై": 6083,
      "్రప్రదేశ్": 6084,
      "](https://te.wikipedia.org/ఢిల్లీ": 6085,
      "asi": 6086,
      "ashi": 6087,
      "2012": 6088,
      "▁India\"](https://": 6089,
      "▁India](https://en.wikipedia.org/C": 6090,
      "▁India\"](https://web.archive.org/web/201": 6091,
      "19.": 6092,
      "trial": 6093,
      "▁सूचना": 6094,
      "ation,": 6095,
      "ations/": 6096,
      "▁sur": 6097,
      "▁sim": 6098,
      "atch": 6099,
      "atures": 6100,
      "▁census": 6101,
      "▁colle": 6102,
      "▁मध्य": 6103,
      "▁महासागर": 6104,
      "adhya": 6105,
      "▁As": 6106,
      "▁See": 6107,
      "▁fam": 6108,
      "[[14": 6109,
      "▁Central": 6110,
      "స్\")": 6111,
      "దేశం": 6112,
      "దేశాల": 6113,
      "▁14.": 6114,
      "ानव": 6115,
      "00%20A": 6116,
      "ర్‌": 6117,
      "र्ज": 6118,
      "▁2017.": 6119,
      "▁2014.": 6120,
      "▁2012.": 6121,
      "లు?action=edit&redlink=1": 6122,
      "▁des": 6123,
      "fir": 6124,
      "రాఠ": 6125,
      "ign_": 6126,
      "igarh": 6127,
      "]](https://en.wikipedia.org/India#cite_note-Combined": 6128,
      "▁work": 6129,
      "▁కి": 6130,
      "▁కో": 6131,
      "▁B.": 6132,
      "irth": 6133,
      "emon": 6134,
      "క్టో": 6135,
      "108": 6136,
      "నియా": 6137,
      "▁వర్": 6138,
      "▁వారస": 6139,
      "-230": 6140,
      "-2_Data_": 6141,
      "indic": 6142,
      "oung": 6143,
      "eccan": 6144,
      "▁जी": 6145,
      "▁*B": 6146,
      "▁*2011": 6147,
      "ల్వే": 6148,
      "ालदीव": 6149,
      "University": 6150,
      "▁Games": 6151,
      "▁Gujarat": 6152,
      "▁సరిహద్దు": 6153,
      "▁दशक": 6154,
      "hap": 6155,
      "▁మన": 6156,
      "▁మూ": 6157,
      "ेशन": 6158,
      "ेशिया": 6159,
      "▁H.": 6160,
      "▁only": 6161,
      "ండమా": 6162,
      "-49857": 6163,
      "aryana": 6164,
      "▁growth": 6165,
      "▁Journal": 6166,
      "▁చిన్న": 6167,
      "_Act": 6168,
      "తాన": 6169,
      "ముఖ": 6170,
      "▁Factbook": 6171,
      "▁Intelligence": 6172,
      "▁report": 6173,
      "▁religion": 6174,
      "▁religious": 6175,
      ".[[40": 6176,
      "▁her": 6177,
      "త్వం": 6178,
      "▁near": 6179,
      "archive.org/detail": 6180,
      "▁these": 6181,
      "▁through": 6182,
      "15.": 6183,
      "▁(సా.శ.14": 6184,
      "ులు,": 6185,
      "16.": 6186,
      "–సా.శ.17": 6187,
      "▁\"Central": 6188,
      "▁ప్రతి": 6189,
      "▁ప్రస్తు": 6190,
      "▁ప్రకారం": 6191,
      "▁ప్రముఖ": 6192,
      "क्षर": 6193,
      "14.": 6194,
      "AAJ": 6195,
      "षाण": 6196,
      "ంచిన": 6197,
      "కుడు": 6198,
      "నుమ": 6199,
      "▁2025": 6200,
      "▁2025.": 6201,
      "7.208": 6202,
      "▁\"Mughal": 6203,
      "25.": 6204,
      "a_d": 6205,
      "a_Empire": 6206,
      "▁రో": 6207,
      "▁రంగ": 6208,
      "▁రవాణా": 6209,
      "ana-m": 6210,
      "ana-49857": 6211,
      "▁సాధించ": 6212,
      "](https://en.wikipedia.org/Mugh": 6213,
      "▁[↑](https://en.wikipedia.org/India#cite_ref-FOOTNOTEB": 6214,
      "ష్టు": 6215,
      "▁शक्ति": 6216,
      "▁शिक्षा": 6217,
      "काश": 6218,
      "▁within": 6219,
      "▁Press,": 6220,
      "▁लोग": 6221,
      "](https://en.wikipedia.org/British": 6222,
      "ంతో": 6223,
      "▁\"Gross": 6224,
      "▁\"Template:": 6225,
      "llchin": 6226,
      "▁తరువా": 6227,
      "](https://en.wikipedia.org/Template:": 6228,
      "పాలన": 6229,
      "ंडीगढ़": 6230,
      "▁language\"),": 6231,
      ")\n\n-": 6232,
      "▁(PPP": 6233,
      "ం](https://te.wikipedia.org/భారతీయ": 6234,
      "గుర్": 6235,
      "నేషనల్": 6236,
      "aking": 6237,
      "▁trillion": 6238,
      ",_కేంద్రపాలిత": 6239,
      "news18": 6240,
      "\")\n\n[![](https://upload.wikimedia.org/wikipedia/commons/thumb/": 6241,
      "ender": 6242,
      "▁ప్రాంతం": 6243,
      "▁రాజ్యం](https://te.wikipedia.org/": 6244,
      "▁77.208": 6245,
      "▁क्षेत्रीय": 6246,
      "వందే": 6247,
      "▁బా": 6248,
      "▁బహు": 6249,
      "▁బెంగ": 6250,
      "▁liter": 6251,
      "▁life": 6252,
      "_capita": 6253,
      "▁\"International": 6254,
      "▁पुरा": 6255,
      "handigarh": 6256,
      "ాల్లో": 6257,
      "_domestic": 6258,
      "\")*,": 6259,
      "ureau": 6260,
      "जनसंख्या": 6261,
      "▁जनसंख्या": 6262,
      "ondon": 6263,
      "▁adop": 6264,
      "శ్వా": 6265,
      "_Fund": 6266,
      "ological": 6267,
      "ారిటీ": 6268,
      "▁वर्ग": 6269,
      "-gana-m": 6270,
      "▁ప్రాంతాలు\")": 6271,
      "AsherTalbot202": 6272,
      "గోళ": 6273,
      "india/national-": 6274,
      "8/8": 6275,
      "బడిన": 6276,
      "ediff": 6277,
      "తున్న": 6278,
      "న్నిక": 6279,
      "]](https://hi.wikipedia.org/भारत#cite_note-FOOTNOTEStein1998": 6280,
      "]](https://hi.wikipedia.org/भारत#cite_note-FOOTNOTESingh2009": 6281,
      "ज्ञाप": 6282,
      "▁స్వాతంత్ర్య": 6283,
      "▁కాలంలో": 6284,
      "ross_domestic": 6285,
      "▁use": 6286,
      "-report": 6287,
      "మెరి": 6288,
      "Dyson2018),": 6289,
      "4/4": 6290,
      "ంపి": 6291,
      "బెంగాల్": 6292,
      "rishna": 6293,
      "▁sector": 6294,
      "censusindia.gov.in/2011census/P": 6295,
      "censusindia.gov.in/2011census/population": 6296,
      "ెలవు": 6297,
      ".com/news/india/national-": 6298,
      "](https://te.wikipedia.org/భారతదేశంలో_": 6299,
      "मुख्य": 6300,
      "▁Buddhist": 6301,
      "_product": 6302,
      "UNHDR": 6303,
      "olkata": 6304,
      "▁Data*.": 6305,
      "%E0%A4%B": 6306,
      "ote:": 6307,
      "strument": 6308,
      "▁2026.\n": 6309,
      "▁स्थित": 6310,
      "▁అధికారిక": 6311,
      "_by_GDP_(nominal)": 6312,
      "catal": 6313,
      "culpture": 6314,
      "urchasing": 6315,
      "](https://en.wikipedia.org/South_Asian_": 6316,
      "_enumeration": 6317,
      "▁mathema": 6318,
      "merican": 6319,
      "-on-jana": 6320,
      "ఆర్ధిక": 6321,
      "▁పట్టణ": 6322,
      "ivisions": 6323,
      "▁కాశ్మీరు": 6324,
      "▁Minorities": 6325,
      "rief-on-jana": 6326,
      "▁2018](https://en.wikipedia.org/India#CITEREFDyson2018),": 6327,
      "owever,": 6328,
      "india.gov.in/india-glance/national-symbols": 6329,
      "ynasty": 6330,
      ".worldbank.org/": 6331,
      "त्तराखण्ड": 6332,
      "▁అయిన": 6333,
      "▁రెండు": 6334,
      "ాల్దీవులు": 6335,
      "▁zone": 6336,
      "troduction": 6337,
      "ట్రో": 6338,
      "ుల్తాన": 6339,
      "osphere": 6340,
      "ంగ్లీషు": 6341,
      "రాష్ట్రాలు,_కేంద్రపాలిత": 6342,
      "▁వ్యాసం:": 6343,
      "_per_capita": 6344,
      "anthem-of-india-": 6345,
      "हिमाचल": 6346,
      "a-brief-on-jana": 6347,
      "ార్లమెంట": 6348,
      "▁शताब्दी": 6349,
      "▁लेख:": 6350,
      "▁ఏర్ప": 6351,
      "les/00%20A": 6352,
      "▁Quote:": 6353,
      "ZvaGuaJIJgoC&pg=PA": 6354,
      "%202-India.pdf)": 6355,
      "61389": 6356,
      "CA/A-2_Data_": 6357,
      "Tables/00%20A": 6358,
      "अभिज्ञाप": 6359,
      "ఆంధ్రప్రదేశ్": 6360,
      "లయాళ": 6361,
      "archive.org/details/": 6362,
      "ana-498576.": 6363,
      "](https://en.wikipedia.org/Mughal_": 6364,
      "news18.com/news/india/national-": 6365,
      "▁77.20833": 6366,
      "-gana-mana-498576.": 6367,
      "ross_domestic_product": 6368,
      "censusindia.gov.in/2011census/PCA/A-2_Data_": 6369,
      "censusindia.gov.in/2011census/population_enumeration": 6370,
      "రాష్ట్రాలు,_కేంద్రపాలిత_ప్రాంత": 6371,
      "anthem-of-india-a-brief-on-jana": 6372,
      "Tables/00%20A%202-India.pdf)": 6373,
      "अभिज्ञापक": 6374,
      "news18.com/news/india/national-anthem-of-india-a-brief-on-jana": 6375,
      "censusindia.gov.in/2011census/PCA/A-2_Data_Tables/00%20A%202-India.pdf)": 6376,
      "news18.com/news/india/national-anthem-of-india-a-brief-on-jana-gana-mana-498576.": 6377,
      "-50": 6378,
      "1]](https://en.wikipedia.org/India#cite_note-": 6379,
      "1-3": 6380,
      "3).": 6381,
      "324": 6382,
      "4]](https://en.wikipedia.org/India#cite_note-": 6383,
      "430": 6384,
      "58)": 6385,
      "7-8": 6386,
      "9]](https://en.wikipedia.org/India#cite_note-FOOTNOTE": 6387,
      "Alig": 6388,
      "ES": 6389,
      "EX": 6390,
      "TC": 6391,
      "_9": 6392,
      "_राज": 6393,
      "_18": 6394,
      "_14": 6395,
      "_World": 6396,
      "_2024": 6397,
      "aut": 6398,
      "b/": 6399,
      "baki": 6400,
      "eb": 6401,
      "eg": 6402,
      "f/": 6403,
      "ka": 6404,
      "kb": 6405,
      "khand": 6406,
      "lm": 6407,
      "law": 6408,
      "mir": 6409,
      "ned": 6410,
      "ncient": 6411,
      "ption": 6412,
      "pro": 6413,
      "rig": 6414,
      "subcontinent": 6415,
      "tary": 6416,
      "vent": 6417,
      "vil": 6418,
      "vest": 6419,
      "wana": 6420,
      "zer": 6421,
      "को": 6422,
      "गत": 6423,
      "गू": 6424,
      "टा": 6425,
      "तृत": 6426,
      "पूर्": 6427,
      "म\")": 6428,
      "श्य": 6429,
      "षय": 6430,
      "हरा": 6431,
      "हित": 6432,
      "िनेमा": 6433,
      "ी.": 6434,
      "ृद्ध": 6435,
      "ेघ": 6436,
      "▁35": 6437,
      "▁eng": 6438,
      "org": 6439,
      "orship": 6440,
      "▁[ग": 6441,
      "ences": 6442,
      "eneral_": 6443,
      "tex": 6444,
      "tection": 6445,
      "▁\"तमिल": 6446,
      "▁\"Official": 6447,
      "\")\"": 6448,
      "an,": 6449,
      "an-": 6450,
      "ants": 6451,
      "ancy": 6452,
      "](https://en.wikipedia.org/World": 6453,
      "rel": 6454,
      "erved": 6455,
      "alit": 6456,
      "artition": 6457,
      "him": 6458,
      "cid": 6459,
      "cit": 6460,
      "](https://hi.wikipedia.org/ल": 6461,
      "itt": 6462,
      "▁(S": 6463,
      "▁(2011": 6464,
      "ichell": 6465,
      "▁सक": 6466,
      "▁sha": 6467,
      "attle": 6468,
      "▁cont": 6469,
      "▁code": 6470,
      "▁At": 6471,
      "्यों": 6472,
      "▁fe": 6473,
      "ately": 6474,
      "liest": 6475,
      "lima": 6476,
      "ango": 6477,
      "umar": 6478,
      "78.": 6479,
      "ull": 6480,
      "▁Punjab": 6481,
      "tock": 6482,
      "iland": 6483,
      "▁main": 6484,
      "▁market": 6485,
      "very": 6486,
      "oln": 6487,
      "rowing": 6488,
      "▁Rothermund": 6489,
      "▁Total": 6490,
      "ourbaki": 6491,
      "▁Muslim": 6492,
      "▁अव": 6493,
      "▁Bi": 6494,
      "▁By": 6495,
      "▁B.;": 6496,
      "▁Dictionary": 6497,
      "109": 6498,
      ".jpe": 6499,
      "50th": 6500,
      "▁\"Special:BookSources/978-81": 6501,
      "▁1960": 6502,
      "](https://en.wikipedia.org/Special:BookSources/978-81": 6503,
      "▁[↑](https://en.wikipedia.org/India#cite_ref-4": 6504,
      "pecially": 6505,
      "tures": 6506,
      "bert": 6507,
      "-415": 6508,
      "-433": 6509,
      "▁प्रेस": 6510,
      "▁प्रौद्योगिक": 6511,
      "▁gen": 6512,
      "्वतंत्रता": 6513,
      "▁Report": 6514,
      "260": 6515,
      "261": 6516,
      "40)": 6517,
      "▁though": 6518,
      "▁third": 6519,
      "▁forest": 6520,
      "▁व्य": 6521,
      "▁\"Cambridge": 6522,
      "ndhra": 6523,
      "oss": 6524,
      "_Commissioner": 6525,
      "▁Languages": 6526,
      "▁Library": 6527,
      "harm": 6528,
      "harkhand": 6529,
      "▁2024.": 6530,
      "▁[Cambridge": 6531,
      "▁[978-81": 6532,
      "aving": 6533,
      "](http://p": 6534,
      "251": 6535,
      "▁original](http://www.": 6536,
      "▁range": 6537,
      "dependence": 6538,
      "▁[↑](https://en.wikipedia.org/India#cite_ref-FOOTNOTEStein2010": 6539,
      "22-9": 6540,
      "▁before": 6541,
      "▁संसद": 6542,
      "▁लोक": 6543,
      "aith": 6544,
      "_Mah": 6545,
      "ियार": 6546,
      "issile": 6547,
      "arden": 6548,
      "▁exp": 6549,
      "▁राज्य\")": 6550,
      "49-2": 6551,
      "▁[978-0-521": 6552,
      "1):": 6553,
      "परमाणु": 6554,
      "ोलन": 6555,
      "_General_": 6556,
      "▁like": 6557,
      "onstitution_of_India": 6558,
      "▁vill": 6559,
      "on-Alig": 6560,
      "orthographic": 6561,
      "ambridge_University_Press": 6562,
      "▁[International": 6563,
      "▁(2014).": 6564,
      "▁addition": 6565,
      "erves": 6566,
      "▁जाती": 6567,
      "▁राजवंश": 6568,
      "▁स्था": 6569,
      "▁स्थान": 6570,
      "ज्ज": 6571,
      "_433": 6572,
      "▁Anthem": 6573,
      "▁ago": 6574,
      "▁21.": 6575,
      "▁2007](https://en.wikipedia.org/India#CITEREF": 6576,
      "paper": 6577,
      "edium": 6578,
      "▁News": 6579,
      "▁disc": 6580,
      "▁especially": 6581,
      "▁Commissioner,": 6582,
      "▁Pradesh\")": 6583,
      "ollingham": 6584,
      "gistrar_General_": 6585,
      "ethnologue": 6586,
      "▁प्राचीन": 6587,
      "hola": 6588,
      "_Index": 6589,
      "▁था।": 6590,
      "▁धर्म\")": 6591,
      "▁coast": 6592,
      ".nlm": 6593,
      "▁product\")": 6594,
      "ांग्लादेश": 6595,
      "▁[India](https://en.wikipedia.org/India": 6596,
      "▁including": 6597,
      "cheduled": 6598,
      "_projection": 6599,
      "-to-": 6600,
      "PPP)": 6601,
      "ritsch": 6602,
      "_by_GDP_(PPP)": 6603,
      "bi.nlm": 6604,
      "6]](https://en.wikipedia.org/India#cite_note-vatsyayan-lord": 6605,
      "Pakistani": 6606,
      "ilgrim": 6607,
      "langoff-1": 6608,
      "vatsyayan-lord_433": 6609,
      "महाद्वीप": 6610,
      "_of_South_Asia": 6611,
      "etraglia": 6612,
      "_Development_Index": 6613,
      "arnataka": 6614,
      "](https://en.wikipedia.org/History_of_": 6615,
      "▁पहले": 6616,
      "▁different": 6617,
      "▁mi)": 6618,
      "violence": 6619,
      "ouncil": 6620,
      ".nih": 6621,
      "thehindu": 6622,
      "olonial": 6623,
      ".net/": 6624,
      "▁[हिन्दी](https://hi.wikipedia.org/हिन्दी": 6625,
      "hmedabad": 6626,
      "▁चुनावों": 6627,
      "mritsar": 6628,
      "▁सैन्य": 6629,
      "_Census_Commissioner": 6630,
      "▁Press](https://en.wikipedia.org/Cambridge_University_Press": 6631,
      "hār": 6632,
      "hutan": 6633,
      "ncbi.nlm": 6634,
      "indicator": 6635,
      "on-Aligned": 6636,
      "orthographic_projection": 6637,
      "ethnologue.com/": 6638,
      "6]](https://en.wikipedia.org/India#cite_note-vatsyayan-lord-433": 6639,
      "ncbi.nlm.nih": 6640,
      ",&s": 6641,
      ".](https://upload.wikimedia.org/wikipedia/commons/thumb/": 6642,
      ".\")\n\n": 6643,
      "/s": 6644,
      "0/0": 6645,
      "1-1": 6646,
      "350": 6647,
      "5/5": 6648,
      "6,": 6649,
      "6_": 6650,
      "6-1": 6651,
      "7]](https://en.wikipedia.org/India#cite_note-": 6652,
      "9/": 6653,
      "9–": 6654,
      ":IN": 6655,
      ";[[": 6656,
      "=0&s": 6657,
      "Collingham": 6658,
      "F)": 6659,
      "Home": 6660,
      "M50th": 6661,
      "NCL": 6662,
      "TO": 6663,
      "Test": 6664,
      "Tarlo": 6665,
      "Un": 6666,
      "_t": 6667,
      "_घ": 6668,
      "_द": 6669,
      "_ನ": 6670,
      "_ವ": 6671,
      "_వి": 6672,
      "_కాశ్మీ": 6673,
      "atp": 6674,
      "aha": 6675,
      "aos": 6676,
      "ault": 6677,
      "bhasha": 6678,
      "cu": 6679,
      "con": 6680,
      "f/f": 6681,
      "global": 6682,
      "hdr": 6683,
      "jpg": 6684,
      "janta": 6685,
      "k-": 6686,
      "mill": 6687,
      "n-": 6688,
      "oe": 6689,
      "odia": 6690,
      "p-level": 6691,
      "ren": 6692,
      "rune": 6693,
      "tool": 6694,
      "uters": 6695,
      "yd": 6696,
      "yy": 6697,
      "yth": 6698,
      "ंत": 6699,
      "क्": 6700,
      "खन": 6701,
      "गान": 6702,
      "ग्व": 6703,
      "च्": 6704,
      "जं": 6705,
      "टान": 6706,
      "थिल": 6707,
      "दार": 6708,
      "फोर्ड": 6709,
      "ब्ल": 6710,
      "बेट": 6711,
      "भु": 6712,
      "मु": 6713,
      "यत": 6714,
      "यर": 6715,
      "रत": 6716,
      "लंग": 6717,
      "लयाल": 6718,
      "वास": 6719,
      "ेड": 6720,
      "ैंक": 6721,
      "ैथिल": 6722,
      "ॉल": 6723,
      "ॉंग्रेस": 6724,
      "ोस": 6725,
      "ौसेना": 6726,
      "१८": 6727,
      "२००": 6728,
      "ంస్కృ": 6729,
      "ఉత్తరా": 6730,
      "ఖో": 6731,
      "ఘాలయ": 6732,
      "చ్": 6733,
      "టై": 6734,
      "టర్": 6735,
      "డమ్": 6736,
      "డఖ్": 6737,
      "ణే": 6738,
      "ణంగా": 6739,
      "తే": 6740,
      "తెల": 6741,
      "దరంగ": 6742,
      "నో": 6743,
      "నంద": 6744,
      "బర్": 6745,
      "బార్": 6746,
      "యె": 6747,
      "రె": 6748,
      "లడఖ్": 6749,
      "ళా": 6750,
      "ళి": 6751,
      "శు": 6752,
      "హించ": 6753,
      "ుకు": 6754,
      "ెన్న": 6755,
      "ెట్రో": 6756,
      "ేతి": 6757,
      "ేఘాలయ": 6758,
      "ైనిక": 6759,
      "ొగలు": 6760,
      "ోళ": 6761,
      "ಂಭ": 6762,
      "ಓಟ": 6763,
      "ಗದ": 6764,
      "ಗಂಗಾ": 6765,
      "ಚೀ": 6766,
      "ಜಿತ": 6767,
      "ಝೋ": 6768,
      "ಟದ": 6769,
      "ಥವಾ": 6770,
      "ದ್ರ": 6771,
      "ದಿಂದ": 6772,
      "ದ್ವೀಪ": 6773,
      "ಧಿ": 6774,
      "ನೈ": 6775,
      "ನಿಂದ": 6776,
      "ನೆಯ": 6777,
      "ಮಣ": 6778,
      "ಮಂತ್ರಿ": 6779,
      "ಮಾರು": 6780,
      "ರಡ": 6781,
      "ಲಾಗ": 6782,
      "ಲಕ್ಷ": 6783,
      "ವಣಿ": 6784,
      "ವು.": 6785,
      "ಶಾ": 6786,
      "ಹ್ಮ": 6787,
      "ಾಂಶ": 6788,
      "ೀಸ್": 6789,
      "ೂರ": 6790,
      "ೇಖ": 6791,
      "ೇರ": 6792,
      "ೇವ": 6793,
      "ೊಳ": 6794,
      "‌ವ": 6795,
      "‌కా": 6796,
      "‌మహ": 6797,
      "–4": 6798,
      "▁°": 6799,
      "▁ఐ": 6800,
      "▁ఖ": 6801,
      "▁ಏ": 6802,
      "▁ಡ": 6803,
      "▁ಫ": 6804,
      "▁ve": 6805,
      "▁–సా.శ.": 6806,
      "▁33": 6807,
      "▁భారతీయ": 6808,
      "▁9.": 6809,
      "▁46": 6810,
      "▁hist": 6811,
      "▁line": 6812,
      "▁ರಾಷ್ಟ್ರೀಯ": 6813,
      "▁ईसा": 6814,
      "▁దినోత్స": 6815,
      "▁ಓಟ": 6816,
      "iated": 6817,
      "oro": 6818,
      "http://": 6819,
      "▁[ड": 6820,
      "▁[ल": 6821,
      "▁[ಜ": 6822,
      "▁[ನ": 6823,
      "▁[28": 6824,
      "▁[Re": 6825,
      "▁[రాష్ట్ర": 6826,
      "▁[జన": 6827,
      "▁[గో": 6828,
      "▁[दक्षिण": 6829,
      "▁[पाकिस्तान": 6830,
      "▁[Office": 6831,
      "ened": 6832,
      "▁\"పా": 6833,
      "▁\"జన": 6834,
      "▁\"గో": 6835,
      "▁\"दक्षिण": 6836,
      "▁\"మూస:": 6837,
      "▁\"पाकिस्तान": 6838,
      "ino-": 6839,
      "inema": 6840,
      "anat": 6841,
      "anchi": 6842,
      "tile": 6843,
      "ties/": 6844,
      "th-largest": 6845,
      "rest": 6846,
      "reater": 6847,
      "eri": 6848,
      "arly": 6849,
      "ester": 6850,
      "ofker": 6851,
      "the-world": 6852,
      "](https://hi.wikipedia.org/न": 6853,
      "](https://hi.wikipedia.org/पाकिस्तान": 6854,
      "ederal": 6855,
      "▁(202": 6856,
      "▁(ed.).": 6857,
      "](https://te.wikipedia.org/B": 6858,
      "](https://te.wikipedia.org/G": 6859,
      "](https://te.wikipedia.org/భారతదేశ": 6860,
      "](https://te.wikipedia.org/గో": 6861,
      "](https://te.wikipedia.org/మూస:": 6862,
      "asthan": 6863,
      "ారస్వ": 6864,
      "भारत)": 6865,
      "icts": 6866,
      "▁India*.": 6867,
      "198": 6868,
      "leg": 6869,
      "truction": 6870,
      "▁साल": 6871,
      "▁सम्": 6872,
      "acmill": 6873,
      "▁set": 6874,
      "▁school": 6875,
      "▁prom": 6876,
      "▁popul": 6877,
      "▁political": 6878,
      "ాలె": 6879,
      "▁com": 6880,
      "▁contin": 6881,
      "▁मो": 6882,
      "▁मौ": 6883,
      "▁Ad": 6884,
      "-15": 6885,
      "-138": 6886,
      "ingap": 6887,
      "ref-10": 6888,
      "\n\nಭಾರತ": 6889,
      "\n\nमुख्य": 6890,
      "ager": 6891,
      "note-10": 6892,
      "▁Society": 6893,
      "▁Sabha": 6894,
      "▁fol": 6895,
      "▁four": 6896,
      "స్ట": 6897,
      "స్వాతంత్ర్య": 6898,
      "राम": 6899,
      "▁పర": 6900,
      "▁పండు": 6901,
      "lock": 6902,
      "▁billion": 6903,
      "urk": 6904,
      "urry": 6905,
      "etwork": 6906,
      "](https://kn.wikipedia.org/C": 6907,
      "](https://kn.wikipedia.org/ನ": 6908,
      "▁100": 6909,
      "heel": 6910,
      "▁maint": 6911,
      "](https://hi.wikipedia.org/भारत_के": 6912,
      "FOOTNOTENational_Informatics_Centre2005": 6913,
      "ola": 6914,
      ".\n10": 6915,
      "▁Rec": 6916,
      "▁Routledge": 6917,
      "▁direct": 6918,
      "stor": 6919,
      "▁Te": 6920,
      "▁Temple": 6921,
      "రాన్": 6922,
      "రాస్య": 6923,
      "ourts": 6924,
      "▁Minister": 6925,
      "▁Machine": 6926,
      "▁Michael": 6927,
      "▁would": 6928,
      "▁కే": 6929,
      "▁కోర్": 6930,
      "త్రిక": 6931,
      "క్స్": 6932,
      "క్కి": 6933,
      "105": 6934,
      "▁వె": 6935,
      "▁వంట": 6936,
      "▁\"Sanskrit": 6937,
      "-26": 6938,
      "-28": 6939,
      "▁led": 6940,
      "indhi": 6941,
      "ount": 6942,
      "▁1962": 6943,
      "▁1901": 6944,
      "▁*India": 6945,
      "_की_": 6946,
      "al_T": 6947,
      "ంగో": 6948,
      "▁సముద్ర": 6949,
      "▁సూచ": 6950,
      "▁సౌక": 6951,
      "hailand": 6952,
      "ources": 6953,
      "▁N.": 6954,
      "▁Nicobar": 6955,
      "్రామ": 6956,
      "▁ಸಹ": 6957,
      "bercu": 6958,
      "▁Health": 6959,
      "▁ಮೋದಿ": 6960,
      "▁ಮೂರ": 6961,
      "ండా": 6962,
      "ండీ": 6963,
      "ండ్య": 6964,
      "_in_New": 6965,
      "▁भारत\")": 6966,
      "▁ge": 6967,
      "_A7C": 6968,
      "ರ್ಗ": 6969,
      "ody": 6970,
      "odule": 6971,
      "తాజ్": 6972,
      "నాథ": 6973,
      "269,": 6974,
      "▁ಪಡೆ": 6975,
      "1991": 6976,
      ".[[22": 6977,
      "త్వా": 6978,
      "28)": 6979,
      "287,": 6980,
      "సింది.": 6981,
      "ಗಳೆಂದರೆ": 6982,
      "▁[SAARC": 6983,
      "ained": 6984,
      "▁(సా.శ.16": 6985,
      "135": 6986,
      "ులు?action=edit&redlink=1": 6987,
      "▁అభి": 6988,
      "▁\"Chin": 6989,
      "▁ప్రజా": 6990,
      "ಸ್ವಾ": 6991,
      "ಸ್ಲಾ": 6992,
      "ಸ್ಟ್": 6993,
      "తం?action=edit&redlink=1": 6994,
      "▁Organization": 6995,
      "▁आर्थिक": 6996,
      "ngineering": 6997,
      "పూర్": 6998,
      "▁2022.": 6999,
      "_Pradesh": 7000,
      "ప్రిల్": 7001,
      "▁Univers": 7002,
      "▁ఉంట": 7003,
      "▁ఉత్తర": 7004,
      "▁ಹಿಂದ": 7005,
      "▁original](http://": 7006,
      "▁ಕೆಲ": 7007,
      "▁ಕೇಂದ್ರಾಡಳಿತ": 7008,
      "ajp": 7009,
      "utt": 7010,
      "▁ass": 7011,
      "▁సామా": 7012,
      "వాద": 7013,
      "▁उन": 7014,
      "▁ವರ್ಷ": 7015,
      "▁ವ್ಯಾಪಾರ": 7016,
      "*](https://web.archive.org/web/": 7017,
      "▁ನಾಗರೀಕ": 7018,
      "22.": 7019,
      "2221": 7020,
      "విధ": 7021,
      "ార్ఖండ్": 7022,
      "-691": 7023,
      "క్షరాస్య": 7024,
      "_and_union_territ": 7025,
      "ogri": 7026,
      "2011religion": 7027,
      "काता": 7028,
      "▁ಅಮ": 7029,
      "▁ಅಥವಾ": 7030,
      "▁ಬಲ": 7031,
      "▁ಬಂದ": 7032,
      "iley": 7033,
      "▁इंडिया": 7034,
      "ी](https://hi.wikipedia.org/द": 7035,
      "_March": 7036,
      "ತಿಯ": 7037,
      "▁now": 7038,
      "పుర": 7039,
      "▁నడి": 7040,
      "▁ఇండియా": 7041,
      "ंडोन": 7042,
      "▁areas": 7043,
      "▁राज्यक्षेत्र": 7044,
      "%2C_India": 7045,
      "▁\"New": 7046,
      "▁Ved": 7047,
      "▁विस्त": 7048,
      "▁विदेश": 7049,
      "గుప్": 7050,
      "డుకు": 7051,
      "నేషియా": 7052,
      "ంగాణ": 7053,
      "▁జన": 7054,
      "లియా": 7055,
      "▁ప్రాచ": 7056,
      "▁విభ": 7057,
      "▁వివిధ": 7058,
      "ನ್ನಡ": 7059,
      "ोलकाता": 7060,
      ").\n4": 7061,
      "▁సంఘ": 7062,
      "▁ಆಗ": 7063,
      "▁ಆರಂ": 7064,
      "angered": 7065,
      "ublications/": 7066,
      "class": 7067,
      "ंध्र": 7068,
      "United_Nations": 7069,
      "ंग्रेजी": 7070,
      "ಿಸಿ": 7071,
      "ಿಸಿದ": 7072,
      "▁अन्त": 7073,
      "▁क्षेत्रों": 7074,
      "ameez": 7075,
      "ండిచ్చేరి": 7076,
      "_Goa": 7077,
      "▁नेतृत": 7078,
      "feb": 7079,
      "ಿಯಾ": 7080,
      "Asher2006": 7081,
      "AsherAsher2006": 7082,
      "तेलंग": 7083,
      "▁\"Indus": 7084,
      "svg": 7085,
      "▁\"अंग्रेज़ी": 7086,
      "▁ಇತ": 7087,
      "type": 7088,
      "▁[Kulke": 7089,
      "జీరియా": 7090,
      "ವಿಶ್ವ": 7091,
      "▁ದೊಡ್ಡ": 7092,
      "](https://en.wikipedia.org/Indus": 7093,
      "ంకేతి": 7094,
      "▁देश\")": 7095,
      "▁जनवरी": 7096,
      "వేలీ": 7097,
      "-dis": 7098,
      "हरिया": 7099,
      "ूर्वी": 7100,
      "ervice": 7101,
      "ashmiri": 7102,
      "DwAAQBAJ": 7103,
      "alaysia": 7104,
      "पुरम": 7105,
      "_Force": 7106,
      "▁मेला\"),": 7107,
      "ynth": 7108,
      "ಮಿಝೋ": 7109,
      "–సా.శ.పూ.3": 7110,
      "isease": 7111,
      "िशा": 7112,
      "బియా": 7113,
      "▁agriculture": 7114,
      "▁ಚಿಹ್ನೆ": 7115,
      "ंग्रेज़ी_भाषा": 7116,
      "ukesh": 7117,
      "imf_12": 7118,
      "imf-12)": 7119,
      "డామన్": 7120,
      "ಪಾಯಿ": 7121,
      "▁change": 7122,
      "▁రాష్ట్రపతి": 7123,
      "▁ಪ್ರದೇಶ](https://kn.wikipedia.org/": 7124,
      "▁ಪ್ರದೇಶಗಳು": 7125,
      "▁ಪ್ರದೇಶ\")\n": 7126,
      "-factbook": 7127,
      "data.worldbank.org/": 7128,
      "visions": 7129,
      "▁२०१": 7130,
      "▁play": 7131,
      "త్రిపుర": 7132,
      "▁[Archived](https://web.archive.org/web/20210": 7133,
      "athematics": 7134,
      "▁ಉಗಮ": 7135,
      "▁ಶೇ": 7136,
      "▁population\"))": 7137,
      "_కాల": 7138,
      "_1960": 7139,
      "समिया": 7140,
      "ದ್ದ": 7141,
      "ವಾಗಿದೆ.": 7142,
      "▁emerg": 7143,
      "▁రైల్వే": 7144,
      "ಂಗ್ಲ": 7145,
      "ographical": 7146,
      "_Lanka": 7147,
      "య్యూ": 7148,
      "न्नई": 7149,
      "త్తీస్": 7150,
      "▁ప్రదేశ్](https://te.wikipedia.org/": 7151,
      "ಕಾಶ್ಮೀ": 7152,
      "बंधन": 7153,
      "నాగాలా": 7154,
      "▁पुरालेखित।,": 7155,
      "▁\"జమ్మూ": 7156,
      "ಂಗಾಳ": 7157,
      ".svg.png)": 7158,
      "](https://books.google.com/books?id=3TRtDwAAQBAJ&pg=PA": 7159,
      "ambodia": 7160,
      "▁పాకిస్తాన్": 7161,
      "...]": 7162,
      "unjabi": 7163,
      "▁subcontinent\")": 7164,
      "కోవ": 7165,
      "కోబార్": 7166,
      "](https://te.wikipedia.org/జమ్మూ": 7167,
      "ల్లవ": 7168,
      "1947)": 7169,
      "▁मानसून": 7170,
      "_और_संघ": 7171,
      "▁Force": 7172,
      "local_": 7173,
      "▁युग": 7174,
      "hattis": 7175,
      "रक्षा": 7176,
      "वादी": 7177,
      "_from": 7178,
      "oint": 7179,
      "▁स्वतंत्रता": 7180,
      "▁include": 7181,
      "▁species": 7182,
      "▁People": 7183,
      "chedule": 7184,
      "_के_आधार_पर_भारत_के_राज्यों_की_सूची": 7185,
      "రేబియా": 7186,
      "ಗೋಳ": 7187,
      "టాక్": 7188,
      "ataraj": 7189,
      "▁మాత్ర": 7190,
      "్రిటిష్": 7191,
      "sites/": 7192,
      "चेन्नई": 7193,
      "▁बहुत": 7194,
      "▁house\")": 7195,
      "వెను": 7196,
      "ూచి": 7197,
      "tiger": 7198,
      "భారతదేశ_రాష్ట్రాలు,_కేంద్రపాలిత_ప్రాంత": 7199,
      "national-language": 7200,
      "पीठ": 7201,
      "▁river": 7202,
      "▁Chinese": 7203,
      "ಧಾನಮಂತ್ರಿ": 7204,
      "▁rock": 7205,
      "ಿದ್ದ": 7206,
      "ಿದ್ದು": 7207,
      "ప్పటిక": 7208,
      "Report.pdf)": 7209,
      "documents/": 7210,
      ".htm)": 7211,
      "_house": 7212,
      "ominion": 7213,
      "▁(1,269,": 7214,
      "▁commun": 7215,
      "%E0%B0%": 7216,
      "లేషియా": 7217,
      "arnatic": 7218,
      "▁capita\"))": 7219,
      "losis": 7220,
      "▁మొదల": 7221,
      "Human_Development_Index": 7222,
      "Taj_Mah": 7223,
      "क्सफोर्ड": 7224,
      "▁ಭಾಗ": 7225,
      "▁\"हिन्दी\")": 7226,
      "[[೧೨]](https://kn.wikipedia.org/ಭಾರತ#cite_note-": 7227,
      "▁majority": 7228,
      "▁ವ್ಯವಸ್ಥೆ": 7229,
      "▁निर्माण": 7230,
      "Sharma2007": 7231,
      "ద్యు": 7232,
      "त्रिपुरा": 7233,
      "▁చిత్ర": 7234,
      "ద్వీప్": 7235,
      "▁ఉపఖండ": 7236,
      "ంటుంది.": 7237,
      "▁దేశంలోని": 7238,
      "▁కాంగ్రెసు": 7239,
      "/articleshow/5": 7240,
      "▁occup": 7241,
      "Chennai": 7242,
      "ఆగష్టు": 7243,
      "లక్షద్వీప్": 7244,
      "హాయం:": 7245,
      "ీకరణ": 7246,
      "ోల్‌కా": 7247,
      "ಮಾನ್": 7248,
      "▁increased": 7249,
      "_of_Congress": 7250,
      "al_in_March": 7251,
      "▁ಸರ್ಕಾರ": 7252,
      "▁ಮಿಲಿಯನ್": 7253,
      "▁Wikidata": 7254,
      "▁ಬ್ರಿಟಿ": 7255,
      "మిజోరా": 7256,
      "](https://kn.wikipedia.org/ಭಾರತ#cite_ref-imf_12": 7257,
      "तेलुगू": 7258,
      "▁ಸಿರಿವಂತ": 7259,
      "▁ಪ್ರಪಂಚದ": 7260,
      "lurton199": 7261,
      "▁appro": 7262,
      "ravidian": 7263,
      "elangana": 7264,
      "▁3,287,": 7265,
      "भीमबेट": 7266,
      "cia.gov/": 7267,
      "झारखंड": 7268,
      "ర్యానా": 7269,
      "▁[ఢిల్లీ](https://te.wikipedia.org/ఢిల్లీ": 7270,
      "razil": 7271,
      "టిబెట్": 7272,
      "nclm.nic.in/shared/linkimages/NCL": 7273,
      "Census2011religion": 7274,
      "छत्तीसगढ़": 7275,
      "िंधु": 7276,
      "▁मुख्य": 7277,
      "lothing": 7278,
      "▁widely": 7279,
      "▁ಕ್ರಿ.": 7280,
      "ब्बत": 7281,
      "▁[अंग्रेज़ी](https://hi.wikipedia.org/अंग्रेज़ी_भाषा": 7282,
      "▁ಎನ್.ಡಿ.ಎ": 7283,
      "Front": 7284,
      "IFT": 7285,
      "kZVuDwAAQBAJ&pg=PA": 7286,
      "బడ్డీ": 7287,
      "ేరళ": 7288,
      "▁ओर": 7289,
      "▁कुछ": 7290,
      "్రైస్త": 7291,
      "ండమాన్": 7292,
      "▁(PPP)": 7293,
      "▁adopted": 7294,
      "మెరికా": 7295,
      "ెలవుదిన": 7296,
      "mirates": 7297,
      "olnar": 7298,
      "Home_Affairs": 7299,
      "M50thReport.pdf)": 7300,
      "Tarlo1996": 7301,
      "runei": 7302,
      "च्छ": 7303,
      "తెలంగాణ": 7304,
      "ెన్నై": 7305,
      "ವಣಿಗೆ": 7306,
      "‌మహల్": 7307,
      "▁ಓಟು": 7308,
      "the-world-factbook": 7309,
      "acmillan": 7310,
      "ingapore": 7311,
      "berculosis": 7312,
      "_in_New_Delhi": 7313,
      "తాజ్‌మహల్": 7314,
      "ಸ್ವಾತಂತ್ರ್ಯ": 7315,
      "క్షరాస్యత": 7316,
      "_and_union_territories": 7317,
      "▁ಆರಂಭ": 7318,
      "तेलंगाना": 7319,
      "data.worldbank.org/indicator": 7320,
      "నాగాలాండ్": 7321,
      "](https://te.wikipedia.org/జమ్మూ_కాశ్మీ": 7322,
      "Taj_Mahal_in_March": 7323,
      "[[೧೨]](https://kn.wikipedia.org/ಭಾರತ#cite_note-imf-12)": 7324,
      "ోల్‌కాతా": 7325,
      "भीमबेटका": 7326,
      "nclm.nic.in/shared/linkimages/NCLM50thReport.pdf)": 7327,
      "Taj_Mahal_in_March_2004": 7328,
      ",85": 7329,
      "-H": 7330,
      "-language": 7331,
      "-logo": 7332,
      "/3": 7333,
      "2-1": 7334,
      "2)[[": 7335,
      "312": 7336,
      "3-4": 7337,
      "4-2": 7338,
      "4]](https://en.wikipedia.org/India#cite_note-FOOTNOTE": 7339,
      "96": 7340,
      "93,422": 7341,
      "Ar": 7342,
      "Allchin": 7343,
      "Bangalore": 7344,
      "Constituent": 7345,
      "De": 7346,
      "EN": 7347,
      "For": 7348,
      "Flag": 7349,
      "Hindustan": 7350,
      "Jha": 7351,
      "LD": 7352,
      "Language": 7353,
      "Mumbai": 7354,
      "Monetary": 7355,
      "Ne": 7356,
      "Petraglia": 7357,
      "Wright": 7358,
      "\\*": 7359,
      "_0": 7360,
      "_इ": 7361,
      "_श": 7362,
      "_50": 7363,
      "_77": 7364,
      "_धर्म": 7365,
      "_term": 7366,
      "_industry": 7367,
      "bate": 7368,
      "cod": 7369,
      "caste": 7370,
      "eag": 7371,
      "even": 7372,
      "gul": 7373,
      "men": 7374,
      "mod": 7375,
      "mall": 7376,
      "national_": 7377,
      "nised": 7378,
      "pos": 7379,
      "present": 7380,
      "rban": 7381,
      "tou": 7382,
      "tate": 7383,
      "ui": 7384,
      "ँची": 7385,
      "उप": 7386,
      "एन": 7387,
      "गलु": 7388,
      "टना": 7389,
      "तन": 7390,
      "द्वार": 7391,
      "पार": 7392,
      "भग": 7393,
      "मरी": 7394,
      "रि": 7395,
      "स्व": 7396,
      "ेद": 7397,
      "ेल": 7398,
      "ोला": 7399,
      "–10": 7400,
      "▁औ": 7401,
      "▁ou": 7402,
      "▁भा": 7403,
      "▁vers": 7404,
      "▁40": 7405,
      "▁38": 7406,
      "▁ob": 7407,
      "▁भाग": 7408,
      "▁known": 7409,
      "▁kingdom": 7410,
      "orb": 7411,
      "orse": 7412,
      "](https://id": 7413,
      "▁[Y": 7414,
      "▁[n": 7415,
      "▁[य": 7416,
      "▁[ह": 7417,
      "ene": 7418,
      "enj": 7419,
      "enous": 7420,
      "tegr": 7421,
      "▁\"य": 7422,
      "▁\"ISO": 7423,
      "rew": 7424,
      "er-": 7425,
      "alace": 7426,
      "alk:": 7427,
      "city": 7428,
      "](https://hi.wikipedia.org/दक्षिण": 7429,
      "](https://hi.wikipedia.org/तमिल": 7430,
      "ed,": 7431,
      "edu": 7432,
      "▁काल": 7433,
      "▁कॉंग्रेस": 7434,
      "ital": 7435,
      "and_Census_Commissioner": 7436,
      "▁(b": 7437,
      "▁(2007": 7438,
      "▁(India)": 7439,
      "▁(1):": 7440,
      "्रय": 7441,
      "asht": 7442,
      "भारतीय": 7443,
      "ica": 7444,
      "▁सभा": 7445,
      "▁सित": 7446,
      "▁समाज": 7447,
      "▁inter": 7448,
      "acred": 7449,
      "▁prac": 7450,
      "am\")": 7451,
      "ama_": 7452,
      "▁can": 7453,
      "▁cap": 7454,
      "▁मई": 7455,
      "▁मन": 7456,
      "▁मह": 7457,
      "▁मिल": 7458,
      "▁मशीन": 7459,
      "ustr": 7460,
      "\n\n**": 7461,
      "▁Studies": 7462,
      "vey": 7463,
      "▁based": 7464,
      "url": 7465,
      "uries": 7466,
      "ume": 7467,
      "▁17.": 7468,
      "▁Prin": 7469,
      "▁Policy": 7470,
      "topic": 7471,
      "ily": 7472,
      "▁men": 7473,
      "▁millennium": 7474,
      "▁medium": 7475,
      "ेंगलु": 7476,
      "र्ध": 7477,
      "](https://hi.wikipedia.org/भारत_के_राज्य": 7478,
      "21,0": 7479,
      "्तु": 7480,
      ".\n9": 7481,
      "rocod": 7482,
      "igved": 7483,
      "igenous": 7484,
      "▁Mar": 7485,
      "](https://en.wikipedia.org/India#cite_ref-vatsyayan-lord_433": 7486,
      "▁writ": 7487,
      "▁में,": 7488,
      "▁अभ": 7489,
      "india.com/": 7490,
      "▁Dec": 7491,
      "▁Dance": 7492,
      "emi": 7493,
      "_(भारत)": 7494,
      "▁\"Special:EditPage/Template:": 7495,
      "-25": 7496,
      "▁last": 7497,
      "▁lists": 7498,
      "2022": 7499,
      "ecu": 7500,
      "▁जब": 7501,
      "▁1971": 7502,
      "](https://en.wikipedia.org/Special:EditPage/Template:": 7503,
      "lymp": 7504,
      "▁Ganges": 7505,
      "▁Greek": 7506,
      "▁Economy": 7507,
      "▁द्वीप": 7508,
      "beral": 7509,
      "opland": 7510,
      "upreme": 7511,
      "▁Hindus": 7512,
      "▁east": 7513,
      "115": 7514,
      "▁John": 7515,
      "▁नव": 7516,
      "_Agency": 7517,
      "ablish": 7518,
      "▁2007.": 7519,
      "ell": 7520,
      "1857": 7521,
      "▁[\"World": 7522,
      "_से": 7523,
      "_साम": 7524,
      "▁republic": 7525,
      "1999": 7526,
      "](https://en.wikipedia.org/India#CITEREFM": 7527,
      "40px-": 7528,
      "akers": 7529,
      "▁[Singh": 7530,
      "▁व्या": 7531,
      "▁\"Climate": 7532,
      "osa": 7533,
      "](https://en.wikipedia.org/China": 7534,
      "](https://en.wikipedia.org/Central_": 7535,
      "epublic": 7536,
      "▁Lank": 7537,
      "▁2023.": 7538,
      "▁[China": 7539,
      "-9](https://en.wikipedia.org/Special:BookSources/978-0": 7540,
      "▁\"Ministry": 7541,
      "ajasthan": 7542,
      "ternet": 7543,
      "▁गई": 7544,
      "▁talk:": 7545,
      "ountries/": 7546,
      "rchitecture": 7547,
      "ysis": 7548,
      "](https://en.wikipedia.org/Ministry_of_": 7549,
      "undarb": 7550,
      "ड़िया": 7551,
      "▁become": 7552,
      "▁शहर": 7553,
      "▁[मध्य": 7554,
      "ore,": 7555,
      "orea": 7556,
      "]](https://hi.wikipedia.org/भारत#cite_note-pib": 7557,
      "▁ले": 7558,
      "▁लिये": 7559,
      "_के_अन": 7560,
      "म्भ": 7561,
      "45)": 7562,
      "48)": 7563,
      "▁\"Template": 7564,
      "संधान": 7565,
      "त्तरी": 7566,
      "](https://en.wikipedia.org/Template_": 7567,
      "▁\"Delhi": 7568,
      "▁ancient": 7569,
      "398": 7570,
      "_Times": 7571,
      "▁31": 7572,
      "▁V.": 7573,
      "▁Vedic": 7574,
      "▁यूनिवर्सिट": 7575,
      "](https://en.wikipedia.org/Delhi": 7576,
      "censusindia": 7577,
      "angetic": 7578,
      "▁[Tamil": 7579,
      "▁\"Special:BookSources/978-0-521": 7580,
      "_power": 7581,
      "1,93,422": 7582,
      "_River": 7583,
      "केन्द्र": 7584,
      "_Economic": 7585,
      "▁[Routledge": 7586,
      "▁[History": 7587,
      "▁\"Routledge": 7588,
      "](https://en.wikipedia.org/Routledge": 7589,
      "▁2014](https://en.wikipedia.org/India#CITEREF": 7590,
      "▁tea": 7591,
      "▁जनजाति": 7592,
      "_130": 7593,
      "▁(2017).": 7594,
      "alayal": 7595,
      "▁राजधान": 7596,
      "▁centuries": 7597,
      "article/": 7598,
      "_Union": 7599,
      "रुणा": 7600,
      "talk:": 7601,
      "arliamentofindia": 7602,
      "urrency": 7603,
      "_Organisation": 7604,
      "▁2022.\n": 7605,
      "a/a": 7606,
      "\").\n4": 7607,
      ".png)\n\n": 7608,
      "▁coefficient": 7609,
      "▁2020.": 7610,
      "▁numbers": 7611,
      "▁[t](https://en.wikipedia.org/Template_": 7612,
      "▁[e](https://en.wikipedia.org/Special:EditPage/Template:": 7613,
      "ोर्ट": 7614,
      "▁[v](https://en.wikipedia.org/Template:": 7615,
      "▁State": 7616,
      "▁1,210": 7617,
      "▁Buddha": 7618,
      "▁\"Registrar": 7619,
      "▁upper": 7620,
      "Environment": 7621,
      "▁refor": 7622,
      "▁milk": 7623,
      "▁military": 7624,
      "▁mathematics": 7625,
      "](https://en.wikipedia.org/List_of_countries_by_": 7626,
      "▁साम्राज्य\")": 7627,
      "nergy": 7628,
      "ield": 7629,
      "iteracy": 7630,
      "धुनिक": 7631,
      "▁Conservation": 7632,
      "IMFWEO.IN-2": 7633,
      "business/india-": 7634,
      "▁(2018),": 7635,
      "▁Francis": 7636,
      "ternational_Monetary": 7637,
      "ibetan": 7638,
      "aranth": 7639,
      "forcement": 7640,
      "rishnan": 7641,
      "imachal": 7642,
      "_and_Development": 7643,
      "▁India](https://en.wikipedia.org/Government_of_India": 7644,
      "igration": 7645,
      "▁employed": 7646,
      "_देशों_की_सूची": 7647,
      "reedom": 7648,
      "ताजमह": 7649,
      "▁1994](https://en.wikipedia.org/India#CITEREF": 7650,
      "emocracy": 7651,
      "first": 7652,
      "▁Games\")": 7653,
      "क्षरता": 7654,
      "▁engineering": 7655,
      "limate_": 7656,
      "▁village": 7657,
      "▁स्थाप": 7658,
      "gistrar_General_and_Census_Commissioner": 7659,
      "▁[पाकिस्तान](https://hi.wikipedia.org/पाकिस्तान": 7660,
      "PetragliaAllchin": 7661,
      "Wright2010": 7662,
      "touch": 7663,
      "▁(2007).": 7664,
      "ेंगलुरु": 7665,
      "21,01,93,422": 7666,
      "_साम्राज्य": 7667,
      "▁[China](https://en.wikipedia.org/China": 7668,
      "undarbans": 7669,
      "_के_अनुसार": 7670,
      "▁यूनिवर्सिटी": 7671,
      "▁[Routledge](https://en.wikipedia.org/Routledge": 7672,
      "▁\"Routledge\").": 7673,
      "▁[t](https://en.wikipedia.org/Template_talk:": 7674,
      "ternational_Monetary_Fund": 7675,
      "gistrar_General_and_Census_Commissioner_of_India": 7676,
      "%3": 7677,
      "*](http://": 7678,
      ",4": 7679,
      ",24": 7680,
      "-O": 7681,
      "-R": 7682,
      "-li": 7683,
      "-asia": 7684,
      ".\"": 7685,
      ".und": 7686,
      ".tool": 7687,
      "/in": 7688,
      "2.\n": 7689,
      "2-10": 7690,
      "3-": 7691,
      "4-3": 7692,
      "418": 7693,
      "5/": 7694,
      "5]](https://en.wikipedia.org/India#cite_note-": 7695,
      "5-3": 7696,
      "528": 7697,
      "61": 7698,
      "623": 7699,
      "700": 7700,
      "8]](https://en.wikipedia.org/India#cite_note-FOOTNOTE": 7701,
      "9-1": 7702,
      "AD": 7703,
      "DD": 7704,
      "David": 7705,
      "KI": 7706,
      "MD": 7707,
      "MAAJ": 7708,
      "Nav": 7709,
      "Political_": 7710,
      "SN": 7711,
      "South_Asia": 7712,
      "Th": 7713,
      "Ze": 7714,
      "_అ": 7715,
      "_ఎ": 7716,
      "_ర": 7717,
      "_10": 7718,
      "_राज्य": 7719,
      "_యు": 7720,
      "_రాజ": 7721,
      "_एशिया": 7722,
      "_శాస్త్ర": 7723,
      "ather": 7724,
      "cs": 7725,
      "content": 7726,
      "eld": 7727,
      "fun": 7728,
      "gu": 7729,
      "government": 7730,
      "hri": 7731,
      "io": 7732,
      "ji": 7733,
      "lc": 7734,
      "mas": 7735,
      "m=1": 7736,
      "oz": 7737,
      "po": 7738,
      "system": 7739,
      "tt": 7740,
      "tw": 7741,
      "uin": 7742,
      "upee": 7743,
      "via": 7744,
      "vin": 7745,
      "wa": 7746,
      "xim": 7747,
      "yr": 7748,
      "ंतर": 7749,
      "ईल": 7750,
      "ख्य": 7751,
      "घर": 7752,
      "चें": 7753,
      "जें": 7754,
      "तम": 7755,
      "तुल": 7756,
      "थियार": 7757,
      "फा": 7758,
      "बा": 7759,
      "मर": 7760,
      "मार": 7761,
      "वेश": 7762,
      "वैद": 7763,
      "शन": 7764,
      "िबंध": 7765,
      "ृष": 7766,
      "ृष्ण": 7767,
      "ఒలి": 7768,
      "కూ": 7769,
      "క్ర": 7770,
      "గే": 7771,
      "గ్ర": 7772,
      "గతి": 7773,
      "జు": 7774,
      "ఞాన": 7775,
      "టం": 7776,
      "టన్": 7777,
      "పో": 7778,
      "పచ్చ": 7779,
      "మ్య": 7780,
      "యి.": 7781,
      "యాలో": 7782,
      "లె": 7783,
      "వై": 7784,
      "వ్": 7785,
      "వత్స": 7786,
      "వృద్ధి": 7787,
      "శ్రమ": 7788,
      "సీ": 7789,
      "స్రా": 7790,
      "హక": 7791,
      "హన": 7792,
      "ాంగ": 7793,
      "ీఠ": 7794,
      "ువు": 7795,
      "ూపా": 7796,
      "ృష్": 7797,
      "ెహ": 7798,
      "ెట్": 7799,
      "ేన": 7800,
      "ైద": 7801,
      "ైగా": 7802,
      "ొయ": 7803,
      "–19": 7804,
      "▁,": 7805,
      "▁X": 7806,
      "▁५": 7807,
      "▁ఘ": 7808,
      "▁web": 7809,
      "▁ला": 7810,
      "▁est": 7811,
      "▁జా": 7812,
      "▁7.": 7813,
      "▁4.": 7814,
      "▁education": 7815,
      "iary": 7816,
      "orial": 7817,
      "pen": 7818,
      "▁[గ": 7819,
      "▁[కు": 7820,
      "▁[प्र": 7821,
      "▁[పా": 7822,
      "▁[దక్షిణ": 7823,
      "▁[హిందూ": 7824,
      "▁[तमिल": 7825,
      "▁[పాకిస్తాన్": 7826,
      "▁[ముంబై": 7827,
      "▁[गुजरात": 7828,
      "enter": 7829,
      "▁\"ड": 7830,
      "▁\"ह": 7831,
      "▁\"గ": 7832,
      "▁\"రాష్ట్ర": 7833,
      "▁\"దక్షిణ": 7834,
      "▁\"మూస": 7835,
      "▁\"హిందూ": 7836,
      "▁\"పాకిస్తాన్": 7837,
      "▁\"ప్రపంచ": 7838,
      "▁\"ముంబై": 7839,
      "▁\"వర్గం:Harv": 7840,
      "▁\"ప్రత్యేక:EditPage/మూస:": 7841,
      "\")+": 7842,
      "\")1": 7843,
      "on,": 7844,
      "anada": 7845,
      "Intelligence": 7846,
      "till": 7847,
      "](https://en.wikipedia.org/19": 7848,
      "rely": 7849,
      "retary": 7850,
      "ergy": 7851,
      "arity": 7852,
      "arrow": 7853,
      "ारो": 7854,
      "ारम्भ": 7855,
      "cir": 7856,
      "](https://hi.wikipedia.org/ग": 7857,
      "](https://hi.wikipedia.org/द": 7858,
      "▁कम": 7859,
      "▁किन": 7860,
      "itation": 7861,
      "▁(J": 7862,
      "▁(भारत": 7863,
      "▁often": 7864,
      "ought": 7865,
      "](https://te.wikipedia.org/హ": 7866,
      "](https://te.wikipedia.org/మూస": 7867,
      "](https://te.wikipedia.org/జన": 7868,
      "](https://te.wikipedia.org/భారతదేశ_": 7869,
      "](https://te.wikipedia.org/వర్గం:Harv": 7870,
      "](https://te.wikipedia.org/ప్రత్యేక:EditPage/మూస:": 7871,
      "्रह": 7872,
      "asu": 7873,
      "ices": 7874,
      "▁India.[[": 7875,
      "▁India\").[[": 7876,
      "lect": 7877,
      "▁सह": 7878,
      "▁स्तर": 7879,
      "▁सभ्यता": 7880,
      "not": 7881,
      "▁siz": 7882,
      "▁script": 7883,
      "▁served": 7884,
      "att": 7885,
      "atna": 7886,
      "▁poll": 7887,
      "amaj": 7888,
      "▁cul": 7889,
      "▁central": 7890,
      "ad-": 7891,
      "adakh": 7892,
      "▁Asher": 7893,
      "▁After": 7894,
      "్యాలె": 7895,
      "▁Social": 7896,
      "▁festi": 7897,
      "[[18": 7898,
      "▁Col": 7899,
      "▁Comm": 7900,
      "▁Country": 7901,
      "స్వా": 7902,
      "దేశాలు": 7903,
      "velo": 7904,
      "▁पू": 7905,
      "▁పొ": 7906,
      "▁పద్ధ": 7907,
      "▁పైగా": 7908,
      "lose": 7909,
      "library": 7910,
      "well": 7911,
      "\"),[": 7912,
      "hek": 7913,
      "న్ను": 7914,
      "ilk": 7915,
      "▁mid": 7916,
      "▁middle": 7917,
      "ర్ద": 7918,
      "ర్ష": 7919,
      "र्ट": 7920,
      "cha": 7921,
      "FOOTNOTEWolpert2003": 7922,
      "्त्र": 7923,
      "▁air": 7924,
      ".\n14": 7925,
      ".\n36": 7926,
      ".\n38": 7927,
      "rove": 7928,
      "▁Ram": 7929,
      "fied": 7930,
      "field": 7931,
      "una": 7932,
      "unle": 7933,
      "▁Tri": 7934,
      "▁Trade": 7935,
      "రాజ్యం": 7936,
      "rak": 7937,
      "ratic": 7938,
      "▁where": 7939,
      "లోయ": 7940,
      "▁కేంద్ర": 7941,
      "▁కంపెనీ": 7942,
      "▁25.": 7943,
      "▁अमेर": 7944,
      "▁अलग": 7945,
      "▁अर्थव्यवस्था": 7946,
      "▁Book": 7947,
      "▁Bangalore": 7948,
      "▁Bengali": 7949,
      "▁Day": 7950,
      "emen": 7951,
      "ాలుగా": 7952,
      "క్తి": 7953,
      "107": 7954,
      "age.": 7955,
      "agement": 7956,
      "▁వై": 7957,
      "-23": 7958,
      "वियत": 7959,
      "▁जय": 7960,
      "▁जिन": 7961,
      "ayana": 7962,
      "aylight": 7963,
      "ayashi": 7964,
      "ालैंड": 7965,
      "ldlife": 7966,
      "al_P": 7967,
      "▁సమా": 7968,
      "▁సర్వ": 7969,
      "▁సుల్తాన": 7970,
      "▁Emer": 7971,
      "▁देव": 7972,
      "▁दोन": 7973,
      "▁Ne": 7974,
      "▁Nuclear": 7975,
      ".in)\n-": 7976,
      "opal": 7977,
      "▁Home": 7978,
      "▁even": 7979,
      "▁epic": 7980,
      "▁बंगाल": 7981,
      "▁बड़े": 7982,
      "-45": 7983,
      "-459": 7984,
      "_in_the": 7985,
      "forge": 7986,
      "▁प्रधानमंत्री": 7987,
      "▁global": 7988,
      "▁growing": 7989,
      "भाजन": 7990,
      "-39": 7991,
      "-345": 7992,
      "-349": 7993,
      "▁చర్చ:": 7994,
      "▁सेवा": 7995,
      "▁Region": 7996,
      "_Air": 7997,
      "_Arm": 7998,
      "తాక": 7999,
      "abel": 8000,
      "నాట": 8001,
      "263": 8002,
      "తి](https://te.wikipedia.org/": 8003,
      "▁काम": 8004,
      "ensive": 8005,
      "▁religions": 8006,
      ".[[2": 8007,
      "▁nations": 8008,
      "280": 8009,
      "40.": 8010,
      "15/": 8011,
      "▁(సా.శ.17": 8012,
      "13.": 8013,
      "–సా.శ.14": 8014,
      "–సా.శ.1947)": 8015,
      "▁అను": 8016,
      "▁व्यवस्था": 8017,
      "ishers": 8018,
      "ucture": 8019,
      "ిక,": 8020,
      "▁Out": 8021,
      "osi": 8022,
      "AAMAAJ": 8023,
      "▁आक": 8024,
      "▁आद": 8025,
      "▁Indians": 8026,
      ".jpg)\n\n[": 8027,
      "23%": 8028,
      "ంచింది.": 8029,
      "కుపచ్చ": 8030,
      "](https://te.wikipedia.org/భారతదేశం#CITEREF": 8031,
      "▁West": 8032,
      "▁Law": 8033,
      "▁London": 8034,
      "338": 8035,
      "▁[Craven": 8036,
      "▁Asia:": 8037,
      "_Pl": 8038,
      "ింది": 8039,
      "▁ఆకుపచ్చ": 8040,
      "▁originally": 8041,
      "35.": 8042,
      "353": 8043,
      "▁rural": 8044,
      "▁రే": 8045,
      "మాతర": 8046,
      "మాబాద్": 8047,
      "▁परि": 8048,
      "-7mar": 8049,
      "రుపు": 8050,
      "రుగు": 8051,
      "*](https://web.archive.org/web/201": 8052,
      "▁being": 8053,
      "alls": 8054,
      "allav": 8055,
      "▁शा": 8056,
      "earning": 8057,
      "▁संस्थान": 8058,
      "](https://hi.wikipedia.org/भारत#cite_ref-pib": 8059,
      "](https://hi.wikipedia.org/भारत#cite_ref-langoff": 8060,
      "]](https://hi.wikipedia.org/भारत#cite_note-langoff-1": 8061,
      "ी](https://hi.wikipedia.org/म": 8062,
      "ियन": 8063,
      "sey": 8064,
      "▁\"Ge": 8065,
      "hinese": 8066,
      "सां": 8067,
      "▁\"Tamil": 8068,
      "संबर": 8069,
      "▁నది": 8070,
      "▁develo": 8071,
      "ublishers": 8072,
      "त्ति": 8073,
      "మించ": 8074,
      "▁रक्षा": 8075,
      "ismatch": 8076,
      "▁[Pakistan": 8077,
      "▁తన": 8078,
      "issions": 8079,
      "profile": 8080,
      "kee": 8081,
      "▁\"En": 8082,
      "▁any": 8083,
      "29)": 8084,
      "](https://en.wikipedia.org/En": 8085,
      "articles": 8086,
      "ం](https://te.wikipedia.org/అ": 8087,
      "ం](https://te.wikipedia.org/క": 8088,
      "ians": 8089,
      "%2C_S": 8090,
      "जापान": 8091,
      "ంబంధ": 8092,
      "▁\"मध्य": 8093,
      "▁2011](https://en.wikipedia.org/India#CITEREF": 8094,
      "▁Vol": 8095,
      "గువ": 8096,
      "ompan": 8097,
      "ompany": 8098,
      "▁trade": 8099,
      "हाँ": 8100,
      "▁[![The": 8101,
      "▁[Delhi": 8102,
      "ोली": 8103,
      "▁సంస్థ": 8104,
      "▁సంవత్స": 8105,
      "డియా": 8106,
      ".nic.in)\n-": 8107,
      "](https://hi.wikipedia.org/मध्य": 8108,
      "general": 8109,
      "▁79.": 8110,
      "ame=": 8111,
      "](https://en.wikipedia.org/Special:BookSources/978-0-521": 8112,
      "ట్లు": 8113,
      "▁1997": 8114,
      "_చర్చ:": 8115,
      "▁\"మధ్య": 8116,
      "▁ఎన్నిక": 8117,
      "▁ఎన్ను": 8118,
      "▁[మధ్య": 8119,
      "▁(సా.శ.పూ.1200": 8120,
      "amese": 8121,
      "▁గణ": 8122,
      "34238": 8123,
      "](https://te.wikipedia.org/మధ్య": 8124,
      "ohenj": 8125,
      "\n\n[![": 8126,
      "▁[Hindi": 8127,
      "_dance": 8128,
      "द्यालय": 8129,
      "arlung": 8130,
      "▁uni": 8131,
      "]](https://te.wikipedia.org/భారతదేశం#cite_note-india.gov.in": 8132,
      "_సంగీతం": 8133,
      "▁[Indo-": 8134,
      "▁[Ludden": 8135,
      "ారిగా": 8136,
      "गुप्त": 8137,
      "_Univers": 8138,
      "▁whose": 8139,
      "నాయక": 8140,
      "▁notation": 8141,
      "హాస": 8142,
      "▁([help](https://te.wikipedia.org/వర్గం:Harv": 8143,
      "pura": 8144,
      "దావరి": 8145,
      "2014-p": 8146,
      "▁కూడిన": 8147,
      "▁plain": 8148,
      "▁CITEREFStein1998": 8149,
      "▁CITEREFSingh2009": 8150,
      "▁నిర్వ": 8151,
      "▁స్థా": 8152,
      "orities/": 8153,
      "](https://hi.wikipedia.org/पंजाब": 8154,
      "](https://hi.wikipedia.org/पश्चिम": 8155,
      "Stein1998),": 8156,
      "Singh2009),": 8157,
      "ों_की_सूची?action=edit&redlink=1": 8158,
      "son2014-p": 8159,
      "ోర్చు": 8160,
      "▁निभा": 8161,
      "ారు.\n\n": 8162,
      "oorkee": 8163,
      "శాఖ": 8164,
      "tected": 8165,
      "usiness-": 8166,
      "KulkeRothermund2016": 8167,
      "▁[జమ్మూ": 8168,
      "▁పాత్ర": 8169,
      "](https://hi.wikipedia.org/भारत#CITEREFStein1998),": 8170,
      "](https://hi.wikipedia.org/भारत#CITEREFSingh2009),": 8171,
      "▁[UTC": 8172,
      "glom": 8173,
      "ually": 8174,
      "▁\"చైనా": 8175,
      "▁2009](https://hi.wikipedia.org/भारत#CITEREFSingh2009),": 8176,
      "▁century,": 8177,
      "▁ఒకటి": 8178,
      ",977": 8179,
      "_War": 8180,
      "](https://doi.org/10.10": 8181,
      "జ్ఞాన": 8182,
      "▁थे": 8183,
      "▁[t](https://te.wikipedia.org/మూస": 8184,
      "▁पाकिस्तान": 8185,
      "▁These": 8186,
      "122]](https://hi.wikipedia.org/भारत#cite_note-langoff-1": 8187,
      "-India-": 8188,
      "▁[e](https://te.wikipedia.org/ప్రత్యేక:EditPage/మూస:": 8189,
      "2001),": 8190,
      "▁उपमहाद्वीप": 8191,
      "11934238": 8192,
      "कालीन": 8193,
      "▁[v](https://te.wikipedia.org/మూస:": 8194,
      "▁speakers": 8195,
      "▁मंदिर\")": 8196,
      "/articles/": 8197,
      "▁Short": 8198,
      "नागालैंड": 8199,
      "▁మార్గాలు": 8200,
      "धीरे": 8201,
      "ropped": 8202,
      "dira": 8203,
      "రోపా": 8204,
      "▁cities": 8205,
      "▁భారతదేశానికి": 8206,
      "ilgir": 8207,
      "▁మతము\")": 8208,
      "▁మతము\"),": 8209,
      "▁early": 8210,
      "▁2008](https://en.wikipedia.org/India#CITEREF": 8211,
      "athakali": 8212,
      "ause": 8213,
      "रोहर": 8214,
      "lectri": 8215,
      "▁Art": 8216,
      "emocratic": 8217,
      "▁वर्षों": 8218,
      "d/d": 8219,
      "ీనంలో": 8220,
      "▁According": 8221,
      "▁ప్రపంచంలో": 8222,
      "▁ప్రభుత్వ": 8223,
      "▁ప్రభుత్వం": 8224,
      "ivision": 8225,
      "▁Environmental": 8226,
      "▁క్రీడలు": 8227,
      "Ludden2014": 8228,
      "▁Africa": 8229,
      "▁transm": 8230,
      "▁మొదటి": 8231,
      "union_territory": 8232,
      "Convert": 8233,
      "pectancy": 8234,
      "▁(2018).": 8235,
      "Library_of_Congress": 8236,
      "riage": 8237,
      "▁lower": 8238,
      "స్లామాబాద్": 8239,
      "▁पार्टी": 8240,
      "▁పాలన": 8241,
      "▁కార్య": 8242,
      "▁కారణంగా": 8243,
      "▁కలిగి": 8244,
      "ांति": 8245,
      "anorama": 8246,
      "_Programme": 8247,
      "default": 8248,
      "▁1998](https://hi.wikipedia.org/भारत#CITEREFStein1998),": 8249,
      "▁सिनेमा\"),": 8250,
      "lackb": 8251,
      "ांधी": 8252,
      "శోకుడు": 8253,
      "itzel": 8254,
      "▁दृश्य": 8255,
      "_Assembly": 8256,
      "▁జరిగిన": 8257,
      "o-daro": 8258,
      "rajbhasha": 8259,
      "▁Before": 8260,
      "▁[భారతదేశంలో": 8261,
      "▁(2006).": 8262,
      "▁होती": 8263,
      "▁అనేక": 8264,
      "▁ఎక్కువగా": 8265,
      "▁भूमिका": 8266,
      "awaharlal": 8267,
      "▁caused": 8268,
      "emographics": 8269,
      "▁दिसंबर": 8270,
      "undamental": 8271,
      "प्राचीन": 8272,
      "AGE": 8273,
      "cogni": 8274,
      "्लेट": 8275,
      "▁oldest": 8276,
      "▁వారసత్వ": 8277,
      "▁ప్రస్తుతం": 8278,
      "నుమలు": 8279,
      "▁2025.\n": 8280,
      "a_dynasty": 8281,
      "▁రోడ్": 8282,
      "▁తరువాత": 8283,
      "▁బెంగాల్": 8284,
      "-report-": 8285,
      "ంపిక్": 8286,
      "▁Minorities,": 8287,
      "](https://en.wikipedia.org/Mughal_Empire": 8288,
      "हित्य": 8289,
      "ेघालय": 8290,
      "ittances": 8291,
      "▁[India](https://en.wikipedia.org/India)": 8292,
      "hārata": 8293,
      "hdr.und": 8294,
      "ంస్కృతం": 8295,
      "▁దినోత్సవ": 8296,
      "▁\"पाकिस्तान\")": 8297,
      "▁వెబ్": 8298,
      "▁సౌకర్య": 8299,
      "ండీగఢ్": 8300,
      "▁అభివృద్ధి": 8301,
      "▁Universal": 8302,
      "▁నడిపించ": 8303,
      "గుప్త": 8304,
      "▁नेतृत्व": 8305,
      "▁emerged": 8306,
      "hattisgarh": 8307,
      "sites/default": 8308,
      "భారతదేశ_రాష్ట్రాలు,_కేంద్రపాలిత_ప్రాంతాలు": 8309,
      "cia.gov/the-world-factbook": 8310,
      "_and_union_territories_of_India": 8311,
      "data.worldbank.org/indicator/S": 8312,
      "▁version": 8313,
      "ecutive": 8314,
      "beralisation": 8315,
      "रुणाचल": 8316,
      ".toolforge": 8317,
      "Davidson2014-p": 8318,
      "चेंज": 8319,
      "वैदिक": 8320,
      "िबंधीय": 8321,
      "ృష్ణా": 8322,
      "▁establish": 8323,
      "▁Asher,": 8324,
      "-7mar2011": 8325,
      "](https://hi.wikipedia.org/भारत#cite_ref-langoff_130": 8326,
      "▁(సా.శ.పూ.1200–సా.శ.పూ.": 8327,
      "ohenjo-daro": 8328,
      "▁([help](https://te.wikipedia.org/వర్గం:Harv_and_Sfn_template_errors": 8329,
      "ోర్చుగ": 8330,
      "▁[t](https://te.wikipedia.org/మూస_చర్చ:": 8331,
      "122]](https://hi.wikipedia.org/भारत#cite_note-langoff-130)": 8332,
      "11934238p": 8333,
      "hdr.undp": 8334,
      "sites/default/files/": 8335,
      ".toolforge.org/": 8336,
      "%7C": 8337,
      "%7c": 8338,
      ")[": 8339,
      "*),": 8340,
      ",PPP": 8341,
      "-[": 8342,
      "-w": 8343,
      "-no": 8344,
      "-economy": 8345,
      ".P": 8346,
      ".ರ": 8347,
      ".**": 8348,
      ".JPG": 8349,
      "/).": 8350,
      "0–": 8351,
      "1st": 8352,
      "1-2": 8353,
      "27.": 8354,
      "29.": 8355,
      "2-1)": 8356,
      "3+": 8357,
      "3-3": 8358,
      "317": 8359,
      "37.": 8360,
      "3)[[": 8361,
      "4-0": 8362,
      "4121": 8363,
      "68.": 8364,
      "72": 8365,
      "7-1": 8366,
      "7)[[": 8367,
      "7%2F": 8368,
      "8,": 8369,
      "9-6": 8370,
      ";\n": 8371,
      "BI": 8372,
      "E_": 8373,
      "Emb": 8374,
      "Ge": 8375,
      "Gum": 8376,
      "Gil": 8377,
      "Gangetic": 8378,
      "HQ": 8379,
      "Jana": 8380,
      "K:": 8381,
      "PT": 8382,
      "Pe": 8383,
      "Park": 8384,
      "Raj": 8385,
      "Shanghai": 8386,
      "Sanchi": 8387,
      "VII": 8388,
      "Yum": 8389,
      "_&": 8390,
      "_2011": 8391,
      "_39": 8392,
      "_34": 8393,
      "_2008": 8394,
      "_ಭಾರತದ_": 8395,
      "_time": 8396,
      "_history": 8397,
      "_ಸಾ": 8398,
      "aver": 8399,
      "atic": 8400,
      "audi": 8401,
      "bd": 8402,
      "bit": 8403,
      "bird": 8404,
      "cut": 8405,
      "ctive": 8406,
      "dministrative": 8407,
      "digenous": 8408,
      "eci": 8409,
      "egh": 8410,
      "fer": 8411,
      "fos": 8412,
      "files/": 8413,
      "hl": 8414,
      "hindi": 8415,
      "iti": 8416,
      "jha": 8417,
      "jayan": 8418,
      "lé": 8419,
      "mand": 8420,
      "more": 8421,
      "music": 8422,
      "ns": 8423,
      "nu": 8424,
      "oes": 8425,
      "ole": 8426,
      "ocal": 8427,
      "run": 8428,
      "rance": 8429,
      "sol": 8430,
      "search": 8431,
      "uff": 8432,
      "uture": 8433,
      "voy": 8434,
      "went": 8435,
      "wat": 8436,
      "yas": 8437,
      "ypr": 8438,
      "°N": 8439,
      "°E﻿": 8440,
      "āgar": 8441,
      "अरब": 8442,
      "इन": 8443,
      "ईद": 8444,
      "ऍथ": 8445,
      "ऑक्सफोर्ड": 8446,
      "ओआई": 8447,
      "ख़": 8448,
      "गध": 8449,
      "जल": 8450,
      "जपा": 8451,
      "जपुरी": 8452,
      "जिस्ट": 8453,
      "ताल": 8454,
      "थम": 8455,
      "थल": 8456,
      "दल": 8457,
      "दान": 8458,
      "नोल": 8459,
      "न्तर": 8460,
      "फ्रां": 8461,
      "बी": 8462,
      "बू": 8463,
      "बार": 8464,
      "मत": 8465,
      "यपुर": 8466,
      "रस": 8467,
      "ल्ल": 8468,
      "शत": 8469,
      "शोक": 8470,
      "हम": 8471,
      "हें": 8472,
      "ाक": 8473,
      "ुरा": 8474,
      "ुम्ब": 8475,
      "ूबर": 8476,
      "ेक": 8477,
      "ॉग": 8478,
      "५७": 8479,
      "ಂಕ": 8480,
      "ಂಖ": 8481,
      "ಂಚ": 8482,
      "ಂಕಾ": 8483,
      "ಅರು": 8484,
      "ಅಂಡ": 8485,
      "ಆಂಧ": 8486,
      "ಆಂಗ್ಲ": 8487,
      "ಇಂದ": 8488,
      "ಇತಿಹಾಸ": 8489,
      "ಇಸ್ಲಾ": 8490,
      "ಉಪ": 8491,
      "ಉರ್": 8492,
      "ಎನ್.": 8493,
      "ಒಡಿ": 8494,
      "ಒರಿಯಾ": 8495,
      "ಕೀ": 8496,
      "ಖನ್": 8497,
      "ಗಾ": 8498,
      "ಘಲ್": 8499,
      "ಘಾಲಯ": 8500,
      "ಚೇ": 8501,
      "ಛತ್ತ": 8502,
      "ಜ್": 8503,
      "ಞಾನ": 8504,
      "ಟಕ": 8505,
      "ಠಿ": 8506,
      "ಡಾ": 8507,
      "ಡೀ": 8508,
      "ಡೊ": 8509,
      "ಡೋಗ": 8510,
      "ತಾನ": 8511,
      "ತ್ವ": 8512,
      "ತರಂ": 8513,
      "ತಟದ": 8514,
      "ತಾಂಶ": 8515,
      "ಥಮ": 8516,
      "ಥಾರ್": 8517,
      "ಥಿಲಿ": 8518,
      "ದೀಯ": 8519,
      "ದಕ್ಷಿಣ": 8520,
      "ದಖನ್": 8521,
      "ಧೀ": 8522,
      "ಧಂಖ": 8523,
      "ನ:": 8524,
      "ನು": 8525,
      "ಪೂ": 8526,
      "ಪ್ತ": 8527,
      "ಪದಿ": 8528,
      "ಪಟ್ಟ": 8529,
      "ಪಶ್ಚಿಮ": 8530,
      "ಬಾರ್": 8531,
      "ಭರತ": 8532,
      "ಮಾರ್": 8533,
      "ಮೇವ": 8534,
      "ಯಮು": 8535,
      "ಯತೆ": 8536,
      "ಯೋಗ": 8537,
      "ರದ": 8538,
      "ರ\")\n": 8539,
      "ರೆಯ": 8540,
      "ರಷ್ಯಾ": 8541,
      "ರೋಕ್": 8542,
      "ಲಾರ": 8543,
      "ಲಯಾ": 8544,
      "ಲಂಕಾ": 8545,
      "ಲಡಾ": 8546,
      "ಳಂ": 8547,
      "ಳಗ": 8548,
      "ಳೆಯ": 8549,
      "ವ್": 8550,
      "ವಂದ": 8551,
      "ವದೆಹಲಿ": 8552,
      "ವರ್ಷ": 8553,
      "ವೆಂದರೆ": 8554,
      "ಶ್ರೀ": 8555,
      "ಸಭಾ": 8556,
      "ಸ್ತಾನ": 8557,
      "ಸಾರ್ವತ್ರಿಕ": 8558,
      "ಹರಿಯಾ": 8559,
      "ಾಯ": 8560,
      "ಾಲಿ": 8561,
      "ಾಚಲ": 8562,
      "ಿ](https://kn.wikipedia.org/": 8563,
      "ಿರಾ": 8564,
      "ಿಪು": 8565,
      "ಿಹಾರ": 8566,
      "ೀಗಢ": 8567,
      "ುಶ": 8568,
      "ು](https://kn.wikipedia.org/": 8569,
      "ುಗು": 8570,
      "ೃಷ್": 8571,
      "ೆಂಗಾ": 8572,
      "ೆರಿಕ": 8573,
      "ೆಂಗಳೂರು": 8574,
      "ೇಘಾಲಯ": 8575,
      "ೈಥಿಲಿ": 8576,
      "ೊಂಕ": 8577,
      "ೊಘಲ್": 8578,
      "ೋಡೊ": 8579,
      "ೋಬಾರ್": 8580,
      "ೌರ್ಯ": 8581,
      "ೌಪದಿ": 8582,
      "್\")\n": 8583,
      "೦.": 8584,
      "೩೦": 8585,
      "‌ಡ": 8586,
      "‌ಗಢ": 8587,
      "–13": 8588,
      "–17": 8589,
      "–Pakistan": 8590,
      "▁₹": 8591,
      "▁ki": 8592,
      "▁रा": 8593,
      "▁78": 8594,
      "▁ना": 8595,
      "▁70": 8596,
      "▁ಭಾಷ": 8597,
      "▁times": 8598,
      "▁ಯು": 8599,
      "▁view": 8600,
      "▁trib": 8601,
      "▁ರಿಂದ": 8602,
      "ora": 8603,
      "orne": 8604,
      "https": 8605,
      "](https://www": 8606,
      "▁[श": 8607,
      "▁[ಚ": 8608,
      "▁[ಸ": 8609,
      "▁[राज्य": 8610,
      "▁[ಪ್ರ": 8611,
      "▁[Harle": 8612,
      "▁[ಜೈನ": 8613,
      "▁[ಸಿಖ್": 8614,
      "▁[ಸಿಂಧೂ": 8615,
      "▁[ವೇಬ್ಯಾಕ್": 8616,
      "ena": 8617,
      "te,": 8618,
      "▁\"ಜ": 8619,
      "▁\".in": 8620,
      "▁\"साँच": 8621,
      "▁\"साँचा:": 8622,
      "▁\"ಜೈನ": 8623,
      "▁\"ಸಿಖ್": 8624,
      "▁\"ಸಿಂಧೂ": 8625,
      "▁\"ಸಂಸ್ಕೃತ": 8626,
      "▁\"ವೇಬ್ಯಾಕ್": 8627,
      "▁\"ಇಂಡ": 8628,
      "\")ಯ": 8629,
      "inal_": 8630,
      "in-O": 8631,
      "onk": 8632,
      "anal": 8633,
      "anch": 8634,
      "Ins": 8635,
      "Infos": 8636,
      "thang": 8637,
      "though": 8638,
      "th_East_Asia_Summit": 8639,
      "India_": 8640,
      "Indian_": 8641,
      "reet": 8642,
      "ales": 8643,
      "alcut": 8644,
      "arv": 8645,
      "arth": 8646,
      "ara_": 8647,
      "ardian": 8648,
      "hili": 8649,
      "isa": 8650,
      "istic": 8651,
      "isak": 8652,
      "](https://hi.wikipedia.org/हिन्द": 8653,
      "](https://hi.wikipedia.org/साँच": 8654,
      "](https://hi.wikipedia.org/साँचा:": 8655,
      "ito": 8656,
      "itor": 8657,
      "itar": 8658,
      "itchi": 8659,
      "▁(E": 8660,
      "▁(2003": 8661,
      "▁(union": 8662,
      "▁(a)": 8663,
      "्रार": 8664,
      "asar": 8665,
      "asian": 8666,
      "](https://en.wikipedia.org/Indian": 8667,
      "ich": 8668,
      "ictor": 8669,
      "190": 8670,
      "let": 8671,
      "lease": 8672,
      "tradition": 8673,
      "▁सूच": 8674,
      "▁सीमा": 8675,
      "▁ins": 8676,
      "▁inequality": 8677,
      "▁independence": 8678,
      "now": 8679,
      "**,": 8680,
      "acts": 8681,
      "](https://en.wikipedia.org/India#cite_ref-1": 8682,
      "▁sultanate": 8683,
      "▁small": 8684,
      "aten": 8685,
      "-05": 8686,
      "-026": 8687,
      "▁pur": 8688,
      "▁prin": 8689,
      "▁policy": 8690,
      "amayana": 8691,
      "▁cre": 8692,
      "▁char": 8693,
      "▁मन्दिर": 8694,
      "ads": 8695,
      "्यूरो": 8696,
      "uscript": 8697,
      "ustice": 8698,
      "ing,": 8699,
      "\n\n:": 8700,
      "▁Ste": 8701,
      "▁Summit": 8702,
      "▁Singh": 8703,
      "▁Schwartzberg": 8704,
      "▁Summer": 8705,
      "▁Schedule": 8706,
      "▁fl": 8707,
      "▁Commission": 8708,
      "▁Court": 8709,
      "रात": 8710,
      "▁पड़": 8711,
      "▁प्लेट": 8712,
      "lion": 8713,
      "urg": 8714,
      "uri": 8715,
      "uran": 8716,
      "urasia": 8717,
      "urasian": 8718,
      "anged": 8719,
      "etnam": 8720,
      "](https://kn.wikipedia.org/ಜ": 8721,
      "](https://kn.wikipedia.org/ಜೈನ": 8722,
      "](https://kn.wikipedia.org/ಸಿಖ್": 8723,
      "](https://kn.wikipedia.org/ಸಿಂಧೂ": 8724,
      "](https://kn.wikipedia.org/ಸಂಸ್ಕೃತ": 8725,
      "](https://kn.wikipedia.org/ವೇಬ್ಯಾಕ್": 8726,
      "▁116": 8727,
      "redi": 8728,
      "uler": 8729,
      "heet": 8730,
      "್ರಿಕ್": 8731,
      "್ರಹ್ಮ": 8732,
      "ilt": 8733,
      "ilar": 8734,
      "ಾರೆ.": 8735,
      "▁mark": 8736,
      "▁mountain": 8737,
      "ानगर": 8738,
      "_of_N": 8739,
      "comp": 8740,
      "compar": 8741,
      "teri": 8742,
      "chol": 8743,
      "▁हाला": 8744,
      "▁हथियार": 8745,
      "▁[↑](https://en.wikipedia.org/India#cite_ref-1": 8746,
      "olice": 8747,
      "istorical": 8748,
      "rotected": 8749,
      "▁Ro": 8750,
      "▁data": 8751,
      "▁divisions": 8752,
      "stat": 8753,
      "style": 8754,
      "▁Tim": 8755,
      "ourism": 8756,
      "igni": 8757,
      "]](https://en.wikipedia.org/India#cite_note-1": 8758,
      "▁Mon": 8759,
      "▁Modi": 8760,
      "▁Movement": 8761,
      "]](https://en.wikipedia.org/India#cite_note-4": 8762,
      "]](https://en.wikipedia.org/India#cite_note-Dyson2018": 8763,
      "raw": 8764,
      "िकी": 8765,
      "याधी": 8766,
      "mentin-O": 8767,
      "▁26.": 8768,
      "▁Bharat": 8769,
      "irac": 8770,
      "▁Dyson": 8771,
      "▁Desert": 8772,
      "10-2": 8773,
      "_(orthographic_projection": 8774,
      "_(union_territory": 8775,
      "ोंक": 8776,
      "508": 8777,
      "\").\n\n": 8778,
      "▁\"Special:BookSources/978": 8779,
      "▁ज़": 8780,
      "▁19.": 8781,
      "▁1970": 8782,
      "▁1980": 8783,
      "](https://en.wikipedia.org/Special:BookSources/978": 8784,
      "▁*A": 8785,
      "▁*ಮುಖ್ಯ": 8786,
      "ालर": 8787,
      "▁India\")*.": 8788,
      "▁E.": 8789,
      "123": 8790,
      "ಲಿನ": 8791,
      "ಲಿಸ": 8792,
      "ಲಿತಾಂಶ": 8793,
      "tuberculosis": 8794,
      "न्ध": 8795,
      "न्स": 8796,
      "▁Human": 8797,
      "▁ಮೇ": 8798,
      "▁ಮಂತ್ರಿ": 8799,
      "▁eaten": 8800,
      "▁बार": 8801,
      "▁बने": 8802,
      "▁बड़ा": 8803,
      "-4)": 8804,
      "_in_T": 8805,
      "▁प्रस": 8806,
      "▁नौसेना": 8807,
      "▁Religion": 8808,
      "ರ್‌": 8809,
      "ರ್ನಾ": 8810,
      "abin": 8811,
      "▁2009.": 8812,
      "▁ಪರಿ": 8813,
      "▁ಪಟ್ಟ": 8814,
      "▁[\"Population": 8815,
      "ension": 8816,
      "_सा": 8817,
      "_सूचना": 8818,
      "▁Informatics": 8819,
      "▁rel": 8820,
      "▁names": 8821,
      "](https://en.wikipedia.org/India#CITEREFCraven1997": 8822,
      "्टॉक": 8823,
      "aks": 8824,
      "ples": 8825,
      "place": 8826,
      "▁three": 8827,
      "ರಾಖಂಡ": 8828,
      "ರಾಠಿ": 8829,
      "132": 8830,
      "168": 8831,
      "16]](https://en.wikipedia.org/India#cite_note-": 8832,
      "tempor": 8833,
      "ಭಾರತದಲ್ಲಿ": 8834,
      "▁वाल": 8835,
      "▁वृद्ध": 8836,
      "ishes": 8837,
      "uccess": 8838,
      "▁\"Coordinated": 8839,
      "24_A7C": 8840,
      "umbered": 8841,
      "क्षण": 8842,
      "क्षद्वीप": 8843,
      "▁On": 8844,
      "▁Olymp": 8845,
      "_Cooperation": 8846,
      "▁आन्द": 8847,
      "तिब्बत": 8848,
      "235": 8849,
      "](https://en.wikipedia.org/Climate_": 8850,
      "otto": 8851,
      "▁Wiley": 8852,
      "▁Le": 8853,
      "33-7": 8854,
      "▁2026.": 8855,
      "ffec": 8856,
      "artial": 8857,
      "▁Kum": 8858,
      "]](https://hi.wikipedia.org/भारत#cite_note-10": 8859,
      "थाईल": 8860,
      "▁[*M": 8861,
      "a_1": 8862,
      "▁ಕಾಲ": 8863,
      "री](https://hi.wikipedia.org/": 8864,
      "▁rise": 8865,
      "▁rupee": 8866,
      "▁गठ": 8867,
      "ongol": 8868,
      "▁turn": 8869,
      "ummary": 8870,
      "▁[Mughal": 8871,
      "ysHQ": 8872,
      "ಿಕೆ": 8873,
      "ಿಕೋಬಾರ್": 8874,
      "▁[↑](https://en.wikipedia.org/India#cite_ref-FOOTNOTEM": 8875,
      "▁[↑](https://en.wikipedia.org/India#cite_ref-FOOTNOTECraven1997": 8876,
      "▁ನಲ್ಲಿ": 8877,
      "▁ನ್ಯಾ": 8878,
      "▁ನಡೆ": 8879,
      "▁ನಾಲ್": 8880,
      "ಂತಾಲಿ": 8881,
      "alled": 8882,
      "▁[BRICS": 8883,
      "▁\"BRICS": 8884,
      "▁[महाराष्ट्र": 8885,
      "_and_N": 8886,
      "ognised": 8887,
      "▁Its": 8888,
      "कांक": 8889,
      "▁ಬಂಗಾಳ": 8890,
      "▁ಬಳಗ": 8891,
      "ರಿ](https://kn.wikipedia.org/": 8892,
      "▁लिया": 8893,
      "60)": 8894,
      "▁*[B": 8895,
      "_MG": 8896,
      "ರುಭೂಮಿ": 8897,
      "ದೇಶಿಕ": 8898,
      "ियान": 8899,
      "हिमालय": 8900,
      "ಾಗಿ": 8901,
      "ಾಗಾಲ": 8902,
      "2006),": 8903,
      "▁development": 8904,
      "77)": 8905,
      "ंडमान": 8906,
      "▁\"East": 8907,
      "▁\"Economic": 8908,
      ")\n\n|": 8909,
      ")\n\nIndia": 8910,
      "39-4": 8911,
      "_Tamil_Nadu": 8912,
      "46)": 8913,
      "](https://en.wikipedia.org/Economic": 8914,
      "▁सागर": 8915,
      "▁\"महाराष्ट्र": 8916,
      "▁विज्ञान": 8917,
      "Harvard": 8918,
      "49-0": 8919,
      "radition": 8920,
      "ಂಡಲ": 8921,
      "ಂಡಿಯಾ": 8922,
      "ಂಡೀಗಢ": 8923,
      "▁[978-0-19-9": 8924,
      "ible": 8925,
      "ibli": 8926,
      "हाब": 8927,
      "_Bank": 8928,
      "ಜನಗಣತಿ": 8929,
      "ೆಯಲ್ಲಿ": 8930,
      "ೆಯನ್ನು": 8931,
      "ೆಯಿತು.": 8932,
      "▁[2](https://hi.wikipedia.org/भारत#cite_ref-FOOTNOTE": 8933,
      "neworld": 8934,
      "परेशन": 8935,
      "▁करना": 8936,
      "▁करता": 8937,
      "मीरात": 8938,
      "▁[1](https://hi.wikipedia.org/भारत#cite_ref-FOOTNOTE": 8939,
      "](https://hi.wikipedia.org/महाराष्ट्र": 8940,
      "ंग्रेज": 8941,
      "duction": 8942,
      "ಿಸಲಾಗ": 8943,
      "▁well": 8944,
      "ರ್ಮದಾ": 8945,
      "ultur": 8946,
      "▁\"Special:BookSources/978-0-19-9": 8947,
      "](https://en.wikipedia.org/Special:BookSources/978-0-19-9": 8948,
      "_Games": 8949,
      "್ಯಾಂಡ": 8950,
      "▁\"Human": 8951,
      "▁1999": 8952,
      "ಿಯನ್": 8953,
      "\"](https://web.archive.org/web/20140": 8954,
      "_con": 8955,
      "▁ಇದ": 8956,
      "▁ಇಂಡಿಯಾ": 8957,
      "ohan": 8958,
      "▁ಸಂಖ್ಯ": 8959,
      "▁ಸಂಘಟನೆ": 8960,
      "▁[Russia": 8961,
      "▁\"Russia": 8962,
      "](https://en.wikipedia.org/Russia": 8963,
      "_domain": 8964,
      "ವಿಡ": 8965,
      "ವಿ.ರ": 8966,
      "▁ದೆಹಲಿ": 8967,
      "▁ದ್ವೀಪ": 8968,
      "▁ದಕ್ಷಿಣ": 8969,
      "ಮುಸ್ಲಿಮ್": 8970,
      "▁ಭಾರತಕ್ಕೆ": 8971,
[...]
